{
  "version": "1.0",
  "truncation": null,
  "padding": null,
  "added_tokens": [],
  "normalizer": null,
  "pre_tokenizer": {
    "type": "ByteLevel",
    "add_prefix_space": true,
    "trim_offsets": true,
    "use_regex": true
  },
  "post_processor": {
    "type": "ByteLevel",
    "add_prefix_space": true,
    "trim_offsets": true,
    "use_regex": true
  },
  "decoder": {
    "type": "ByteLevel",
    "add_prefix_space": true,
    "trim_offsets": true,
    "use_regex": true
  },
  "model": {
    "type": "BPE",
    "dropout": null,
    "unk_token": null,
    "continuing_subword_prefix": null,
    "end_of_word_suffix": null,
    "fuse_unk": false,
    "byte_fallback": false,
    "vocab": {
      "!": 0,
      "\"": 1,
      "#": 2,
      "$": 3,
      "%": 4,
      "&": 5,
      "'": 6,
      "(": 7,
      ")": 8,
      "*": 9,
      "+": 10,
      ",": 11,
      "-": 12,
      ".": 13,
      "/": 14,
      "0": 15,
      "1": 16,
      "2": 17,
      "3": 18,
      "4": 19,
      "5": 20,
      "6": 21,
      "7": 22,
      "8": 23,
      "9": 24,
      ":": 25,
      ";": 26,
      "<": 27,
      "=": 28,
      ">": 29,
      "?": 30,
      "@": 31,
      "A": 32,
      "B": 33,
      "C": 34,
      "D": 35,
      "E": 36,
      "F": 37,
      "G": 38,
      "H": 39,
      "I": 40,
      "J": 41,
      "K": 42,
      "L": 43,
      "M": 44,
      "N": 45,
      "O": 46,
      "P": 47,
      "Q": 48,
      "R": 49,
      "S": 50,
      "T": 51,
      "U": 52,
      "V": 53,
      "W": 54,
      "X": 55,
      "Y": 56,
      "Z": 57,
      "[": 58,
      "\\": 59,
      "]": 60,
      "^": 61,
      "_": 62,
      "`": 63,
      "a": 64,
      "b": 65,
      "c": 66,
      "d": 67,
      "e": 68,
      "f": 69,
      "g": 70,
      "h": 71,
      "i": 72,
      "j": 73,
      "k": 74,
      "l": 75,
      "m": 76,
      "n": 77,
      "o": 78,
      "p": 79,
      "q": 80,
      "r": 81,
      "s": 82,
      "t": 83,
      "u": 84,
      "v": 85,
      "w": 86,
      "x": 87,
      "y": 88,
      "z": 89,
      "{": 90,
      "|": 91,
      "}": 92,
      "~": 93,
      "¡": 94,
      "¢": 95,
      "£": 96,
      "¤": 97,
      "¥": 98,
      "¦": 99,
      "§": 100,
      "¨": 101,
      "©": 102,
      "ª": 103,
      "«": 104,
      "¬": 105,
      "®": 106,
      "¯": 107,
      "°": 108,
      "±": 109,
      "²": 110,
      "³": 111,
      "´": 112,
      "µ": 113,
      "¶": 114,
      "·": 115,
      "¸": 116,
      "¹": 117,
      "º": 118,
      "»": 119,
      "¼": 120,
      "½": 121,
      "¾": 122,
      "¿": 123,
      "À": 124,
      "Á": 125,
      "Â": 126,
      "Ã": 127,
      "Ä": 128,
      "Å": 129,
      "Æ": 130,
      "Ç": 131,
      "È": 132,
      "É": 133,
      "Ê": 134,
      "Ë": 135,
      "Ì": 136,
      "Í": 137,
      "Î": 138,
      "Ï": 139,
      "Ð": 140,
      "Ñ": 141,
      "Ò": 142,
      "Ó": 143,
      "Ô": 144,
      "Õ": 145,
      "Ö": 146,
      "×": 147,
      "Ø": 148,
      "Ù": 149,
      "Ú": 150,
      "Û": 151,
      "Ü": 152,
      "Ý": 153,
      "Þ": 154,
      "ß": 155,
      "à": 156,
      "á": 157,
      "â": 158,
      "ã": 159,
      "ä": 160,
      "å": 161,
      "æ": 162,
      "ç": 163,
      "è": 164,
      "é": 165,
      "ê": 166,
      "ë": 167,
      "ì": 168,
      "í": 169,
      "î": 170,
      "ï": 171,
      "ð": 172,
      "ñ": 173,
      "ò": 174,
      "ó": 175,
      "ô": 176,
      "õ": 177,
      "ö": 178,
      "÷": 179,
      "ø": 180,
      "ù": 181,
      "ú": 182,
      "û": 183,
      "ü": 184,
      "ý": 185,
      "þ": 186,
      "ÿ": 187,
      "Ā": 188,
      "ā": 189,
      "Ă": 190,
      "ă": 191,
      "Ą": 192,
      "ą": 193,
      "Ć": 194,
      "ć": 195,
      "Ĉ": 196,
      "ĉ": 197,
      "Ċ": 198,
      "ċ": 199,
      "Č": 200,
      "č": 201,
      "Ď": 202,
      "ď": 203,
      "Đ": 204,
      "đ": 205,
      "Ē": 206,
      "ē": 207,
      "Ĕ": 208,
      "ĕ": 209,
      "Ė": 210,
      "ė": 211,
      "Ę": 212,
      "ę": 213,
      "Ě": 214,
      "ě": 215,
      "Ĝ": 216,
      "ĝ": 217,
      "Ğ": 218,
      "ğ": 219,
      "Ġ": 220,
      "ġ": 221,
      "Ģ": 222,
      "ģ": 223,
      "Ĥ": 224,
      "ĥ": 225,
      "Ħ": 226,
      "ħ": 227,
      "Ĩ": 228,
      "ĩ": 229,
      "Ī": 230,
      "ī": 231,
      "Ĭ": 232,
      "ĭ": 233,
      "Į": 234,
      "į": 235,
      "İ": 236,
      "ı": 237,
      "Ĳ": 238,
      "ĳ": 239,
      "Ĵ": 240,
      "ĵ": 241,
      "Ķ": 242,
      "ķ": 243,
      "ĸ": 244,
      "Ĺ": 245,
      "ĺ": 246,
      "Ļ": 247,
      "ļ": 248,
      "Ľ": 249,
      "ľ": 250,
      "Ŀ": 251,
      "ŀ": 252,
      "Ł": 253,
      "ł": 254,
      "Ń": 255,
      "čĊ": 256,
      "Ġt": 257,
      "Ġa": 258,
      "in": 259,
      "he": 260,
      "on": 261,
      "re": 262,
      "Ġs": 263,
      "at": 264,
      "Ġo": 265,
      "Ġthe": 266,
      "nd": 267,
      "al": 268,
      "er": 269,
      "ar": 270,
      "en": 271,
      "it": 272,
      "es": 273,
      "an": 274,
      "is": 275,
      "Ġc": 276,
      "Ġof": 277,
      "or": 278,
      "ic": 279,
      "Ġf": 280,
      "Ġb": 281,
      "ion": 282,
      "ed": 283,
      "Ġand": 284,
      "Ġin": 285,
      "ro": 286,
      "Ġp": 287,
      "Ġd": 288,
      "Ġm": 289,
      "as": 290,
      "Ġw": 291,
      "ol": 292,
      "ing": 293,
      "ra": 294,
      "ĠT": 295,
      "Ġ(": 296,
      "ĠS": 297,
      "ct": 298,
      "el": 299,
      "ation": 300,
      "ent": 301,
      "Ġl": 302,
      "ur": 303,
      "le": 304,
      "Ġto": 305,
      "us": 306,
      "Ġg": 307,
      "im": 308,
      "Ġis": 309,
      "ul": 310,
      "Ġth": 311,
      "Ġst": 312,
      "res": 313,
      "Ġe": 314,
      "om": 315,
      "ĠG": 316,
      "orm": 317,
      "ĠM": 318,
      "ig": 319,
      "et": 320,
      "ĠP": 321,
      "ĠThe": 322,
      "os": 323,
      "Ġ1": 324,
      "ĠI": 325,
      "Ġare": 326,
      "Ġh": 327,
      "ĠC": 328,
      "ite": 329,
      "ly": 330,
      "ĠA": 331,
      "Ġre": 332,
      "ĠB": 333,
      "Ġn": 334,
      "ow": 335,
      "am": 336,
      "il": 337,
      "ce": 338,
      "ĠF": 339,
      "ut": 340,
      "ith": 341,
      "id": 342,
      "Ġcon": 343,
      "ch": 344,
      "Ġde": 345,
      "ter": 346,
      "ve": 347,
      "ri": 348,
      "ts": 349,
      "up": 350,
      "ure": 351,
      "Ġas": 352,
      "ormation": 353,
      "ay": 354,
      "oc": 355,
      "Ġv": 356,
      "Ġwith": 357,
      "Ġbe": 358,
      "ĠD": 359,
      "ot": 360,
      "ĠR": 361,
      "00": 362,
      "st": 363,
      "og": 364,
      "ph": 365,
      "and": 366,
      "ate": 367,
      "Ġal": 368,
      "ag": 369,
      "one": 370,
      "if": 371,
      "Ġfa": 372,
      "ect": 373,
      "Ġby": 374,
      "ĠN": 375,
      "ap": 376,
      "un": 377,
      "ĠK": 378,
      "Ġthat": 379,
      "ran": 380,
      "ver": 381,
      "um": 382,
      "all": 383,
      "th": 384,
      "od": 385,
      "Ġor": 386,
      "Ġbas": 387,
      "ad": 388,
      "Ġ2": 389,
      "Ġex": 390,
      "qu": 391,
      "ĠL": 392,
      "und": 393,
      "ĠH": 394,
      "rom": 395,
      "Ġsh": 396,
      "her": 397,
      "ress": 398,
      "ck": 399,
      "ical": 400,
      "ir": 401,
      "ia": 402,
      "Ġro": 403,
      "ated": 404,
      "Ġan": 405,
      "art": 406,
      "ult": 407,
      "ist": 408,
      "ip": 409,
      "Ġse": 410,
      ").": 411,
      "ĠE": 412,
      "ine": 413,
      "rain": 414,
      "Ġdef": 415,
      "ain": 416,
      "ous": 417,
      "se": 418,
      "rat": 419,
      "ab": 420,
      "Ġsu": 421,
      "Ġfrom": 422,
      "Ġcom": 423,
      "cc": 424,
      "ment": 425,
      "Ġon": 426,
      "Ġshe": 427,
      "ere": 428,
      "uct": 429,
      "est": 430,
      "ast": 431,
      "Ġpl": 432,
      "ĠInd": 433,
      "olog": 434,
      "Ġfol": 435,
      "Ġfor": 436,
      "Ġbel": 437,
      "ites": 438,
      "ak": 439,
      "Ġz": 440,
      "roup": 441,
      "ens": 442,
      "ud": 443,
      "ies": 444,
      "ong": 445,
      "ore": 446,
      "pe": 447,
      "ge": 448,
      "Ġcont": 449,
      "Ġshear": 450,
      "Ġrock": 451,
      "ial": 452,
      "ĠJ": 453,
      "Ġat": 454,
      "ust": 455,
      "Ġ-": 456,
      "Ġ3": 457,
      "iv": 458,
      "Ġpro": 459,
      "ace": 460,
      "ures": 461,
      "out": 462,
      "ruct": 463,
      "av": 464,
      "ian": 465,
      ".,": 466,
      "ill": 467,
      "pl": 468,
      "Ġdeformation": 469,
      "ort": 470,
      "igure": 471,
      "ĠGe": 472,
      "ĠIn": 473,
      "ity": 474,
      "ĠW": 475,
      "har": 476,
      "Ġwh": 477,
      "op": 478,
      "Ġk": 479,
      "ary": 480,
      "per": 481,
      "ĠGroup": 482,
      "âĢ": 483,
      "ant": 484,
      "ess": 485,
      "Ġcomp": 486,
      "ive": 487,
      "Ġint": 488,
      "ĠIndia": 489,
      "Ġfl": 490,
      "iment": 491,
      "tern": 492,
      "ric": 493,
      "Ġfault": 494,
      "Ġbasin": 495,
      "ell": 496,
      "Ġgran": 497,
      "em": 498,
      "ĠO": 499,
      "ract": 500,
      "ers": 501,
      "Ġfold": 502,
      "ĠV": 503,
      "ĠMa": 504,
      "Ġstress": 505,
      "19": 506,
      "war": 507,
      "raph": 508,
      "ave": 509,
      "ations": 510,
      "here": 511,
      "ang": 512,
      "Ġbelt": 513,
      "),": 514,
      "ac": 515,
      "Ġcan": 516,
      "so": 517,
      "ĠFormation": 518,
      "iss": 519,
      "ediment": 520,
      "ne": 521,
      "ost": 522,
      "ions": 523,
      "ale": 524,
      "ll": 525,
      "Ġit": 526,
      "Ġstrain": 527,
      "ence": 528,
      "iff": 529,
      "Ġco": 530,
      "Ġstruct": 531,
      "eren": 532,
      "Ġne": 533,
      "pos": 534,
      "rust": 535,
      "Ġform": 536,
      "Ġhave": 537,
      "ĠTh": 538,
      "Ġ19": 539,
      "ional": 540,
      "ĠU": 541,
      "cl": 542,
      "Ġmar": 543,
      "Ġcl": 544,
      "iz": 545,
      "Ġun": 546,
      "ass": 547,
      "ond": 548,
      "Ġres": 549,
      "ĠSt": 550,
      "ich": 551,
      "Ġrocks": 552,
      "Ġzone": 553,
      "Ġdi": 554,
      "ug": 555,
      "eral": 556,
      "Ġsediment": 557,
      "Ġpart": 558,
      "Ġdiff": 559,
      "Ġext": 560,
      "ults": 561,
      "ple": 562,
      "Ġ4": 563,
      "ism": 564,
      "ular": 565,
      "igh": 566,
      "Ġ6": 567,
      "Ġthis": 568,
      "ĠFigure": 569,
      "Ġge": 570,
      "Ġover": 571,
      "ene": 572,
      "ile": 573,
      "act": 574,
      "ound": 575,
      "onic": 576,
      "Ġ7": 577,
      "Ġ5": 578,
      "age": 579,
      "Ġqu": 580,
      "artz": 581,
      "Ġwhich": 582,
      "ry": 583,
      "Ġup": 584,
      "Ġ8": 585,
      "Ġcons": 586,
      "ones": 587,
      "Ġshow": 588,
      "Ġocc": 589,
      "ome": 590,
      "Ġlay": 591,
      "ĠCh": 592,
      "uring": 593,
      "Ġmet": 594,
      "ther": 595,
      "Ġfaults": 596,
      "hy": 597,
      "Ġab": 598,
      "Ġme": 599,
      "neiss": 600,
      "we": 601,
      "ratig": 602,
      "Ġdifferen": 603,
      "ratigraph": 604,
      "Ġrel": 605,
      "Ġbet": 606,
      "Ġalso": 607,
      "Ġwhere": 608,
      "ology": 609,
      "Ġch": 610,
      "Ġdis": 611,
      "Ġoccur": 612,
      "ont": 613,
      "Ġnot": 614,
      "ib": 615,
      "erm": 616,
      "orph": 617,
      "Ġev": 618,
      "alt": 619,
      "ween": 620,
      "Ġinter": 621,
      "Ġim": 622,
      "Ġfract": 623,
      "Ġbetween": 624,
      "our": 625,
      "rad": 626,
      "ret": 627,
      "Ġhas": 628,
      "ater": 629,
      "Ġr": 630,
      "ari": 631,
      "Ġmay": 632,
      "oss": 633,
      "eld": 634,
      "Ġsub": 635,
      "AN": 636,
      "Ġen": 637,
      "ik": 638,
      "vel": 639,
      "Ġwe": 640,
      "ectonic": 641,
      "oin": 642,
      "Ġpp": 643,
      "Ġalong": 644,
      "Ġsp": 645,
      "ss": 646,
      "Ġmod": 647,
      "orth": 648,
      "ugh": 649,
      "resent": 650,
      "Ġsl": 651,
      "Ġvol": 652,
      "can": 653,
      "ely": 654,
      "Ġreg": 655,
      "Ġus": 656,
      "ins": 657,
      "ub": 658,
      "oz": 659,
      "âĢĵ": 660,
      "port": 661,
      "ological": 662,
      "able": 663,
      "ae": 664,
      "Ġduring": 665,
      "Ġsur": 666,
      "Ġsim": 667,
      "Ġquartz": 668,
      "ĠDe": 669,
      "Ġind": 670,
      "Ġdifferent": 671,
      "Ġsout": 672,
      "ĠThis": 673,
      "ob": 674,
      "ates": 675,
      "ozo": 676,
      "ics": 677,
      "Ġsy": 678,
      "ach": 679,
      "form": 680,
      "Ġinto": 681,
      "Ġtw": 682,
      "Ġstructures": 683,
      "red": 684,
      "Ġsand": 685,
      "stone": 686,
      "ield": 687,
      "Ġ9": 688,
      "ces": 689,
      "ew": 690,
      "itic": 691,
      "ozoic": 692,
      "aj": 693,
      "ists": 694,
      "imal": 695,
      "ff": 696,
      "ower": 697,
      "Ġline": 698,
      "ocene": 699,
      "ana": 700,
      "Ġbut": 701,
      "ree": 702,
      "mat": 703,
      "Ġy": 704,
      "ert": 705,
      "Ġmin": 706,
      "oun": 707,
      "ram": 708,
      "ition": 709,
      "ural": 710,
      "raton": 711,
      "ord": 712,
      "Ġextens": 713,
      "ock": 714,
      "ick": 715,
      "con": 716,
      "Ġbeen": 717,
      "ee": 718,
      "rans": 719,
      "Ġty": 720,
      "Ġflow": 721,
      "Ġtwo": 722,
      "Ġund": 723,
      "Ġsome": 724,
      "Ġpar": 725,
      "200": 726,
      "Ġgneiss": 727,
      "ren": 728,
      "Ġmodel": 729,
      "imalay": 730,
      "Ġsurf": 731,
      "amb": 732,
      "Ġplan": 733,
      "rit": 734,
      "Ġother": 735,
      "ath": 736,
      "af": 737,
      "Ġgre": 738,
      "rib": 739,
      "AR": 740,
      "par": 741,
      "Ġper": 742,
      "Ġsediments": 743,
      "Ġzones": 744,
      "oci": 745,
      "li": 746,
      "ĠHimalay": 747,
      "ind": 748,
      "ose": 749,
      "aus": 750,
      "Ġass": 751,
      "ase": 752,
      "Ġlim": 753,
      "ection": 754,
      "ata": 755,
      "11": 756,
      "arb": 757,
      "Ġet": 758,
      "rect": 759,
      "Ġcraton": 760,
      "Ġformation": 761,
      "ide": 762,
      "Ġap": 763,
      "inent": 764,
      "Ġarea": 765,
      "Ġgranite": 766,
      "Ġmore": 767,
      "Ġ10": 768,
      "ution": 769,
      "ii": 770,
      "Ġsequ": 771,
      "ally": 772,
      "astic": 773,
      "Ġvolcan": 774,
      "ah": 775,
      "Ġrep": 776,
      "Ġfolds": 777,
      "Ġle": 778,
      "Ġrec": 779,
      "Ġindic": 780,
      "Ġage": 781,
      "Ġam": 782,
      "Ġwas": 783,
      "hat": 784,
      "arg": 785,
      "mon": 786,
      "amorph": 787,
      "oo": 788,
      "Ġsuch": 789,
      "Ġtrans": 790,
      "rog": 791,
      "omet": 792,
      "omer": 793,
      "Ġnear": 794,
      "Ġtectonic": 795,
      "ys": 796,
      "Ġj": 797,
      "lomer": 798,
      "Ġunder": 799,
      "rient": 800,
      "end": 801,
      "Ġref": 802,
      "ove": 803,
      "Ġri": 804,
      "Ġsch": 805,
      "ĠIt": 806,
      "rav": 807,
      "Ġhor": 808,
      "Ġcor": 809,
      "Ġ200": 810,
      "Ġorient": 811,
      "Ġhigh": 812,
      "ossil": 813,
      "ting": 814,
      "Ġthere": 815,
      "ied": 816,
      "Ġdirect": 817,
      "ically": 818,
      "Ġits": 819,
      "ved": 820,
      "ĠQ": 821,
      "ands": 822,
      "ĠGeol": 823,
      "Ġwell": 824,
      "Ġloc": 825,
      "arbon": 826,
      "ement": 827,
      "ĠZ": 828,
      "round": 829,
      "ĠAn": 830,
      "hen": 831,
      "Ġrepresent": 832,
      "Ġsalt": 833,
      "Ġob": 834,
      "Ġdepos": 835,
      "aceous": 836,
      "chan": 837,
      "eng": 838,
      "Ġbed": 839,
      "vi": 840,
      "ross": 841,
      "Ġmap": 842,
      "Ġlith": 843,
      "Ġbound": 844,
      "Ġthick": 845,
      "Ġar": 846,
      "row": 847,
      "Ġgen": 848,
      "Figure": 849,
      "199": 850,
      "velop": 851,
      "ans": 852,
      "Ġcrust": 853,
      "Ġthan": 854,
      "ondw": 855,
      "own": 856,
      "ĠBas": 857,
      "Ġstratigraph": 858,
      "Ġlayers": 859,
      "low": 860,
      "ax": 861,
      "ral": 862,
      "gg": 863,
      "Ġdist": 864,
      "ime": 865,
      "hern": 866,
      "Ġabout": 867,
      "ains": 868,
      "Â°": 869,
      "Ġsc": 870,
      "Ġchar": 871,
      "rop": 872,
      "Ġel": 873,
      "Ġax": 874,
      "ific": 875,
      "alled": 876,
      "ĠGondw": 877,
      "rap": 878,
      "estone": 879,
      "arly": 880,
      "ish": 881,
      "Ġbec": 882,
      "Ġout": 883,
      "Ġtheir": 884,
      "ature": 885,
      "alli": 886,
      "Ġdata": 887,
      "astern": 888,
      "Ġthey": 889,
      "Ġsouth": 890,
      "oph": 891,
      "der": 892,
      "any": 893,
      "rian": 894,
      "Ġmineral": 895,
      "Ġthese": 896,
      "Ġkm": 897,
      "Ġsurface": 898,
      "ĠPl": 899,
      "Ġmetamorph": 900,
      "ward": 901,
      "Ġdom": 902,
      "Ġcol": 903,
      "alc": 904,
      "lex": 905,
      "pend": 906,
      "Ġad": 907,
      "rin": 908,
      "Ġone": 909,
      "Ġdevelop": 910,
      "Ġintr": 911,
      "its": 912,
      "ĠThese": 913,
      "ft": 914,
      "Ġcalled": 915,
      "Ġlayer": 916,
      "Ġwill": 917,
      "Ġnorth": 918,
      "Ġsequence": 919,
      "ĠJour": 920,
      "10": 921,
      "alae": 922,
      "rogen": 923,
      "ack": 924,
      "Ġmost": 925,
      "ĠPro": 926,
      "ĠIndian": 927,
      "ambrian": 928,
      "ble": 929,
      "rough": 930,
      "50": 931,
      "Ġmic": 932,
      "Ġbasins": 933,
      "Ïĥ": 934,
      "ines": 935,
      "ening": 936,
      "ign": 937,
      "ted": 938,
      "ered": 939,
      "Ġassoci": 940,
      "ĠGondwana": 941,
      "estern": 942,
      "ight": 943,
      "Ġdes": 944,
      "Ġcommon": 945,
      "Ġmechan": 946,
      "ue": 947,
      "Ġmark": 948,
      "icular": 949,
      "Ġshale": 950,
      "Ġinc": 951,
      "ases": 952,
      "Ġ12": 953,
      "Ġcong": 954,
      "olution": 955,
      "Ġconglomer": 956,
      "apter": 957,
      "ryst": 958,
      "alle": 959,
      "erg": 960,
      "ke": 961,
      "Ġcle": 962,
      "Ġ199": 963,
      "ance": 964,
      "ĠRe": 965,
      "ides": 966,
      "ory": 967,
      "Ġfield": 968,
      "Ġvari": 969,
      "xt": 970,
      "ash": 971,
      "ments": 972,
      "Ġinf": 973,
      "ĠSh": 974,
      "ĠGeology": 975,
      "ĠQu": 976,
      "Ġterm": 977,
      "Ġfossil": 978,
      "Ġslip": 979,
      "Ġgrain": 980,
      "idd": 981,
      "Ġve": 982,
      "Ġmarg": 983,
      "ard": 984,
      "place": 985,
      "ĠHimalaya": 986,
      "au": 987,
      "ĠX": 988,
      "arh": 989,
      "allel": 990,
      "Ġhoriz": 991,
      "Fig": 992,
      "pt": 993,
      "Ġact": 994,
      "Ġso": 995,
      "Ġmain": 996,
      "Ġacc": 997,
      "ĠFig": 998,
      "Ġshown": 999,
      "pur": 1000,
      "Ġag": 1001,
      "Ġrot": 1002,
      "Ġfractures": 1003,
      "Ġ18": 1004,
      "ating": 1005,
      "Ġ11": 1006,
      "vers": 1007,
      "ors": 1008,
      "Ġall": 1009,
      "Ġimport": 1010,
      "Ġstud": 1011,
      "ressure": 1012,
      "ai": 1013,
      "pec": 1014,
      "Ġtyp": 1015,
      "tt": 1016,
      "Ġwere": 1017,
      "rel": 1018,
      "Ġbasal": 1019,
      "hed": 1020,
      "Ġkn": 1021,
      "assic": 1022,
      "oint": 1023,
      "sh": 1024,
      "Ġdeform": 1025,
      "Ġsimple": 1026,
      "AT": 1027,
      "Ġbelts": 1028,
      "ormal": 1029,
      "Ġseen": 1030,
      "Ġfracture": 1031,
      "iddle": 1032,
      "ough": 1033,
      "Ġlow": 1034,
      "rec": 1035,
      "Ġsm": 1036,
      "iation": 1037,
      "Ġfollow": 1038,
      "33": 1039,
      "inal": 1040,
      "Ġorogen": 1041,
      "uld": 1042,
      "Ġthrough": 1043,
      "arge": 1044,
      "olite": 1045,
      "Ġdirection": 1046,
      "Ġno": 1047,
      "placement": 1048,
      "ever": 1049,
      "net": 1050,
      "sl": 1051,
      "yl": 1052,
      "Ġconsid": 1053,
      "conform": 1054,
      "Ġac": 1055,
      "ĠFa": 1056,
      "Ġwithin": 1057,
      "Ġexam": 1058,
      "Ġgneisses": 1059,
      "Ġset": 1060,
      "ĠAl": 1061,
      "ced": 1062,
      "posed": 1063,
      "ĠAm": 1064,
      "terozoic": 1065,
      "Ġmag": 1066,
      "old": 1067,
      "tle": 1068,
      "uch": 1069,
      "ole": 1070,
      "ĠDhar": 1071,
      "ifer": 1072,
      "Ġsepar": 1073,
      "Ġextension": 1074,
      "Ġ16": 1075,
      "ĠGeological": 1076,
      "han": 1077,
      "hum": 1078,
      "ccan": 1079,
      "IS": 1080,
      "inu": 1081,
      "Ġthree": 1082,
      "oth": 1083,
      "Ġmany": 1084,
      "entral": 1085,
      "ame": 1086,
      "198": 1087,
      "Ġupper": 1088,
      "mm": 1089,
      "ĠÏĥ": 1090,
      "000": 1091,
      "Ġsandstone": 1092,
      "ange": 1093,
      "ĠSing": 1094,
      "ilar": 1095,
      "aces": 1096,
      "oints": 1097,
      "Ġfound": 1098,
      "ĠAr": 1099,
      "Ġconsists": 1100,
      "Ġimportant": 1101,
      "ised": 1102,
      "ail": 1103,
      "Ġsup": 1104,
      "Ġbo": 1105,
      "Ġflu": 1106,
      "AL": 1107,
      "Ġphy": 1108,
      "Ġthrust": 1109,
      "22": 1110,
      "Ġconst": 1111,
      "Ġcalc": 1112,
      "Ġstri": 1113,
      "Ġ13": 1114,
      "ĠDeccan": 1115,
      "Ġtre": 1116,
      "Ġph": 1117,
      "ura": 1118,
      "Ġbands": 1119,
      "Ġ20": 1120,
      "oung": 1121,
      "elt": 1122,
      "ents": 1123,
      "Ġ15": 1124,
      "Ġgeneral": 1125,
      "ER": 1126,
      "fore": 1127,
      "ness": 1128,
      "bl": 1129,
      "Ġconglomerate": 1130,
      "ike": 1131,
      "Ġorientation": 1132,
      "ontal": 1133,
      "Ġplane": 1134,
      "Ġaround": 1135,
      "avage": 1136,
      "Ġdesc": 1137,
      "afic": 1138,
      "duct": 1139,
      "Ġschist": 1140,
      "AS": 1141,
      "Ġdo": 1142,
      "ĠSingh": 1143,
      "ĠSc": 1144,
      "Ġlower": 1145,
      "ably": 1146,
      "ber": 1147,
      "wal": 1148,
      "Ġnormal": 1149,
      "ause": 1150,
      "alley": 1151,
      "IN": 1152,
      "hi": 1153,
      "ron": 1154,
      "ative": 1155,
      "esh": 1156,
      "Ġear": 1157,
      "ĠCom": 1158,
      "Ġsugg": 1159,
      "ON": 1160,
      "Ġgl": 1161,
      "cess": 1162,
      "ĠY": 1163,
      "Ġhe": 1164,
      "Ġgiv": 1165,
      "Ġbasement": 1166,
      "Ġlimestone": 1167,
      "Ġrelated": 1168,
      "ajor": 1169,
      "Ġang": 1170,
      "acter": 1171,
      "Ġpat": 1172,
      "Ġcontain": 1173,
      "ep": 1174,
      "ellip": 1175,
      "Ġquartzite": 1176,
      "Ġcarbon": 1177,
      "ĠSoc": 1178,
      "ids": 1179,
      "stem": 1180,
      "Ġonly": 1181,
      "Ġmajor": 1182,
      "pper": 1183,
      "retaceous": 1184,
      "Ġdet": 1185,
      "Ġassociated": 1186,
      "ĠâĢ": 1187,
      "Ġsection": 1188,
      "hand": 1189,
      "iron": 1190,
      "Ġlarge": 1191,
      "Ġvolcanics": 1192,
      "Ġ'": 1193,
      "Ġdisc": 1194,
      "ograph": 1195,
      "Ġgranul": 1196,
      "Ġsmall": 1197,
      "Ġresult": 1198,
      "ined": 1199,
      "Ġmat": 1200,
      "ubl": 1201,
      "II": 1202,
      "Ġellip": 1203,
      "Ġol": 1204,
      "ĠDharwar": 1205,
      "20": 1206,
      "bhum": 1207,
      "cies": 1208,
      "du": 1209,
      "Ġboundary": 1210,
      "rict": 1211,
      "aur": 1212,
      "Ġ=": 1213,
      "ume": 1214,
      "are": 1215,
      "pect": 1216,
      "Ġcharacter": 1217,
      "Ġoverl": 1218,
      "Ġparallel": 1219,
      "ery": 1220,
      "owever": 1221,
      "Ġincre": 1222,
      "Ġoccurs": 1223,
      "Ġinv": 1224,
      "Ġincl": 1225,
      "Ġformed": 1226,
      "ĠSand": 1227,
      "Ġeast": 1228,
      "Ġknown": 1229,
      "Ġshort": 1230,
      "ffect": 1231,
      "Ġcleavage": 1232,
      "Ġpresent": 1233,
      "ĠRA": 1234,
      "Ġsedimentary": 1235,
      "ĠCretaceous": 1236,
      "Ġcomplex": 1237,
      "Ġused": 1238,
      "ĠStruct": 1239,
      "inental": 1240,
      "ĠSinghbhum": 1241,
      "ĠRaj": 1242,
      "rittle": 1243,
      "15": 1244,
      "aa": 1245,
      "Ġsimilar": 1246,
      "13": 1247,
      "Ġvert": 1248,
      "cle": 1249,
      "Â±": 1250,
      "ĠSub": 1251,
      "Ġdisplacement": 1252,
      "88": 1253,
      "ef": 1254,
      "obile": 1255,
      "Ġtype": 1256,
      "ravalli": 1257,
      "lect": 1258,
      "ĠPrec": 1259,
      "Ġdescrib": 1260,
      "ear": 1261,
      "els": 1262,
      "Ġcorrel": 1263,
      "kal": 1264,
      "Ġ0": 1265,
      "Ġter": 1266,
      "Ġdip": 1267,
      "ade": 1268,
      "ccess": 1269,
      "Ġfoliation": 1270,
      "ink": 1271,
      "als": 1272,
      "ĠPrecambrian": 1273,
      "Ġdeformed": 1274,
      "Ġsil": 1275,
      "ified": 1276,
      "rystall": 1277,
      "Ġpressure": 1278,
      "ĠSur": 1279,
      "Ġhist": 1280,
      "ismic": 1281,
      "Ġencl": 1282,
      "Ġif": 1283,
      "Ġtime": 1284,
      "aves": 1285,
      "Ġtrend": 1286,
      "Ġsect": 1287,
      "Ġmechanism": 1288,
      "eb": 1289,
      "hes": 1290,
      "ork": 1291,
      "Ġpres": 1292,
      "ĠSup": 1293,
      "ĠPalae": 1294,
      "ĠBh": 1295,
      "ĠLower": 1296,
      "Ġsuccess": 1297,
      "rol": 1298,
      "Ġgeomet": 1299,
      "matic": 1300,
      "Ġop": 1301,
      "Ġ17": 1302,
      "Ġclay": 1303,
      "ma": 1304,
      "press": 1305,
      "Ġfacies": 1306,
      "ada": 1307,
      "Ġpattern": 1308,
      "12": 1309,
      "yn": 1310,
      "ities": 1311,
      "Ġwest": 1312,
      "ratigraphy": 1313,
      "ook": 1314,
      "ĠSe": 1315,
      "ively": 1316,
      "Ġbl": 1317,
      "lying": 1318,
      "Ġnort": 1319,
      "ping": 1320,
      "Ġmicro": 1321,
      "Ġexample": 1322,
      "ĠGneiss": 1323,
      "Ġstructure": 1324,
      "ount": 1325,
      "land": 1326,
      "ĠAravalli": 1327,
      "Ġdomin": 1328,
      "ĠGran": 1329,
      "rich": 1330,
      "ual": 1331,
      "ĠSi": 1332,
      "Ġlong": 1333,
      "ĠThey": 1334,
      "Ġlocal": 1335,
      "Ġfossils": 1336,
      "ince": 1337,
      "ounger": 1338,
      "cip": 1339,
      "rr": 1340,
      "Ġareas": 1341,
      "orite": 1342,
      "rac": 1343,
      "Ġwhile": 1344,
      "slip": 1345,
      "ĠFault": 1346,
      "Ġboud": 1347,
      "Ġnon": 1348,
      "Ġstrike": 1349,
      "att": 1350,
      "Ġnum": 1351,
      "Ġsyn": 1352,
      "RA": 1353,
      "isc": 1354,
      "ĠMem": 1355,
      "Ġvery": 1356,
      "Ġmove": 1357,
      "Ġwhen": 1358,
      "Ġrem": 1359,
      "ote": 1360,
      "Ġsystem": 1361,
      "iferous": 1362,
      "Ġ14": 1363,
      "ĠUpper": 1364,
      "Ġoff": 1365,
      "phib": 1366,
      "Ġbeds": 1367,
      "Ġshap": 1368,
      "Ġthickness": 1369,
      "Ġintrus": 1370,
      "ov": 1371,
      "ences": 1372,
      "Ġbrittle": 1373,
      "ĠSp": 1374,
      "Ġunconform": 1375,
      "ons": 1376,
      "itions": 1377,
      "Ġgrad": 1378,
      "ake": 1379,
      "Ġacross": 1380,
      "Ġsuggest": 1381,
      "EE": 1382,
      "sc": 1383,
      "ĠPrad": 1384,
      "Ġhistory": 1385,
      "ient": 1386,
      "18": 1387,
      "ude": 1388,
      "ible": 1389,
      "ĠPradesh": 1390,
      "16": 1391,
      "inn": 1392,
      "ense": 1393,
      "ann": 1394,
      "ĠFor": 1395,
      "ods": 1396,
      "Ġrest": 1397,
      "Ġchange": 1398,
      "hem": 1399,
      "Ġpre": 1400,
      "ĠThere": 1401,
      "Ġcontact": 1402,
      "irst": 1403,
      "Ġlike": 1404,
      "Ġevolution": 1405,
      "Ġparts": 1406,
      "IT": 1407,
      "yro": 1408,
      "ially": 1409,
      "ills": 1410,
      "ĠUn": 1411,
      "Ġlevel": 1412,
      "erv": 1413,
      "arm": 1414,
      "Ġprin": 1415,
      "Ġany": 1416,
      "ris": 1417,
      "Ġstratigraphic": 1418,
      "Ġhorizontal": 1419,
      "ring": 1420,
      "olites": 1421,
      "Ġorig": 1422,
      "pret": 1423,
      "Ġran": 1424,
      "ina": 1425,
      "Ġstructural": 1426,
      "Ġtens": 1427,
      "rag": 1428,
      "14": 1429,
      "emper": 1430,
      "aw": 1431,
      "imes": 1432,
      "Ġmarine": 1433,
      "Ġbecause": 1434,
      "MB": 1435,
      "Ġgrow": 1436,
      "Ġextend": 1437,
      "ĠZone": 1438,
      "fter": 1439,
      "Ġdy": 1440,
      "ĠAnd": 1441,
      "Ġbased": 1442,
      "ĠVol": 1443,
      "Ġsouthern": 1444,
      "Ġi": 1445,
      "ivid": 1446,
      "IF": 1447,
      "Ġsame": 1448,
      "ĠChapter": 1449,
      "ength": 1450,
      "ie": 1451,
      "ani": 1452,
      "imens": 1453,
      "amp": 1454,
      "Ġcontinu": 1455,
      "Ġ198": 1456,
      "Ġdeposit": 1457,
      "HA": 1458,
      "Ġdep": 1459,
      "nock": 1460,
      "atic": 1461,
      "Ġexpl": 1462,
      "Ġprov": 1463,
      "Ġprincip": 1464,
      "kes": 1465,
      "viron": 1466,
      "Ġtoward": 1467,
      "Ġequ": 1468,
      "ĠMe": 1469,
      "Ġmeans": 1470,
      "Ġsign": 1471,
      "Ġboth": 1472,
      "ĠNo": 1473,
      "Ġprocess": 1474,
      "Ġgrey": 1475,
      "cent": 1476,
      "ject": 1477,
      "ĠEastern": 1478,
      "Ġcoll": 1479,
      "Ġinvol": 1480,
      "Ġvertical": 1481,
      "ga": 1482,
      "ogene": 1483,
      "ized": 1484,
      "Ġscale": 1485,
      "Ġtop": 1486,
      "Ġplastic": 1487,
      "iti": 1488,
      "ĠPen": 1489,
      "erred": 1490,
      "ĠCo": 1491,
      "Ġexposed": 1492,
      "Ġest": 1493,
      "rix": 1494,
      "Ġdiag": 1495,
      "akes": 1496,
      "55": 1497,
      "tic": 1498,
      "Ġrat": 1499,
      "Ġconsist": 1500,
      "Ġstratigraphy": 1501,
      "17": 1502,
      "Ġmobile": 1503,
      "Ġcond": 1504,
      "Ġvalley": 1505,
      "axial": 1506,
      "EN": 1507,
      "Ġlarg": 1508,
      "Ġunit": 1509,
      "Ġinterpret": 1510,
      "Ġphyll": 1511,
      "Ġlines": 1512,
      "ety": 1513,
      "ĠNe": 1514,
      "sem": 1515,
      "Ġcompos": 1516,
      "Ġabove": 1517,
      "aterial": 1518,
      "Ġpoint": 1519,
      "Ġwall": 1520,
      "Ġconf": 1521,
      "ĠKar": 1522,
      "Ġmetamorphic": 1523,
      "Ġgiven": 1524,
      "ĠStructural": 1525,
      "por": 1526,
      "Ġafter": 1527,
      "Ġless": 1528,
      "ĠAs": 1529,
      "Ġgranites": 1530,
      "Ġflows": 1531,
      "Ġte": 1532,
      "Ġindicate": 1533,
      "Ġmargin": 1534,
      "Ġdepth": 1535,
      "ty": 1536,
      "ĠIf": 1537,
      "Ġfolding": 1538,
      "Ġyounger": 1539,
      "mmet": 1540,
      "ould": 1541,
      "chae": 1542,
      "lier": 1543,
      "Ġer": 1544,
      "Ġthem": 1545,
      "elhi": 1546,
      "Ġformations": 1547,
      "ales": 1548,
      "Ġcase": 1549,
      "Ġcross": 1550,
      "Ġdue": 1551,
      "Ġmaterial": 1552,
      "ĠNorth": 1553,
      "Ġplate": 1554,
      "25": 1555,
      "nal": 1556,
      "Ġapp": 1557,
      "Ġtherefore": 1558,
      "hear": 1559,
      "ages": 1560,
      "och": 1561,
      "way": 1562,
      "ĠGhat": 1563,
      "ĠPubl": 1564,
      "duction": 1565,
      "onal": 1566,
      "ational": 1567,
      "ĠMiddle": 1568,
      "Ġparticular": 1569,
      "after": 1570,
      "Ġamphib": 1571,
      "66": 1572,
      "Ġthen": 1573,
      "Ġfe": 1574,
      "Ġmade": 1575,
      "Ġnew": 1576,
      "Ġgreen": 1577,
      "ĠHimalayan": 1578,
      "ĠTri": 1579,
      "Ġages": 1580,
      "Ġgranulite": 1581,
      "iri": 1582,
      "Ġfirst": 1583,
      "Ġdol": 1584,
      "iot": 1585,
      "Ġanal": 1586,
      "Ġcontinental": 1587,
      "ported": 1588,
      "23": 1589,
      "hal": 1590,
      "ually": 1591,
      "oll": 1592,
      "Ġmatrix": 1593,
      "Ġtra": 1594,
      "ĠTrap": 1595,
      "ull": 1596,
      "Ġthose": 1597,
      "apir": 1598,
      "Ġ30": 1599,
      "Ġgeolog": 1600,
      "atern": 1601,
      "Ġenviron": 1602,
      "ĠJournal": 1603,
      "walik": 1604,
      "Ġenclaves": 1605,
      "line": 1606,
      "atures": 1607,
      "aries": 1608,
      "Ġcur": 1609,
      "Ġclass": 1610,
      "insular": 1611,
      "Ġconsidered": 1612,
      "26": 1613,
      "ES": 1614,
      "Ġrelations": 1615,
      "ĠSiwalik": 1616,
      "aternary": 1617,
      "77": 1618,
      "Ġtemper": 1619,
      "ĠRam": 1620,
      "stones": 1621,
      "ophy": 1622,
      "ergroup": 1623,
      "ashm": 1624,
      "LL": 1625,
      "arnet": 1626,
      "anite": 1627,
      "Ġbod": 1628,
      "Ġcoast": 1629,
      "Ġrift": 1630,
      "ĠBasin": 1631,
      "Ġstudies": 1632,
      "Ġcases": 1633,
      "rab": 1634,
      "Ġsuccession": 1635,
      "ĠÎ": 1636,
      "ica": 1637,
      "Ġlater": 1638,
      "Ġstret": 1639,
      "Ġdepend": 1640,
      "veral": 1641,
      "Ġseveral": 1642,
      "ylon": 1643,
      "gress": 1644,
      "ĠBo": 1645,
      "amm": 1646,
      "ustr": 1647,
      "Ġjoints": 1648,
      "Ġschists": 1649,
      "Ġprincipal": 1650,
      "ded": 1651,
      "ĠBar": 1652,
      "ĠLate": 1653,
      "ĠSupergroup": 1654,
      "urther": 1655,
      "Ġchang": 1656,
      "Ġsurfaces": 1657,
      "Ġangle": 1658,
      "eries": 1659,
      "ise": 1660,
      "Ġwestern": 1661,
      "ĠCl": 1662,
      "Ġinformation": 1663,
      "Ġrotation": 1664,
      "Ġfollowed": 1665,
      "ĠBIF": 1666,
      "amin": 1667,
      "ility": 1668,
      "ĠHowever": 1669,
      "Ġseismic": 1670,
      "erence": 1671,
      "Ġdevelopment": 1672,
      "oh": 1673,
      "Ġcir": 1674,
      "Ġcompon": 1675,
      "llll": 1676,
      "ĠQuaternary": 1677,
      "Ġshortening": 1678,
      "Ġdescribed": 1679,
      "30": 1680,
      "rish": 1681,
      "plic": 1682,
      "hyan": 1683,
      "Ġvolume": 1684,
      "armada": 1685,
      "chaean": 1686,
      "ashmir": 1687,
      "ident": 1688,
      "ĠWe": 1689,
      "Ġregion": 1690,
      "Ġtypes": 1691,
      "bed": 1692,
      "ĠčĊ": 1693,
      "olith": 1694,
      "ching": 1695,
      "ophys": 1696,
      "rishn": 1697,
      "read": 1698,
      "Ġband": 1699,
      "Ġlength": 1700,
      "Ġunits": 1701,
      "Ġdiapir": 1702,
      "IC": 1703,
      "vial": 1704,
      "Ġra": 1705,
      "ĠPerm": 1706,
      "Ġcy": 1707,
      "Ġem": 1708,
      "Ġaxes": 1709,
      "ification": 1710,
      "Ġcommonly": 1711,
      "Ġshape": 1712,
      "Ġconditions": 1713,
      "SS": 1714,
      "ium": 1715,
      "Ġstate": 1716,
      "ĠBeng": 1717,
      "ĠWestern": 1718,
      "Ġregional": 1719,
      "of": 1720,
      "Ġ/": 1721,
      "Ġlav": 1722,
      "Ġeach": 1723,
      "Ġshows": 1724,
      "Ġextensional": 1725,
      "Ġvarious": 1726,
      "mar": 1727,
      "Ġeffect": 1728,
      "Ġbre": 1729,
      "ĠSpec": 1730,
      "Ġhow": 1731,
      "Ġmetamorphism": 1732,
      "inct": 1733,
      "ĠTable": 1734,
      "igher": 1735,
      "Ġclose": 1736,
      "Ġminerals": 1737,
      "Ġspec": 1738,
      "ice": 1739,
      "una": 1740,
      "Ġsignific": 1741,
      "roterozoic": 1742,
      "ĠKashmir": 1743,
      "Ġgeological": 1744,
      "Ġrecord": 1745,
      "uk": 1746,
      "Ġx": 1747,
      "ank": 1748,
      "Ġforms": 1749,
      "Ġobs": 1750,
      "Ġcrit": 1751,
      "Ġposs": 1752,
      "Ġnam": 1753,
      "ocl": 1754,
      "umul": 1755,
      "ĠEarly": 1756,
      "Ġmechanisms": 1757,
      "24": 1758,
      "bric": 1759,
      "ĠLim": 1760,
      "ize": 1761,
      "ocks": 1762,
      "Ġseparated": 1763,
      "Ġsections": 1764,
      "istic": 1765,
      "UR": 1766,
      "lu": 1767,
      "ves": 1768,
      "Ġsense": 1769,
      "Ġcentral": 1770,
      "ict": 1771,
      "ĠSout": 1772,
      "pendicular": 1773,
      "loc": 1774,
      "ood": 1775,
      "Ġfew": 1776,
      "Ġend": 1777,
      "ĠDelhi": 1778,
      "Ġfact": 1779,
      "ratigraphic": 1780,
      "rent": 1781,
      "Ġdeposits": 1782,
      "ĠProterozoic": 1783,
      "Ġdiagram": 1784,
      "ĠGhats": 1785,
      "les": 1786,
      "Ġcaus": 1787,
      "Ġsea": 1788,
      "udd": 1789,
      "Ġgeology": 1790,
      "ĠQuartz": 1791,
      "ĠComple": 1792,
      "ane": 1793,
      "Ġalkal": 1794,
      "Ġgeometry": 1795,
      "ĠTectonic": 1796,
      "other": 1797,
      "ĠPlate": 1798,
      "Ġfluid": 1799,
      "Ġnorthern": 1800,
      "ope": 1801,
      "ora": 1802,
      "Ġprob": 1803,
      "Ġweak": 1804,
      "Ġinclud": 1805,
      "sembl": 1806,
      "ision": 1807,
      "edge": 1808,
      "ĠBelt": 1809,
      "ĠFold": 1810,
      "Ġmainly": 1811,
      "rus": 1812,
      "yp": 1813,
      "ultram": 1814,
      "oproterozoic": 1815,
      "ĠComplex": 1816,
      "21": 1817,
      "ier": 1818,
      "most": 1819,
      "Ġpure": 1820,
      "ĠMes": 1821,
      "ribution": 1822,
      "Ġglac": 1823,
      "ĠSurv": 1824,
      "Ġorigin": 1825,
      "Ġdykes": 1826,
      "enite": 1827,
      "Ġnow": 1828,
      "Ġexper": 1829,
      "action": 1830,
      "Ġperpendicular": 1831,
      "ĠSandstone": 1832,
      "ges": 1833,
      "yd": 1834,
      "ĠSome": 1835,
      "dd": 1836,
      "pura": 1837,
      "imum": 1838,
      "ĠRes": 1839,
      "ĠLith": 1840,
      "Ġsedimentation": 1841,
      "scale": 1842,
      "ĠPeninsular": 1843,
      "bas": 1844,
      "nn": 1845,
      "Ġill": 1846,
      "Ġcent": 1847,
      "ĠSim": 1848,
      "Ġlat": 1849,
      "Ġeastern": 1850,
      "ĠAll": 1851,
      "Ġcontract": 1852,
      "assive": 1853,
      "Ġcharnock": 1854,
      "Ġfels": 1855,
      "Ġcontains": 1856,
      "Ġreflect": 1857,
      "onian": 1858,
      "ara": 1859,
      "Ġprom": 1860,
      "Ġwid": 1861,
      "ĠCentral": 1862,
      "AA": 1863,
      "omite": 1864,
      "ecton": 1865,
      "odav": 1866,
      "Ġsubs": 1867,
      "Ġlinear": 1868,
      "Ġcrustal": 1869,
      "Ġconsider": 1870,
      "odavari": 1871,
      "60": 1872,
      "OR": 1873,
      "oy": 1874,
      "ĠPal": 1875,
      "Ġshall": 1876,
      "Ġprodu": 1877,
      "Ġmodels": 1878,
      "Ġparticularly": 1879,
      "ĠPermian": 1880,
      "Ġident": 1881,
      "Ġtr": 1882,
      "osity": 1883,
      ");": 1884,
      "AD": 1885,
      "oration": 1886,
      "ĠCont": 1887,
      "Ġreported": 1888,
      "verse": 1889,
      "Ġrate": 1890,
      "Ġperi": 1891,
      "Ġvolcanic": 1892,
      "Ġbasalts": 1893,
      "ĠSci": 1894,
      "28": 1895,
      "get": 1896,
      "anj": 1897,
      "Ġgarnet": 1898,
      "Ġthin": 1899,
      "ĠGl": 1900,
      "ĠEv": 1901,
      "pear": 1902,
      "ĠMah": 1903,
      "angal": 1904,
      "orthos": 1905,
      "Ġrepresented": 1906,
      "ĠArchaean": 1907,
      "oli": 1908,
      "Ġdec": 1909,
      "Ġassembl": 1910,
      "Ġbasalt": 1911,
      "ĠOr": 1912,
      "Ġaxis": 1913,
      "Ġearlier": 1914,
      "cond": 1915,
      "oids": 1916,
      "alu": 1917,
      "Ġmig": 1918,
      "ĠMad": 1919,
      "ĠNarmada": 1920,
      "ĠEar": 1921,
      "Ġetc": 1922,
      "Ġtectonics": 1923,
      "Ġpresence": 1924,
      "Ġanalys": 1925,
      "garh": 1926,
      "itional": 1927,
      "Ġeven": 1928,
      "view": 1929,
      "Ġvect": 1930,
      "io": 1931,
      "oly": 1932,
      "idence": 1933,
      "Ġorth": 1934,
      "eeee": 1935,
      "ĠTriassic": 1936,
      "Ġwork": 1937,
      "upt": 1938,
      "que": 1939,
      "Ġsuite": 1940,
      "ĠOn": 1941,
      "Ġtrending": 1942,
      "mmetric": 1943,
      "Ġtemperature": 1944,
      "rim": 1945,
      "itu": 1946,
      "asts": 1947,
      "urn": 1948,
      "leist": 1949,
      "ĠVolcan": 1950,
      "Ġchanges": 1951,
      "leistocene": 1952,
      "cont": 1953,
      "uth": 1954,
      "abb": 1955,
      "Ġclos": 1956,
      "AND": 1957,
      "Ġregime": 1958,
      "reng": 1959,
      "Ġveins": 1960,
      "ĠGranite": 1961,
      "Ġprobably": 1962,
      "kar": 1963,
      "pond": 1964,
      "tra": 1965,
      "Ġbu": 1966,
      "Ġvi": 1967,
      "Ġbelow": 1968,
      "âĢĻ": 1969,
      "achal": 1970,
      "Ġorogenic": 1971,
      "racrust": 1972,
      "ivided": 1973,
      "Ġenvironment": 1974,
      "Ġsignificant": 1975,
      "osp": 1976,
      "adi": 1977,
      "Ġshallow": 1978,
      "CC": 1979,
      "Ġmust": 1980,
      "Ġbeing": 1981,
      "see": 1982,
      "Ġ40": 1983,
      "Ġshowing": 1984,
      "Ġactiv": 1985,
      "lif": 1986,
      "ĠShear": 1987,
      "Ġgrav": 1988,
      "ĠAt": 1989,
      "ĠKh": 1990,
      "uctile": 1991,
      "rength": 1992,
      "UM": 1993,
      "co": 1994,
      "khand": 1995,
      "ati": 1996,
      "ished": 1997,
      "Ġperm": 1998,
      "Ġmafic": 1999,
      "ĠPleistocene": 2000,
      "Ġ25": 2001,
      "ĠLine": 2002,
      "Ġadd": 2003,
      "Ġcorrelation": 2004,
      ".)": 2005,
      "TA": 2006,
      "face": 2007,
      "ival": 2008,
      "Ġmeth": 2009,
      "ribut": 2010,
      "ĠEarth": 2011,
      "iary": 2012,
      "erved": 2013,
      "ĠMet": 2014,
      "cept": 2015,
      "ostratigraphy": 2016,
      "Ġuplif": 2017,
      "ociety": 2018,
      "Ġstretching": 2019,
      "Ġview": 2020,
      "set": 2021,
      "ĠSociety": 2022,
      "Ġstrength": 2023,
      "Ġearly": 2024,
      "ĠMar": 2025,
      "ĠPale": 2026,
      "ĠOl": 2027,
      "Ġchapter": 2028,
      "Ġmarked": 2029,
      "Ġaccumul": 2030,
      "..": 2031,
      "uj": 2032,
      "ĠSuch": 2033,
      "urassic": 2034,
      "Ġconn": 2035,
      "Ġvisc": 2036,
      "Ġplot": 2037,
      "ella": 2038,
      "Ġoverlying": 2039,
      "Ġappear": 2040,
      "Ġreference": 2041,
      "Ġgrains": 2042,
      "27": 2043,
      "99": 2044,
      "DC": 2045,
      "RO": 2046,
      "ĠSon": 2047,
      "Ġstrat": 2048,
      "ogn": 2049,
      "aps": 2050,
      "astar": 2051,
      "Ġprof": 2052,
      "ples": 2053,
      "ization": 2054,
      "Ġyield": 2055,
      "Ġsequences": 2056,
      "Ġellipso": 2057,
      "Ġgrowth": 2058,
      "Ed": 2059,
      "eg": 2060,
      "formation": 2061,
      "icate": 2062,
      "Ġdown": 2063,
      "Ġway": 2064,
      "let": 2065,
      "uss": 2066,
      "Ġhigher": 2067,
      "Ġbasic": 2068,
      "ĠEx": 2069,
      "iiii": 2070,
      "Ġelement": 2071,
      "44": 2072,
      "Ġcher": 2073,
      "Ġpalae": 2074,
      "ingle": 2075,
      "omorph": 2076,
      "Ġhing": 2077,
      "0000": 2078,
      "ung": 2079,
      "Ġreferred": 2080,
      "Ġrange": 2081,
      "ĠLimestone": 2082,
      "crop": 2083,
      "hip": 2084,
      "Ġent": 2085,
      "Ġsingle": 2086,
      "Ġmylon": 2087,
      "ĠSat": 2088,
      "Ġgroup": 2089,
      "ĠAss": 2090,
      "Ġmeas": 2091,
      "Ġolder": 2092,
      "AM": 2093,
      "ti": 2094,
      "Ġmax": 2095,
      "ĠBastar": 2096,
      "Ġstresses": 2097,
      "Ġlineation": 2098,
      "Ġboudins": 2099,
      "mal": 2100,
      "reg": 2101,
      "Ġpath": 2102,
      "ĠCudd": 2103,
      "app": 2104,
      "Ġ60": 2105,
      "Ġdisloc": 2106,
      "Ġgenerally": 2107,
      "Ġearth": 2108,
      "mod": 2109,
      "oid": 2110,
      "atus": 2111,
      "Ġeas": 2112,
      "apah": 2113,
      "very": 2114,
      "essent": 2115,
      "Ġrepresents": 2116,
      "Ġcontaining": 2117,
      "hot": 2118,
      "Ġultram": 2119,
      "Ġessent": 2120,
      "isation": 2121,
      "imate": 2122,
      "ĠPet": 2123,
      "Ġshales": 2124,
      "Ġcontr": 2125,
      "Ġatt": 2126,
      "Ġkine": 2127,
      "antle": 2128,
      "Ġfaulting": 2129,
      "Ġfollowing": 2130,
      "orthosite": 2131,
      "Ġour": 2132,
      "Ġbase": 2133,
      "pert": 2134,
      "Ġforming": 2135,
      "pp": 2136,
      "Ġtend": 2137,
      "Ġwater": 2138,
      "cean": 2139,
      "ĠFm": 2140,
      "Ġcould": 2141,
      "ertiary": 2142,
      "Ġdeveloped": 2143,
      "29": 2144,
      "Ġthough": 2145,
      "ĠGang": 2146,
      "ĠNew": 2147,
      "umm": 2148,
      "illim": 2149,
      "Ġfolded": 2150,
      "ertain": 2151,
      "ding": 2152,
      "Ġfrict": 2153,
      "ĠTal": 2154,
      "ĠKal": 2155,
      "Ġrelative": 2156,
      "Ġgener": 2157,
      "Ġaxial": 2158,
      "ĠShale": 2159,
      "Ġterrain": 2160,
      "Ġmovement": 2161,
      "imensional": 2162,
      "abbro": 2163,
      "iocene": 2164,
      "eras": 2165,
      "Ġpor": 2166,
      "ĠRa": 2167,
      "Ġ28": 2168,
      "Ġpatterns": 2169,
      "Ġgreenstone": 2170,
      "iotite": 2171,
      "Ġrelationship": 2172,
      "Ġillustr": 2173,
      "36": 2174,
      "west": 2175,
      "Ġcore": 2176,
      "asth": 2177,
      "ĠCambrian": 2178,
      "ĠBl": 2179,
      "ĠNag": 2180,
      "ĠHence": 2181,
      "Ġsandstones": 2182,
      "Ġminor": 2183,
      "Ġintrud": 2184,
      "ĠAmer": 2185,
      "Ġprominent": 2186,
      "Ġellipsoid": 2187,
      "35": 2188,
      "Ġpeb": 2189,
      "though": 2190,
      "ĠJurassic": 2191,
      "Ġindicates": 2192,
      "Ġoutcrop": 2193,
      "Ġanalysis": 2194,
      "asthan": 2195,
      "Ġsitu": 2196,
      "anc": 2197,
      "Ġductile": 2198,
      "Ġmiddle": 2199,
      "ĠBi": 2200,
      "utch": 2201,
      "70": 2202,
      "ared": 2203,
      "rong": 2204,
      "sil": 2205,
      "Ġhere": 2206,
      "heast": 2207,
      "Ġtoget": 2208,
      "respond": 2209,
      "Ġdeep": 2210,
      "tst": 2211,
      "ading": 2212,
      "indhyan": 2213,
      "Ġjoint": 2214,
      "Ġriver": 2215,
      "Ġarc": 2216,
      "ĠRajasthan": 2217,
      "yrox": 2218,
      "ĠCuddapah": 2219,
      "Ġtogether": 2220,
      "itut": 2221,
      "Ġcryst": 2222,
      "Ġinst": 2223,
      "omes": 2224,
      "Ġfabric": 2225,
      "ĠWhat": 2226,
      "Ġcover": 2227,
      "eep": 2228,
      "Ġnumber": 2229,
      "TT": 2230,
      "Ġdivided": 2231,
      "stand": 2232,
      "Ġ26": 2233,
      "Ġbelong": 2234,
      "Ġshearing": 2235,
      "ĠStrain": 2236,
      "Ġadj": 2237,
      "Ġdiscuss": 2238,
      "Ġtext": 2239,
      "Ġfeatures": 2240,
      "section": 2241,
      "Ġ)": 2242,
      "Ġcontro": 2243,
      "Ġ80": 2244,
      "rappe": 2245,
      "Ġterms": 2246,
      "Ġsetting": 2247,
      "Ġunconformity": 2248,
      "Ch": 2249,
      "Pb": 2250,
      "ire": 2251,
      "uff": 2252,
      "inate": 2253,
      "eds": 2254,
      "urga": 2255,
      "Ġshel": 2256,
      "Ġrespect": 2257,
      "Ġtypically": 2258,
      "Ġboudin": 2259,
      "hel": 2260,
      "Ġside": 2261,
      "etic": 2262,
      "iding": 2263,
      "ĠThrust": 2264,
      "Ġgreat": 2265,
      "Ġcorrespond": 2266,
      "ashtra": 2267,
      "Ġphase": 2268,
      "pression": 2269,
      "ĠSpiti": 2270,
      "Ġdolomite": 2271,
      "Ġcomponent": 2272,
      "GMB": 2273,
      "ms": 2274,
      "aria": 2275,
      "ited": 2276,
      "Ġaren": 2277,
      "ĠCon": 2278,
      "ĠNote": 2279,
      "rained": 2280,
      "ĠVindhyan": 2281,
      "Ġ70": 2282,
      "formed": 2283,
      "Sr": 2284,
      "ev": 2285,
      "Ġ.": 2286,
      "Ġsour": 2287,
      "atural": 2288,
      "Ġmon": 2289,
      "abas": 2290,
      "shore": 2291,
      "ĠPlateau": 2292,
      "HAR": 2293,
      "YA": 2294,
      "Ġ<": 2295,
      "Ġfo": 2296,
      "Ġpos": 2297,
      "osaur": 2298,
      "ams": 2299,
      "ament": 2300,
      "ĠRb": 2301,
      "ĠKutch": 2302,
      "ĠEocene": 2303,
      "Ġplut": 2304,
      "ĠFormations": 2305,
      "Ġboundaries": 2306,
      "Ġamphibolite": 2307,
      "Ġmeasure": 2308,
      "40": 2309,
      "hh": 2310,
      "usion": 2311,
      "ĠMin": 2312,
      "ĠMal": 2313,
      "ected": 2314,
      "umb": 2315,
      "anging": 2316,
      "ĠChit": 2317,
      "Ġquartzites": 2318,
      "Ġagain": 2319,
      "la": 2320,
      "Ġbur": 2321,
      "Ġlink": 2322,
      "Ġrequ": 2323,
      "ogen": 2324,
      "Ġgranitic": 2325,
      "wara": 2326,
      "aced": 2327,
      "Ġevent": 2328,
      "Ġuse": 2329,
      "1111": 2330,
      "Ġsupracrust": 2331,
      "Ġessentially": 2332,
      "uvi": 2333,
      "wall": 2334,
      "âĪ": 2335,
      "Ġsomet": 2336,
      "aled": 2337,
      "Ġmantle": 2338,
      "Ġwould": 2339,
      "Ġlo": 2340,
      "ets": 2341,
      "ĠHol": 2342,
      "ensis": 2343,
      "Ġcompris": 2344,
      "ternal": 2345,
      "Ġimp": 2346,
      "76": 2347,
      "ex": 2348,
      "Ġmuch": 2349,
      "Ġ35": 2350,
      "Ġprogress": 2351,
      "Ġusef": 2352,
      "Ġuseful": 2353,
      "RI": 2354,
      "Ġrich": 2355,
      "ently": 2356,
      "Ġthus": 2357,
      "amet": 2358,
      "Ġcompaction": 2359,
      "angle": 2360,
      "Ġevents": 2361,
      "Ġlineations": 2362,
      "Ġplanes": 2363,
      "Ġdistribution": 2364,
      "Ġstudy": 2365,
      "areous": 2366,
      "Ġcharacteristic": 2367,
      "34": 2368,
      "hra": 2369,
      "jor": 2370,
      "Ġcrystall": 2371,
      "Ġmed": 2372,
      "ĠEGMB": 2373,
      "Ġplaces": 2374,
      "cles": 2375,
      "Ġdifference": 2376,
      "Ġdifferential": 2377,
      "Ġelastic": 2378,
      "Ġdoes": 2379,
      "Ġcontrast": 2380,
      "Ġ,": 2381,
      "ining": 2382,
      "ark": 2383,
      "ither": 2384,
      "Ġsecond": 2385,
      "ensity": 2386,
      "Ġoccurring": 2387,
      "Ġrecogn": 2388,
      "Ġoverlain": 2389,
      "Ġtensile": 2390,
      "Ġrare": 2391,
      "Ġpossible": 2392,
      "Ġmaximum": 2393,
      "uvium": 2394,
      "Ġinit": 2395,
      "olitic": 2396,
      "Ġlook": 2397,
      "ĠGre": 2398,
      "Ġsets": 2399,
      "ographic": 2400,
      "Ġstrata": 2401,
      "illimanite": 2402,
      "32": 2403,
      "37": 2404,
      "dimensional": 2405,
      "trappe": 2406,
      "yan": 2407,
      "role": 2408,
      "ĠMain": 2409,
      "ĠMiocene": 2410,
      "Ġfauna": 2411,
      "Ġregard": 2412,
      "ramp": 2413,
      "Ġlocally": 2414,
      "Ġdeposition": 2415,
      "olei": 2416,
      "Ġphases": 2417,
      "ĠâĢ¢": 2418,
      "ĠSea": 2419,
      "Ġlarger": 2420,
      "Ġexperiment": 2421,
      "Ġ&": 2422,
      "Ġsize": 2423,
      "arp": 2424,
      "Ġplanar": 2425,
      "Ġbecomes": 2426,
      "Ġsiltst": 2427,
      "Ġcontinuous": 2428,
      "ĠBengal": 2429,
      "Ġbreak": 2430,
      "Ġfelsic": 2431,
      "Ġassemblage": 2432,
      "ha": 2433,
      "ok": 2434,
      "til": 2435,
      "Ã©": 2436,
      "Ġlit": 2437,
      "Ġisot": 2438,
      "Ġdetail": 2439,
      "Ġobserv": 2440,
      "roleum": 2441,
      "MA": 2442,
      "Ġwide": 2443,
      "isting": 2444,
      "akrishn": 2445,
      "aving": 2446,
      "Ġmean": 2447,
      "Ġcarbonate": 2448,
      "Ġblocks": 2449,
      "Ġbodies": 2450,
      "Ġtuff": 2451,
      "Ġhom": 2452,
      "ĠCen": 2453,
      "ĠBund": 2454,
      "Ġprocesses": 2455,
      "ĠSouth": 2456,
      "ĠQuartzite": 2457,
      "Ġgravity": 2458,
      "sical": 2459,
      "tal": 2460,
      "Ġtip": 2461,
      "Ġbro": 2462,
      "rack": 2463,
      "ĠTertiary": 2464,
      "omb": 2465,
      "ochem": 2466,
      "Ġ21": 2467,
      "ored": 2468,
      "Ġconstant": 2469,
      "Ġtowards": 2470,
      "Ġinterpreted": 2471,
      "80": 2472,
      "GC": 2473,
      "HAN": 2474,
      "az": 2475,
      "Ġfurther": 2476,
      "Ġpred": 2477,
      "asing": 2478,
      "Ġstrong": 2479,
      "ĠMoh": 2480,
      "Ġ100": 2481,
      "Ġhanging": 2482,
      "agh": 2483,
      "Ġdefined": 2484,
      "ĠUtt": 2485,
      "ĠStratigraphy": 2486,
      "Ġsyenite": 2487,
      "ordinate": 2488,
      "ISH": 2489,
      "Ġopen": 2490,
      "Ġconsisting": 2491,
      "plications": 2492,
      "aneous": 2493,
      "Ġalkaline": 2494,
      "perties": 2495,
      "âĪĴ": 2496,
      "31": 2497,
      "ION": 2498,
      "ix": 2499,
      "ira": 2500,
      "Ġprim": 2501,
      "Ġhowever": 2502,
      "Ġhyd": 2503,
      "ĠCarbon": 2504,
      "Ġ29": 2505,
      "âĢĿ": 2506,
      "ĠValley": 2507,
      "Ġunderstand": 2508,
      "Ġoffset": 2509,
      "ogeneous": 2510,
      "raben": 2511,
      "Ġactivity": 2512,
      "CT": 2513,
      "OS": 2514,
      "grad": 2515,
      "urana": 2516,
      "ulation": 2517,
      "Ġep": 2518,
      "igid": 2519,
      "osed": 2520,
      "Ġreact": 2521,
      "Ġcomb": 2522,
      "neous": 2523,
      "Ġobli": 2524,
      "Ġmargins": 2525,
      "ography": 2526,
      "rrrr": 2527,
      "Ġperiod": 2528,
      "Ġhinge": 2529,
      "75": 2530,
      "rate": 2531,
      "Ġ+": 2532,
      "elkhand": 2533,
      "Ġland": 2534,
      "osph": 2535,
      "agar": 2536,
      "Ġ24": 2537,
      "ircon": 2538,
      "Ġproperties": 2539,
      "Ġnumer": 2540,
      "Ġsyncl": 2541,
      "Ġelements": 2542,
      "ld": 2543,
      "ately": 2544,
      "Ġbook": 2545,
      "Ġpoints": 2546,
      "Ġgo": 2547,
      "Ġeither": 2548,
      "ĠCy": 2549,
      "lled": 2550,
      "Ġsurround": 2551,
      "Ġinflu": 2552,
      "Ġappro": 2553,
      "ĠMesozoic": 2554,
      "ND": 2555,
      "ped": 2556,
      "Ġseries": 2557,
      "ĠSalt": 2558,
      "ĠCong": 2559,
      "Ġwithout": 2560,
      "Ġanorthosite": 2561,
      "aka": 2562,
      "Ġorientations": 2563,
      "Ġassociation": 2564,
      "ochron": 2565,
      "Ġdepends": 2566,
      "Ġcircle": 2567,
      "ĠBundelkhand": 2568,
      "NN": 2569,
      "uc": 2570,
      "esides": 2571,
      "Ġcre": 2572,
      "Ġtholei": 2573,
      "estones": 2574,
      "ĠInt": 2575,
      "Ġcoal": 2576,
      "Ġactive": 2577,
      "Ġmigmat": 2578,
      "Ġuplift": 2579,
      "Ġramp": 2580,
      "ĠTet": 2581,
      "ĠRi": 2582,
      "ained": 2583,
      "Ġusually": 2584,
      "oooo": 2585,
      "ĠâĢľ": 2586,
      "Ġvector": 2587,
      "fract": 2588,
      "ni": 2589,
      "Ġ|": 2590,
      "ination": 2591,
      "eri": 2592,
      "Ġpet": 2593,
      "ĠSy": 2594,
      "Ġnature": 2595,
      "abl": 2596,
      "Ġcompar": 2597,
      "ostratigraphic": 2598,
      "Ġneed": 2599,
      "Ġmetabas": 2600,
      "Ġrid": 2601,
      "parallel": 2602,
      "Ġobject": 2603,
      "Ġlithosp": 2604,
      "aaaa": 2605,
      "bedded": 2606,
      "Ġlavas": 2607,
      "ĠSatpura": 2608,
      "Ġshelf": 2609,
      "OL": 2610,
      "SA": 2611,
      "oor": 2612,
      "pressure": 2613,
      "val": 2614,
      "wack": 2615,
      "Ġpel": 2616,
      "Ġmult": 2617,
      "Ġstage": 2618,
      "iform": 2619,
      "ĠHim": 2620,
      "shap": 2621,
      "Ġsuper": 2622,
      "Â±Â±": 2623,
      "Ġultramafic": 2624,
      "Ġsam": 2625,
      "ali": 2626,
      "Ġporph": 2627,
      "Ġlate": 2628,
      "Ġgabbro": 2629,
      "Ġbend": 2630,
      "Ġcompet": 2631,
      "Ġflat": 2632,
      "Ġamount": 2633,
      "Ġrif": 2634,
      "Ġinvolved": 2635,
      "Ġphyllite": 2636,
      "Ġgeologic": 2637,
      "Ġcriter": 2638,
      "continent": 2639,
      "Ġsometimes": 2640,
      "39": 2641,
      "NE": 2642,
      "fect": 2643,
      "group": 2644,
      "the": 2645,
      "Ġaffect": 2646,
      "Ġsince": 2647,
      "atively": 2648,
      "Ġdimens": 2649,
      "apse": 2650,
      "ĠExt": 2651,
      "opic": 2652,
      "acl": 2653,
      "ĠDeformation": 2654,
      "argur": 2655,
      "Ġoriented": 2656,
      "conformity": 2657,
      "ĠâĢĶ": 2658,
      "Ġdeposited": 2659,
      "DD": 2660,
      "inite": 2661,
      "enced": 2662,
      "Ġfore": 2663,
      "Ġmel": 2664,
      "ĠIm": 2665,
      "Ġhaving": 2666,
      "Ġreverse": 2667,
      "aman": 2668,
      "romat": 2669,
      "Ġzircon": 2670,
      "Ġcompress": 2671,
      "Ġ50": 2672,
      "Ġoccurren": 2673,
      "ontinu": 2674,
      "Ġgranulites": 2675,
      "ways": 2676,
      "Ġdiscussed": 2677,
      "Ġsiltstone": 2678,
      "ĠCenozoic": 2679,
      "ĠUttar": 2680,
      "Ġ\"": 2681,
      "Ġfind": 2682,
      "ings": 2683,
      "ĠGodavari": 2684,
      "ĠChar": 2685,
      "ĠAb": 2686,
      "Ġnatural": 2687,
      "Ġevidence": 2688,
      "Ġlithological": 2689,
      "netic": 2690,
      "Ġcalcareous": 2691,
      "Ġwalls": 2692,
      "Ġrecorded": 2693,
      "met": 2694,
      "yr": 2695,
      "inous": 2696,
      "atacl": 2697,
      "Ġfine": 2698,
      "ĠTrans": 2699,
      "urd": 2700,
      "omal": 2701,
      "Ġshould": 2702,
      "Ġyear": 2703,
      "Ġbecome": 2704,
      "Ġcharnockites": 2705,
      "shaped": 2706,
      "45": 2707,
      "nde": 2708,
      "Ġflex": 2709,
      "ĠPar": 2710,
      "ĠBab": 2711,
      "Ġwhereas": 2712,
      "ĠRecent": 2713,
      "Ġold": 2714,
      "Ġcollapse": 2715,
      "Ġchert": 2716,
      "silicate": 2717,
      "trappean": 2718,
      "SI": 2719,
      "ahar": 2720,
      "de": 2721,
      "err": 2722,
      "Ġpoly": 2723,
      "ĠSargur": 2724,
      "Ġstra": 2725,
      "sequ": 2726,
      "ĠGroups": 2727,
      "2000": 2728,
      "Ġtransition": 2729,
      "Ġellipse": 2730,
      "ĠPalaeozoic": 2731,
      "Ġcollision": 2732,
      "Ġclassification": 2733,
      "basin": 2734,
      "Ġorthog": 2735,
      "Ġearthqu": 2736,
      "awar": 2737,
      "carbon": 2738,
      "orld": 2739,
      "Ġhard": 2740,
      "Ġbefore": 2741,
      "strain": 2742,
      "Ġrhy": 2743,
      "Ġphysical": 2744,
      "Ġdiscontinu": 2745,
      "Ġdominant": 2746,
      "Ġsystems": 2747,
      "Ġintrusion": 2748,
      "Ġcomposition": 2749,
      "Ġcrystal": 2750,
      "Ġhydro": 2751,
      "UU": 2752,
      "eres": 2753,
      "sis": 2754,
      "to": 2755,
      "Ġcertain": 2756,
      "Ġpore": 2757,
      "Ġmass": 2758,
      "olar": 2759,
      "omin": 2760,
      "Ġalthough": 2761,
      "ratonic": 2762,
      "Ġplant": 2763,
      "Ġwhat": 2764,
      "Ġrigid": 2765,
      "Ġlimestones": 2766,
      "ĠProv": 2767,
      "Ġmica": 2768,
      "Ġknow": 2769,
      "Ġagainst": 2770,
      "ya": 2771,
      "Ġ^": 2772,
      "Ġauth": 2773,
      "Ġback": 2774,
      "Ġdiv": 2775,
      "ĠTam": 2776,
      "ĠSm": 2777,
      "ĠSch": 2778,
      "ĠNW": 2779,
      "ĠHe": 2780,
      "plied": 2781,
      "Ġgives": 2782,
      "Ġrestoration": 2783,
      "Ġbody": 2784,
      "Ġmethod": 2785,
      "pal": 2786,
      "xial": 2787,
      "arrow": 2788,
      "Ġbiotite": 2789,
      "Ġdrag": 2790,
      "urb": 2791,
      "ird": 2792,
      "ability": 2793,
      "Ġcoaxial": 2794,
      "Ġpartic": 2795,
      "Ġrecrystall": 2796,
      "Ġ2000": 2797,
      "Ġdistinct": 2798,
      "Ġmechanical": 2799,
      "bles": 2800,
      "Ġtrace": 2801,
      "Ġcaused": 2802,
      "Eds": 2803,
      "Ġoblique": 2804,
      "ĠHimachal": 2805,
      "CH": 2806,
      "SZ": 2807,
      "iorite": 2808,
      "olved": 2809,
      "ĠMod": 2810,
      "ĠPh": 2811,
      "Ġcomm": 2812,
      "Ġ59": 2813,
      "Ġextensive": 2814,
      "Ġoverlies": 2815,
      "Ġcontrolled": 2816,
      "65": 2817,
      "OO": 2818,
      "nble": 2819,
      "ration": 2820,
      "tes": 2821,
      "Ġrad": 2822,
      "arat": 2823,
      "Ġred": 2824,
      "amal": 2825,
      "ĠFurther": 2826,
      "Ġasy": 2827,
      "Ġalways": 2828,
      "Ġorder": 2829,
      "Ġforamin": 2830,
      "angan": 2831,
      "Ġcoun": 2832,
      "Ġrivers": 2833,
      "Ġdirections": 2834,
      "Ġlocated": 2835,
      "tttt": 2836,
      "Ġconstitut": 2837,
      "Ġincrease": 2838,
      "ĠRAO": 2839,
      "Ġterra": 2840,
      "Ġcoastal": 2841,
      "ĠBox": 2842,
      "Ġkinematic": 2843,
      "ĠHolocene": 2844,
      "RISH": 2845,
      "uvial": 2846,
      "het": 2847,
      "Ġocean": 2848,
      "itude": 2849,
      "Ġdensity": 2850,
      "ĠMost": 2851,
      "ott": 2852,
      "ĠEl": 2853,
      "ived": 2854,
      "radurga": 2855,
      "hatt": 2856,
      "lomerate": 2857,
      "Ġbedding": 2858,
      "Ġmarginal": 2859,
      "Ġextends": 2860,
      "Ġratio": 2861,
      "Ġlava": 2862,
      "Ġcontractional": 2863,
      "ujarat": 2864,
      "Ġrequi": 2865,
      "RISHN": 2866,
      "38": 2867,
      "78": 2868,
      "fer": 2869,
      "ulder": 2870,
      "ĠCraton": 2871,
      "ĠFl": 2872,
      "Ġ38": 2873,
      "Ġperfect": 2874,
      "Ġrotate": 2875,
      "inning": 2876,
      "ophyll": 2877,
      "Ġcycle": 2878,
      "Ġentire": 2879,
      "Ġbroad": 2880,
      "eformed": 2881,
      "fric": 2882,
      "ven": 2883,
      "yg": 2884,
      "Ġcut": 2885,
      "Ġder": 2886,
      "ĠBra": 2887,
      "uture": 2888,
      "Ġantic": 2889,
      "abud": 2890,
      "Ġdeformations": 2891,
      "ausar": 2892,
      "ĠBased": 2893,
      "Ġorogeny": 2894,
      "Ġeros": 2895,
      "ĠChitradurga": 2896,
      "grade": 2897,
      "Ġauthors": 2898,
      "abudan": 2899,
      "bly": 2900,
      "ivers": 2901,
      "ner": 2902,
      "ests": 2903,
      "Ġport": 2904,
      "Ġpubl": 2905,
      "Ġlens": 2906,
      "Ġreve": 2907,
      "amage": 2908,
      "agi": 2909,
      "Ġanother": 2910,
      "Ġanomal": 2911,
      "Ġforce": 2912,
      "ĠStress": 2913,
      "Ġ68": 2914,
      "Ġsliding": 2915,
      "Ġregions": 2916,
      "Ġassum": 2917,
      "ĠBasins": 2918,
      "Ġmarkers": 2919,
      "Ġhorizon": 2920,
      "Ġexamples": 2921,
      "ifera": 2922,
      "Ġestim": 2923,
      "pag": 2924,
      "ten": 2925,
      "tical": 2926,
      "uous": 2927,
      "Ġ~": 2928,
      "ern": 2929,
      "aram": 2930,
      "Ġdelt": 2931,
      "olated": 2932,
      "ĠTer": 2933,
      "ĠSuk": 2934,
      "urface": 2935,
      "ĠMic": 2936,
      "Ġvis": 2937,
      "iaxial": 2938,
      "Ġpropag": 2939,
      "illed": 2940,
      "Ġinteres": 2941,
      "Ġ45": 2942,
      "Ġmapping": 2943,
      "Ġadv": 2944,
      "Ġmarks": 2945,
      "Ġsoft": 2946,
      "Ġfluvial": 2947,
      "63": 2948,
      "rid": 2949,
      "Ġide": 2950,
      "aling": 2951,
      "arse": 2952,
      "Ġfour": 2953,
      "Ġworld": 2954,
      "ĠSausar": 2955,
      "ĠGujarat": 2956,
      "ĠBe": 2957,
      "Ġbear": 2958,
      "Ġalmost": 2959,
      "ĠNE": 2960,
      "adu": 2961,
      "Ġsee": 2962,
      "ongarg": 2963,
      "opter": 2964,
      "Ġabund": 2965,
      "ossils": 2966,
      "ropic": 2967,
      "ING": 2968,
      "Ġunconformably": 2969,
      "Ġestabl": 2970,
      "llllllll": 2971,
      "Ġyears": 2972,
      "te": 2973,
      "alts": 2974,
      "itoids": 2975,
      "Ġwedge": 2976,
      "olle": 2977,
      "Ġ(-": 2978,
      "ĠSediment": 2979,
      "Ġhost": 2980,
      "Ġreview": 2981,
      "chi": 2982,
      "phy": 2983,
      "ĠEn": 2984,
      "ĠEqu": 2985,
      "akh": 2986,
      "Ġresults": 2987,
      "Ġundeformed": 2988,
      "Ġresulting": 2989,
      "Ġinclude": 2990,
      "Ġgeologists": 2991,
      "Ġdislocation": 2992,
      "Ġillustrated": 2993,
      "ĠMohr": 2994,
      "nblende": 2995,
      "GG": 2996,
      "wa": 2997,
      "Ġtimes": 2998,
      "inter": 2999,
      "Ġgive": 3000,
      "ula": 3001,
      "Ġhand": 3002,
      "idal": 3003,
      "ided": 3004,
      "Ġconc": 3005,
      "ĠDis": 3006,
      "Ġproble": 3007,
      "Ġdiffusion": 3008,
      "reep": 3009,
      "Ġapplied": 3010,
      "Ġlayering": 3011,
      "Ġcomplexes": 3012,
      "Ġintrusions": 3013,
      "alues": 3014,
      "Ġprogressive": 3015,
      "ĠProvince": 3016,
      "--": 3017,
      "MM": 3018,
      "ily": 3019,
      "wise": 3020,
      "Ġiron": 3021,
      "Ġagg": 3022,
      "Ġther": 3023,
      "erite": 3024,
      "enites": 3025,
      "Ġpass": 3026,
      "omp": 3027,
      "ĠBad": 3028,
      "aya": 3029,
      "Ġaltern": 3030,
      "ĠKot": 3031,
      "ĠHills": 3032,
      "ension": 3033,
      "2001": 3034,
      "2003": 3035,
      "Ġcratons": 3036,
      "Ġconglomerates": 3037,
      "Ġcarbonaceous": 3038,
      "yrocl": 3039,
      "Ġgreywack": 3040,
      "Ġclosely": 3041,
      "Ġfrictional": 3042,
      "ĠCarboniferous": 3043,
      "Ġforeland": 3044,
      "ĠBababudan": 3045,
      "ongargarh": 3046,
      "cal": 3047,
      "ior": 3048,
      "me": 3049,
      "oides": 3050,
      "path": 3051,
      "Ġ>": 3052,
      "Ġdamage": 3053,
      "uru": 3054,
      "urrent": 3055,
      "ĠGa": 3056,
      "ĠCor": 3057,
      "ceed": 3058,
      "struct": 3059,
      "Ġfoli": 3060,
      "ission": 3061,
      "Ġhel": 3062,
      "Ġangular": 3063,
      "Ġincreases": 3064,
      "Ġdepositional": 3065,
      "ĠMineral": 3066,
      "Ġlithosphere": 3067,
      "Ġir": 3068,
      "Ġav": 3069,
      "alite": 3070,
      "Ġmake": 3071,
      "Ġlast": 3072,
      "ĠRan": 3073,
      "umn": 3074,
      "acent": 3075,
      "Ġgneissic": 3076,
      "Ġunderlying": 3077,
      "Ġelong": 3078,
      "ĠSubgroup": 3079,
      "Ġsource": 3080,
      "Ġinitial": 3081,
      "49": 3082,
      "di": 3083,
      "gran": 3084,
      "mer": 3085,
      "ww": 3086,
      "alk": 3087,
      "Ġpop": 3088,
      "Ġpost": 3089,
      "ĠSU": 3090,
      "Ġgraben": 3091,
      "ĠCH": 3092,
      "Ġnarrow": 3093,
      "chir": 3094,
      "Ġvary": 3095,
      "ogy": 3096,
      "ĠWest": 3097,
      "Ġresp": 3098,
      "Ġlayered": 3099,
      "obal": 3100,
      "Ġ2004": 3101,
      "Ġtypical": 3102,
      "Ġmagn": 3103,
      "Ġcorrelated": 3104,
      "ĠPaleocene": 3105,
      "Ġsupracrustal": 3106,
      "67": 3107,
      "ches": 3108,
      "ead": 3109,
      "haps": 3110,
      "med": 3111,
      "oir": 3112,
      "ule": 3113,
      "ala": 3114,
      "Ġinternal": 3115,
      "Ġpal": 3116,
      "Ġpen": 3117,
      "Ġdated": 3118,
      "olid": 3119,
      "ulite": 3120,
      "Ġstill": 3121,
      "Ġrele": 3122,
      "ila": 3123,
      "âĢĶ": 3124,
      "Ġspace": 3125,
      "Ġvolcanism": 3126,
      "Ġdeterm": 3127,
      "ĠAndhra": 3128,
      "ĠCoast": 3129,
      "Ġnamed": 3130,
      "Ġviscosity": 3131,
      "ĠTalchir": 3132,
      "yroxene": 3133,
      "akrishnan": 3134,
      "Ġcompetent": 3135,
      "Ġstraight": 3136,
      ".),": 3137,
      "79": 3138,
      "PP": 3139,
      "Ġ*": 3140,
      "Ġtri": 3141,
      "Ġprec": 3142,
      "Ġpassive": 3143,
      "Ġden": 3144,
      "Ġsteep": 3145,
      "Ġret": 3146,
      "Ġconcent": 3147,
      "Ġviz": 3148,
      "apur": 3149,
      "odes": 3150,
      "âĢ²": 3151,
      "Ġabs": 3152,
      "elds": 3153,
      "Ġmostly": 3154,
      "Ġoppos": 3155,
      "Ġgrade": 3156,
      "ITZ": 3157,
      "Ġdiapirs": 3158,
      "ĠBengpal": 3159,
      "oclase": 3160,
      "ĠMahak": 3161,
      "Ġarenite": 3162,
      "ogenic": 3163,
      "Ġbearing": 3164,
      "EL": 3165,
      "ey": 3166,
      "fa": 3167,
      "iar": 3168,
      "atite": 3169,
      "ĠSH": 3170,
      "ĠPand": 3171,
      "ĠIsl": 3172,
      "ĠCaled": 3173,
      "ĠBeds": 3174,
      "ĠKrishn": 3175,
      "Ġ22": 3176,
      "ĠWhen": 3177,
      "Ġcomplet": 3178,
      "2004": 3179,
      "Ġlimb": 3180,
      "Ġrecent": 3181,
      "igned": 3182,
      "Ġvariations": 3183,
      "3333": 3184,
      "Ġlevels": 3185,
      "Ġwidth": 3186,
      "ĠConglomerate": 3187,
      "ĠRiver": 3188,
      "opteris": 3189,
      "71": 3190,
      "grained": 3191,
      "Ġcreep": 3192,
      "Ġbal": 3193,
      "roduction": 3194,
      "Ġtotal": 3195,
      "Ġstart": 3196,
      "ĠMag": 3197,
      "ĠPb": 3198,
      "phi": 3199,
      "appe": 3200,
      "quartz": 3201,
      "position": 3202,
      "Ġoverb": 3203,
      "oundary": 3204,
      "Ġ58": 3205,
      "Ġquest": 3206,
      "Ġ90": 3207,
      "ARA": 3208,
      "Ġindicated": 3209,
      "vious": 3210,
      "Ġsuggests": 3211,
      "ynam": 3212,
      "ĠMetamorph": 3213,
      "Ġprofile": 3214,
      "Ġmedium": 3215,
      "Ġreactiv": 3216,
      "Ġlenses": 3217,
      "43": 3218,
      "like": 3219,
      "ĠSl": 3220,
      "ĠMA": 3221,
      "oshal": 3222,
      "ĠDi": 3223,
      "ĠRange": 3224,
      "agiri": 3225,
      "ĠNadu": 3226,
      "odon": 3227,
      "ĠHind": 3228,
      "Ġseg": 3229,
      "illow": 3230,
      "Ġextent": 3231,
      "Ġ79": 3232,
      "Ġindivid": 3233,
      "achment": 3234,
      "Ġindicating": 3235,
      "Ġ2003": 3236,
      "ergy": 3237,
      "ption": 3238,
      "Ġsoil": 3239,
      "earch": 3240,
      "ĠAndaman": 3241,
      "Ġequival": 3242,
      "ammu": 3243,
      "Ġbuil": 3244,
      "ributed": 3245,
      "Ġporous": 3246,
      "Ġadjacent": 3247,
      "Ġboudinage": 3248,
      "Ġburial": 3249,
      "urden": 3250,
      "REE": 3251,
      "US": 3252,
      "ling": 3253,
      "nat": 3254,
      "yanite": 3255,
      "ĠÂ": 3256,
      "ened": 3257,
      "Ġiniti": 3258,
      "ĠSeries": 3259,
      "Ġstromat": 3260,
      "Ġhills": 3261,
      "oceras": 3262,
      "Ġexpos": 3263,
      "rates": 3264,
      "Ġplace": 3265,
      "ĠInter": 3266,
      "ĠOne": 3267,
      "erala": 3268,
      "Ġfracturing": 3269,
      "Ġmodeling": 3270,
      "Ġleast": 3271,
      "Ġhighly": 3272,
      "1996": 3273,
      "Ġdistrict": 3274,
      "ĠMember": 3275,
      "Ġintrusive": 3276,
      "Ġinterpretation": 3277,
      "ophysical": 3278,
      "Ġcontraction": 3279,
      "Ġpaths": 3280,
      "ĠAmerica": 3281,
      "Ġorthogonal": 3282,
      "ĠMahakoshal": 3283,
      "Ġoverburden": 3284,
      "cy": 3285,
      "oe": 3286,
      "wn": 3287,
      "anag": 3288,
      "Ġfrag": 3289,
      "ingu": 3290,
      "Ġstages": 3291,
      "omic": 3292,
      "ĠMan": 3293,
      "ĠPhy": 3294,
      "ĠEast": 3295,
      "Ġplain": 3296,
      "anga": 3297,
      "ikely": 3298,
      "ording": 3299,
      "Ġperhaps": 3300,
      "Ġtransgress": 3301,
      "rown": 3302,
      "Ġhorizons": 3303,
      "Ġpresented": 3304,
      "ĠUnivers": 3305,
      "Ġoriginal": 3306,
      "Ġphyllites": 3307,
      "ĠNeoproterozoic": 3308,
      "type": 3309,
      "Ġcomponents": 3310,
      "Ġlateral": 3311,
      "Ġintruded": 3312,
      "Ã©c": 3313,
      "Ġobservations": 3314,
      "Ġoccurrence": 3315,
      "agioclase": 3316,
      "46": 3317,
      "SE": 3318,
      "TG": 3319,
      "UP": 3320,
      "not": 3321,
      "ras": 3322,
      "wo": 3323,
      "Ġ\\": 3324,
      "inosaur": 3325,
      "Ġcatacl": 3326,
      "ĠSil": 3327,
      "ĠISA": 3328,
      "ĠBoundary": 3329,
      "ify": 3330,
      "uma": 3331,
      "ĠIndo": 3332,
      "ĠJammu": 3333,
      "plastic": 3334,
      "ĠWh": 3335,
      "ahal": 3336,
      "1998": 3337,
      "ĠReg": 3338,
      "Ġdominated": 3339,
      "Ġoffshore": 3340,
      "Ġincluding": 3341,
      "jori": 3342,
      "Ġregarded": 3343,
      "Ġmelting": 3344,
      "errug": 3345,
      "Ġpalyn": 3346,
      "nataka": 3347,
      "Godavari": 3348,
      "hor": 3349,
      "Ġtecton": 3350,
      "atn": 3351,
      "alus": 3352,
      "Ġfar": 3353,
      "Ġbi": 3354,
      "Ġpur": 3355,
      "Ġdiss": 3356,
      "ĠSaur": 3357,
      "ĠIg": 3358,
      "Ġredu": 3359,
      "odiorite": 3360,
      "Ġexp": 3361,
      "ĠLess": 3362,
      "ipur": 3363,
      "plies": 3364,
      "Ġrelation": 3365,
      "Ġenough": 3366,
      "obar": 3367,
      "Ġsupport": 3368,
      "Ġsuggested": 3369,
      "Ġtensor": 3370,
      "Ġdepths": 3371,
      "Ġeasily": 3372,
      "ĠPetroleum": 3373,
      "Ġoutcrops": 3374,
      "ĠTamil": 3375,
      "Ã©colle": 3376,
      "):": 3377,
      "now": 3378,
      "oon": 3379,
      "tectonic": 3380,
      "atory": 3381,
      "Ġmud": 3382,
      "Ġaspect": 3383,
      "ĠNar": 3384,
      "ĠKhar": 3385,
      "Ġbasis": 3386,
      "Ġflatt": 3387,
      "ossen": 3388,
      "Ġothers": 3389,
      "Ġ2001": 3390,
      "Ġdomain": 3391,
      "Ġfields": 3392,
      "auvery": 3393,
      "8888": 3394,
      "Ġextending": 3395,
      "gaon": 3396,
      "ĠAlluvium": 3397,
      "ĠEvolution": 3398,
      "ĠVolcanics": 3399,
      "Ġdimensions": 3400,
      "53": 3401,
      "68": 3402,
      "aid": 3403,
      "ool": 3404,
      "Ġdun": 3405,
      "Ġdating": 3406,
      "Ġmount": 3407,
      "aster": 3408,
      "eloc": 3409,
      "usc": 3410,
      "ĠAge": 3411,
      "Ġreal": 3412,
      "ĠBal": 3413,
      "ries": 3414,
      "otwall": 3415,
      "ĠNor": 3416,
      "akhand": 3417,
      "ĠJa": 3418,
      "arily": 3419,
      "Ġspread": 3420,
      "Ġusing": 3421,
      "Ġhornblende": 3422,
      "ĠAnother": 3423,
      "Ġlithology": 3424,
      "Ġdistingu": 3425,
      "Ġvariety": 3426,
      "Ġvein": 3427,
      "Ġsmaller": 3428,
      "Ġoverlap": 3429,
      "ĠMeg": 3430,
      "Ġinvolves": 3431,
      "Ġlargest": 3432,
      "Ġcycles": 3433,
      "Ġcritical": 3434,
      "rusts": 3435,
      "Ġcharnockite": 3436,
      "upta": 3437,
      "ĠBij": 3438,
      "Ġnumerous": 3439,
      "Ġflexural": 3440,
      "64": 3441,
      "72": 3442,
      "73": 3443,
      "FB": 3444,
      "KRISHN": 3445,
      "LE": 3446,
      "OP": 3447,
      "UT": 3448,
      "ful": 3449,
      "ham": 3450,
      "inity": 3451,
      "Ġcrack": 3452,
      "Ġferrug": 3453,
      "ĠFossen": 3454,
      "unct": 3455,
      "ĠEDC": 3456,
      "akar": 3457,
      "Ġproject": 3458,
      "ĠGeolog": 3459,
      "Ġgeomorph": 3460,
      "Ġupward": 3461,
      "ĠChand": 3462,
      "Ġrelatively": 3463,
      "Ġright": 3464,
      "Ġcollect": 3465,
      "Ġcolumn": 3466,
      "1988": 3467,
      "IIII": 3468,
      "Ġremains": 3469,
      "ieved": 3470,
      "Ġrather": 3471,
      "ĠKarnataka": 3472,
      "angalore": 3473,
      "Ġposition": 3474,
      "Ġcomprises": 3475,
      "Ġcriterion": 3476,
      "Ġasymmetric": 3477,
      "ĠLesser": 3478,
      "69": 3479,
      "gan": 3480,
      "lines": 3481,
      "pread": 3482,
      "Ġsk": 3483,
      "itive": 3484,
      "icult": 3485,
      "Ġpe": 3486,
      "ĠSE": 3487,
      "ention": 3488,
      "ĠPak": 3489,
      "Ġbeh": 3490,
      "ife": 3491,
      "emb": 3492,
      "ached": 3493,
      "Ġcoarse": 3494,
      "Ġnecess": 3495,
      "Ġgeochem": 3496,
      "Ġdifferences": 3497,
      "Ġchann": 3498,
      "ibility": 3499,
      "Ġsubordinate": 3500,
      "matism": 3501,
      "Ġapophys": 3502,
      "iii": 3503,
      "Ġtransport": 3504,
      "ĠPlain": 3505,
      "idespread": 3506,
      "Ġpreserved": 3507,
      "Ġpref": 3508,
      "Ġequal": 3509,
      "oliths": 3510,
      "anjal": 3511,
      "ygd": 3512,
      "ging": 3513,
      "ox": 3514,
      "Ġsw": 3515,
      "Ġfr": 3516,
      "Ġbesides": 3517,
      "Ġins": 3518,
      "elf": 3519,
      "ĠMg": 3520,
      "ĠCITZ": 3521,
      "Ġname": 3522,
      "ĠDist": 3523,
      "ĠRed": 3524,
      "Ġant": 3525,
      "ĠEd": 3526,
      "Ġdifficult": 3527,
      "ĠChhot": 3528,
      "ssss": 3529,
      "forms": 3530,
      "Ġamong": 3531,
      "Ġmagmatic": 3532,
      "Ġfluids": 3533,
      "Ġincreasing": 3534,
      "Ġdipping": 3535,
      "Ġproduced": 3536,
      "coaxial": 3537,
      "Ġsurrounding": 3538,
      "fractures": 3539,
      "Ġaffected": 3540,
      "ĠUttarakhand": 3541,
      "Ġdelta": 3542,
      "Ġavail": 3543,
      "42": 3544,
      "48": 3545,
      "AI": 3546,
      "less": 3547,
      "lands": 3548,
      "son": 3549,
      "Ġaff": 3550,
      "Ġaway": 3551,
      "eneral": 3552,
      "Ġchem": 3553,
      "Ġpale": 3554,
      "ĠdÃ©colle": 3555,
      "ased": 3556,
      "imple": 3557,
      "Ġisolated": 3558,
      "ĠBel": 3559,
      "ĠBay": 3560,
      "ured": 3561,
      "Ġvaria": 3562,
      "ĠKerala": 3563,
      "ĠEu": 3564,
      "Ġgranitoids": 3565,
      "Ġneg": 3566,
      "Ġpartly": 3567,
      "ĠChil": 3568,
      "Ġinterf": 3569,
      "Ġintercal": 3570,
      "liocene": 3571,
      "Ġalluvial": 3572,
      "Ġseparate": 3573,
      "haner": 3574,
      "rolite": 3575,
      "Ġclays": 3576,
      "Ġmovements": 3577,
      "Ġdyke": 3578,
      "Ġbrecc": 3579,
      "ĠMarwar": 3580,
      "regular": 3581,
      "ĠRao": 3582,
      "ĠCharnock": 3583,
      "Ġerosion": 3584,
      "ĠSukma": 3585,
      "Ġestablished": 3586,
      "Ġhelp": 3587,
      "Ġindividual": 3588,
      "))": 3589,
      "74": 3590,
      "Gang": 3591,
      "YAN": 3592,
      "da": 3593,
      "mahal": 3594,
      "pet": 3595,
      "ving": 3596,
      "Ġser": 3597,
      "Ġfre": 3598,
      "ĠTwo": 3599,
      "Ġlikely": 3600,
      "ĠPhaner": 3601,
      "ĠBet": 3602,
      "ĠDol": 3603,
      "Ġseem": 3604,
      "Ġdefine": 3605,
      "Ġplat": 3606,
      "placed": 3607,
      "Ġfaulted": 3608,
      "ĠOther": 3609,
      "erent": 3610,
      "Ġoccup": 3611,
      "1995": 3612,
      "Ġmineralisation": 3613,
      "Ġdomains": 3614,
      "Ġtermin": 3615,
      "ylind": 3616,
      "ĠAlso": 3617,
      "ĠBhim": 3618,
      "ervoir": 3619,
      "nnnn": 3620,
      "Ġproduce": 3621,
      "Ġbasaltic": 3622,
      "Ġaddition": 3623,
      "Ġinfluence": 3624,
      "amalai": 3625,
      "Ġthermal": 3626,
      "ĠSaurashtra": 3627,
      "Ġferruginous": 3628,
      "fold": 3629,
      "rical": 3630,
      "hether": 3631,
      "ita": 3632,
      "Ġoften": 3633,
      "ĠTecton": 3634,
      "ury": 3635,
      "rest": 3636,
      "ĠMany": 3637,
      "ĠPanjal": 3638,
      "ĠII": 3639,
      "Ġexpress": 3640,
      "istry": 3641,
      "Ġcontinent": 3642,
      "ava": 3643,
      "ricted": 3644,
      "2006": 3645,
      "Ġmagma": 3646,
      "hanjori": 3647,
      "Ġthrusting": 3648,
      "ĠTraps": 3649,
      "Ġspecies": 3650,
      "ierite": 3651,
      "Ġglaci": 3652,
      "Ġsyncline": 3653,
      "ĠTethyan": 3654,
      "Ġterraces": 3655,
      "anagpur": 3656,
      "ĠPhanerozoic": 3657,
      "OC": 3658,
      "RE": 3659,
      "lorite": 3660,
      "rum": 3661,
      "sillimanite": 3662,
      "Ġcar": 3663,
      "Ġdri": 3664,
      "Ġmakes": 3665,
      "ĠTe": 3666,
      "ĠSyn": 3667,
      "ĠMap": 3668,
      "Ġreas": 3669,
      "vey": 3670,
      "phas": 3671,
      "ĠKo": 3672,
      "ĠLond": 3673,
      "opods": 3674,
      "antly": 3675,
      "Ġuniaxial": 3676,
      "Ġoverall": 3677,
      "Ġquite": 3678,
      "Ġevid": 3679,
      "Ġimplies": 3680,
      "Ġslope": 3681,
      "Ġsymmetric": 3682,
      "2002": 3683,
      "Ġlimited": 3684,
      "ometric": 3685,
      "Ġobt": 3686,
      "1997": 3687,
      "1987": 3688,
      "Ġrestricted": 3689,
      "Ġamphibolites": 3690,
      "ĠOlder": 3691,
      "//": 3692,
      "300": 3693,
      "HH": 3694,
      "bb": 3695,
      "car": 3696,
      "ou": 3697,
      "alf": 3698,
      "isot": 3699,
      "ules": 3700,
      "igen": 3701,
      "ĠBangalore": 3702,
      "ĠDuring": 3703,
      "Ġshield": 3704,
      "Ġplains": 3705,
      "ordierite": 3706,
      "renulation": 3707,
      "lie": 3708,
      "Ġintrude": 3709,
      "Ġnorthwest": 3710,
      "Ġmarker": 3711,
      "Ġrotated": 3712,
      "kaline": 3713,
      "Ġalkali": 3714,
      "Ġlatter": 3715,
      "Ġsubsurface": 3716,
      "ĠAssam": 3717,
      "ummary": 3718,
      "Ġrespectively": 3719,
      "Ġunderstanding": 3720,
      "Ġridges": 3721,
      "Ġsample": 3722,
      "Ġearthquakes": 3723,
      "Ġfoliations": 3724,
      "ĠChhotanagpur": 3725,
      "100": 3726,
      "41": 3727,
      "aon": 3728,
      "ford": 3729,
      "hm": 3730,
      "ka": 3731,
      "phe": 3732,
      "uram": 3733,
      "heastern": 3734,
      "onous": 3735,
      "Ġcause": 3736,
      "Ġpillow": 3737,
      "Ġdone": 3738,
      "Ġwidespread": 3739,
      "ĠSar": 3740,
      "Ġlab": 3741,
      "Ġlaw": 3742,
      "imber": 3743,
      "omati": 3744,
      "ĠGSI": 3745,
      "ĠMarg": 3746,
      "Ġhis": 3747,
      "ĠCamb": 3748,
      "Ġdevi": 3749,
      "Ġveloc": 3750,
      "ĠRoy": 3751,
      "ĠLake": 3752,
      "Ġsheets": 3753,
      "aken": 3754,
      "Ġ39": 3755,
      "ivine": 3756,
      "Ġflora": 3757,
      "Ġstrains": 3758,
      "Ġclasts": 3759,
      "liers": 3760,
      "Ġammon": 3761,
      "Ġ2002": 3762,
      "Ġ1998": 3763,
      "ĠRec": 3764,
      "ĠFaults": 3765,
      "ĠAlb": 3766,
      "ĠFolds": 3767,
      "ĠContinental": 3768,
      "ĠLineament": 3769,
      "Ġdislocations": 3770,
      "Ġpebble": 3771,
      "Ġvisual": 3772,
      "pathic": 3773,
      "ĠUniversity": 3774,
      "ĠLondon": 3775,
      "imberl": 3776,
      "61": 3777,
      "62": 3778,
      "Upper": 3779,
      "arent": 3780,
      "gill": 3781,
      "ots": 3782,
      "pic": 3783,
      "where": 3784,
      "xisting": 3785,
      "ĠÂ±": 3786,
      "Ġsills": 3787,
      "ering": 3788,
      "ithe": 3789,
      "isgarh": 3790,
      "Ġmorph": 3791,
      "ray": 3792,
      "Ġget": 3793,
      "ĠMo": 3794,
      "ĠMount": 3795,
      "Ġhad": 3796,
      "ĠBul": 3797,
      "Ġnod": 3798,
      "Ġdeg": 3799,
      "abad": 3800,
      "Ġproposed": 3801,
      "ĠWDC": 3802,
      "empor": 3803,
      "ostatic": 3804,
      "Ġclimate": 3805,
      "Ġuntil": 3806,
      "ondalite": 3807,
      "Ġ89": 3808,
      "Ġenergy": 3809,
      "Ġsoutheast": 3810,
      "reexisting": 3811,
      "anskar": 3812,
      "2222": 3813,
      "Ġdetachment": 3814,
      "ebrate": 3815,
      "porites": 3816,
      "ochth": 3817,
      "ĠClass": 3818,
      "oclinal": 3819,
      "ĠScience": 3820,
      "angalwar": 3821,
      "eeeeeeee": 3822,
      "Ġmethods": 3823,
      "Ġplotted": 3824,
      "Ġprimary": 3825,
      "Ġapprox": 3826,
      "Ġrifting": 3827,
      "Ġpolym": 3828,
      "ĠMicro": 3829,
      "Ġirregular": 3830,
      "RR": 3831,
      "jection": 3832,
      "inop": 3833,
      "Ġophi": 3834,
      "itud": 3835,
      "ĠSING": 3836,
      "Ġgraph": 3837,
      "ĠMangalwar": 3838,
      "ĠPan": 3839,
      "ĠPap": 3840,
      "ilomet": 3841,
      "ĠFrom": 3842,
      "ĠDhanjori": 3843,
      "Ġfav": 3844,
      "Ġfail": 3845,
      "verage": 3846,
      "Ġexcept": 3847,
      "abal": 3848,
      "ives": 3849,
      "ternational": 3850,
      "acing": 3851,
      "Ġfraction": 3852,
      "ockwise": 3853,
      "Ġleft": 3854,
      "ravati": 3855,
      "Ġelev": 3856,
      "Ġmagmatism": 3857,
      "Ġblock": 3858,
      "Ġconfined": 3859,
      "Ġconfining": 3860,
      "6666": 3861,
      "ĠSouthern": 3862,
      "Ġincludes": 3863,
      "ĠVolcanic": 3864,
      "Ġconnect": 3865,
      "appes": 3866,
      "Ġobjects": 3867,
      "hattisgarh": 3868,
      "ophyllum": 3869,
      "ĠIgneous": 3870,
      "Ġavailable": 3871,
      "ĠSINGH": 3872,
      "HY": 3873,
      "Table": 3874,
      "eel": 3875,
      "hing": 3876,
      "run": 3877,
      "right": 3878,
      "uu": 3879,
      "ican": 3880,
      "Ġfelds": 3881,
      "Ġbar": 3882,
      "Ġpot": 3883,
      "Ġpreexisting": 3884,
      "Ġdra": 3885,
      "Ġmangan": 3886,
      "asa": 3887,
      "rak": 3888,
      "ĠTi": 3889,
      "ĠSri": 3890,
      "urian": 3891,
      "Ġstre": 3892,
      "ĠGP": 3893,
      "ĠGeneral": 3894,
      "ĠIs": 3895,
      "ĠBoth": 3896,
      "ami": 3897,
      "uter": 3898,
      "otectonic": 3899,
      "Ġexist": 3900,
      "ĠInst": 3901,
      "harashtra": 3902,
      "ĠMaharashtra": 3903,
      "izontal": 3904,
      "Ġreservoir": 3905,
      "Ġimplications": 3906,
      "Ġlimit": 3907,
      "Ġjoin": 3908,
      "ĠPlan": 3909,
      "alleys": 3910,
      "Ġcharacterised": 3911,
      "ĠSurvey": 3912,
      "ĠGranulite": 3913,
      "Ġranges": 3914,
      "ĠLithostratigraphy": 3915,
      "Ġidentified": 3916,
      "Ġvectors": 3917,
      "Ġbelonging": 3918,
      "Ġfootwall": 3919,
      "Ġisotopic": 3920,
      "Ġrecrystallization": 3921,
      "tesy": 3922,
      "ĠHindoli": 3923,
      "Ġfragments": 3924,
      "Ġvelocity": 3925,
      "59": 3926,
      "KAR": 3927,
      "NW": 3928,
      "OM": 3929,
      "gi": 3930,
      "halli": 3931,
      "sect": 3932,
      "Ġaverage": 3933,
      "aner": 3934,
      "Ġcement": 3935,
      "Ġwind": 3936,
      "ĠST": 3937,
      "ĠSu": 3938,
      "ulomb": 3939,
      "omen": 3940,
      "ĠPo": 3941,
      "Ġ1000": 3942,
      "ĠAfric": 3943,
      "Ġconform": 3944,
      "chn": 3945,
      "chist": 3946,
      "Ġvalleys": 3947,
      "ĠDal": 3948,
      "ape": 3949,
      "Ġrole": 3950,
      "Ġplagioclase": 3951,
      "Ġmarble": 3952,
      "Ġextinct": 3953,
      "ĠChhattisgarh": 3954,
      "Ġintersection": 3955,
      "Ġrise": 3956,
      "matics": 3957,
      "Ġamygd": 3958,
      "Ġmapped": 3959,
      "Ġaccording": 3960,
      "Ġolivine": 3961,
      "ĠRajmahal": 3962,
      "Ġprovide": 3963,
      "ĠMewar": 3964,
      "Ġcirc": 3965,
      "Ġobserved": 3966,
      "Ġperme": 3967,
      "Ġfriction": 3968,
      "Ġhomogeneous": 3969,
      "Ġcount": 3970,
      "AG": 3971,
      "DFB": 3972,
      "VI": 3973,
      "ledge": 3974,
      "zz": 3975,
      "Ġsolution": 3976,
      "arc": 3977,
      "ication": 3978,
      "Ġmot": 3979,
      "ential": 3980,
      "Ġgood": 3981,
      "ĠGp": 3982,
      "ĠMur": 3983,
      "ĠIN": 3984,
      "ĠAc": 3985,
      "thrust": 3986,
      "ode": 3987,
      "ĠHow": 3988,
      "Ġdefin": 3989,
      "Ġforces": 3990,
      "Ġbelieved": 3991,
      "illong": 3992,
      "Ġcovers": 3993,
      "Ġresist": 3994,
      "ĠStri": 3995,
      "hya": 3996,
      "Ġimag": 3997,
      "ffic": 3998,
      "1999": 3999,
      "related": 4000,
      "Ġheter": 4001,
      "Ġtrends": 4002,
      "ĠUnconformity": 4003,
      "ĠRamakrishnan": 4004,
      "iiiiiiii": 4005,
      "Ġrecognised": 4006,
      "Ġoceanic": 4007,
      "Ġderived": 4008,
      "Ġgreywacke": 4009,
      "olidated": 4010,
      "Ġopposite": 4011,
      "alusite": 4012,
      "picuous": 4013,
      "IM": 4014,
      "UL": 4015,
      "ses": 4016,
      "ton": 4017,
      "ĠâĪĴ": 4018,
      "Ġtidal": 4019,
      "itation": 4020,
      "Ġbra": 4021,
      "Ġinver": 4022,
      "Ġpict": 4023,
      "ĠSak": 4024,
      "Ġtoo": 4025,
      "ulated": 4026,
      "ĠMobile": 4027,
      "igocene": 4028,
      "eter": 4029,
      "ĠBH": 4030,
      "ute": 4031,
      "adh": 4032,
      "Ġ300": 4033,
      "Ġkilomet": 4034,
      "ĠThree": 4035,
      "ĠStratigraphic": 4036,
      "Ġconspicuous": 4037,
      "Ġregimes": 4038,
      "ĠDev": 4039,
      "ARI": 4040,
      "Ġassigned": 4041,
      "Ġdistance": 4042,
      "Ġmetamorphosed": 4043,
      "ĠShillong": 4044,
      "aurolite": 4045,
      "Ġnortheast": 4046,
      "Ġrates": 4047,
      "beds": 4048,
      "ophysics": 4049,
      "ĠResearch": 4050,
      "Ġidentical": 4051,
      "Ġdecre": 4052,
      "urnool": 4053,
      "Ġpluton": 4054,
      "Gangetic": 4055,
      "Lower": 4056,
      "cient": 4057,
      "work": 4058,
      "ĠÃ": 4059,
      "ĠÏ": 4060,
      "rem": 4061,
      "Ġoil": 4062,
      "Ġcratonic": 4063,
      "Ġbest": 4064,
      "rot": 4065,
      "Ġdinosaur": 4066,
      "Ġwhether": 4067,
      "oles": 4068,
      "uration": 4069,
      "ĠPun": 4070,
      "ĠBail": 4071,
      "ili": 4072,
      "Ġdeb": 4073,
      "Ġvers": 4074,
      "istics": 4075,
      "astics": 4076,
      "riched": 4077,
      "Ġclim": 4078,
      "Ġrhe": 4079,
      "Ġsubduction": 4080,
      "Ġbedded": 4081,
      "axis": 4082,
      "Ġstudied": 4083,
      "Ġphosph": 4084,
      "Ġdips": 4085,
      "Ġdomino": 4086,
      "Ġfeature": 4087,
      "Ġclassified": 4088,
      "Ġcauses": 4089,
      "Ġperiods": 4090,
      "ĠGlob": 4091,
      "UMAR": 4092,
      "ĠBlock": 4093,
      "Ġsituation": 4094,
      "ĠIntroduction": 4095,
      "ĠPandyan": 4096,
      "ĠBijawar": 4097,
      "Ġvariable": 4098,
      "Ġfrequ": 4099,
      "47": 4100,
      "Purana": 4101,
      "ext": 4102,
      "min": 4103,
      "over": 4104,
      "part": 4105,
      "rated": 4106,
      "sw": 4107,
      "oring": 4108,
      "oram": 4109,
      "ories": 4110,
      "icity": 4111,
      "olian": 4112,
      "Ġlands": 4113,
      "ulations": 4114,
      "ĠPress": 4115,
      "Ġreduction": 4116,
      "Ġnappes": 4117,
      "Ġval": 4118,
      "ĠKol": 4119,
      "ĠKrol": 4120,
      "herical": 4121,
      "Ġsuc": 4122,
      "Ġcontrol": 4123,
      "ĠGeophysical": 4124,
      "ember": 4125,
      "Ġparamet": 4126,
      "athu": 4127,
      "Ġmaps": 4128,
      "Ġark": 4129,
      "ĠSche": 4130,
      "ĠStructure": 4131,
      "Ġsector": 4132,
      "ĠCoulomb": 4133,
      "Ġconsistent": 4134,
      "Ġbanded": 4135,
      "Ġdiapirism": 4136,
      "ĠMadhya": 4137,
      "ĠAmerican": 4138,
      "Ġsituated": 4139,
      "Ġliter": 4140,
      "Ġtuffs": 4141,
      "Ġmultip": 4142,
      "Ġradi": 4143,
      "Ġforaminifera": 4144,
      "Ġideal": 4145,
      "Ġaggreg": 4146,
      "ĠKrishna": 4147,
      "ĠBullet": 4148,
      "SW": 4149,
      "bari": 4150,
      "fl": 4151,
      "oved": 4152,
      "pent": 4153,
      "wan": 4154,
      "yle": 4155,
      "ĠâĢĵ": 4156,
      "Ġfib": 4157,
      "Ġmassive": 4158,
      "ĠSal": 4159,
      "Ġthrusts": 4160,
      "igneous": 4161,
      "ĠPran": 4162,
      "ĠPurana": 4163,
      "Ġnappe": 4164,
      "ota": 4165,
      "ĠRO": 4166,
      "ĠREE": 4167,
      "strac": 4168,
      "Ġalread": 4169,
      "unn": 4170,
      "ĠWhere": 4171,
      "pers": 4172,
      "ĠOF": 4173,
      "Ġpartial": 4174,
      "Ġ69": 4175,
      "Ġsubcontinent": 4176,
      "Ġbounded": 4177,
      "ropods": 4178,
      "version": 4179,
      "Ġglobal": 4180,
      "Ġcharacteristics": 4181,
      "ĠRAMA": 4182,
      "Ġgeometric": 4183,
      "Ġblack": 4184,
      "Ġmicrosc": 4185,
      "ĠVolume": 4186,
      "Ġenvironments": 4187,
      "LLLL": 4188,
      "Ġnamely": 4189,
      "ĠTectonics": 4190,
      "Ġglacial": 4191,
      "Ġsubsimple": 4192,
      "Ġways": 4193,
      "Ġdetailed": 4194,
      "Ġcomparable": 4195,
      "Ġmetabasalts": 4196,
      "Ġmassif": 4197,
      "Ġabundant": 4198,
      "Ġliterature": 4199,
      "Ġalready": 4200,
      "'s": 4201,
      "57": 4202,
      "jug": 4203,
      "pi": 4204,
      "si": 4205,
      "water": 4206,
      "yy": 4207,
      "Ġigneous": 4208,
      "Ġtight": 4209,
      "isions": 4210,
      "oratory": 4211,
      "rodu": 4212,
      "ĠTTG": 4213,
      "Ġled": 4214,
      "ommod": 4215,
      "ĠGupta": 4216,
      "ĠPliocene": 4217,
      "Ġhalf": 4218,
      "ĠCalc": 4219,
      "ĠCHA": 4220,
      "Ġrecon": 4221,
      "rift": 4222,
      "ĠDes": 4223,
      "ĠNand": 4224,
      "ĠKurnool": 4225,
      "adila": 4226,
      "ĠIndus": 4227,
      "Ġkb": 4228,
      "Ġkomati": 4229,
      "ellite": 4230,
      "Ġclassic": 4231,
      "Ġsubst": 4232,
      "Ġspin": 4233,
      "Ġlead": 4234,
      "Ġdirectly": 4235,
      "Ġlitholog": 4236,
      "1990": 4237,
      "Ġfossiliferous": 4238,
      "ALA": 4239,
      "ĠRAJ": 4240,
      "ophyre": 4241,
      "Ġfactors": 4242,
      "Ġviscous": 4243,
      "Ġgroups": 4244,
      "ixed": 4245,
      "Ġtholeiitic": 4246,
      "Ġconstitute": 4247,
      "ĠKhariar": 4248,
      "ochthonous": 4249,
      "ĠBulletin": 4250,
      "jugate": 4251,
      "((": 4252,
      "58": 4253,
      "HI": 4254,
      "ghat": 4255,
      "Ġâ": 4256,
      "Ġtaken": 4257,
      "onse": 4258,
      "Ġsillimanite": 4259,
      "itt": 4260,
      "ances": 4261,
      "orad": 4262,
      "iceras": 4263,
      "ĠSever": 4264,
      "ulus": 4265,
      "Ġeigen": 4266,
      "omm": 4267,
      "ĠPMB": 4268,
      "ĠCauvery": 4269,
      "ĠAust": 4270,
      "ilg": 4271,
      "Ġconce": 4272,
      "ĠKa": 4273,
      "ĠLarge": 4274,
      "Ġanisot": 4275,
      "Ġsheet": 4276,
      "Ġwho": 4277,
      "Ġwhole": 4278,
      "ĠMahan": 4279,
      "Ġ1988": 4280,
      "ĠUt": 4281,
      "ĠStud": 4282,
      "Ġbetter": 4283,
      "Ġspect": 4284,
      "achch": 4285,
      "Ġjust": 4286,
      "mmmm": 4287,
      "ĠNeogene": 4288,
      "ĠKarak": 4289,
      "Ġspecial": 4290,
      "Ġpossib": 4291,
      "Ġbuck": 4292,
      "Ġinstant": 4293,
      "Ġcorresponding": 4294,
      "Ġoldest": 4295,
      "ominantly": 4296,
      "Ġinteresting": 4297,
      "Ġreactivation": 4298,
      "ĠWhile": 4299,
      "Ġreason": 4300,
      "ĠBailadila": 4301,
      "ĠSeveral": 4302,
      "ĠMahanadi": 4303,
      "Ar": 4304,
      "UD": 4305,
      "cing": 4306,
      "epend": 4307,
      "hita": 4308,
      "ji": 4309,
      "lip": 4310,
      "ply": 4311,
      "Ġed": 4312,
      "Ġturn": 4313,
      "Ġswar": 4314,
      "ison": 4315,
      "Ġcrenulation": 4316,
      "orn": 4317,
      "Ġfigure": 4318,
      "Ġpers": 4319,
      "Ġlist": 4320,
      "Ġlamin": 4321,
      "Ġisoclinal": 4322,
      "ĠMall": 4323,
      "ĠPur": 4324,
      "Ġrepe": 4325,
      "ĠBy": 4326,
      "ĠBand": 4327,
      "ilob": 4328,
      "uplex": 4329,
      "ĠKUMAR": 4330,
      "ĠLoc": 4331,
      "Ġsharp": 4332,
      "Ġseams": 4333,
      "ĠJhar": 4334,
      "Ġkyanite": 4335,
      "Ġflood": 4336,
      "Ġnephe": 4337,
      "Ġinterbeds": 4338,
      "Ġenriched": 4339,
      "Ġvolum": 4340,
      "atholith": 4341,
      "ĠAng": 4342,
      "Ġsouthwest": 4343,
      "Ġalluvium": 4344,
      "Ġimportance": 4345,
      "Ġthroughout": 4346,
      "ĠYounger": 4347,
      "Ġsuggesting": 4348,
      "ITE": 4349,
      "5555": 4350,
      "ENT": 4351,
      "Ġdepending": 4352,
      "ĠBarakar": 4353,
      "Ġincluded": 4354,
      "Ġexperi": 4355,
      "Ġyielded": 4356,
      "Ġmylonite": 4357,
      "Ġcovering": 4358,
      "Ġexperiments": 4359,
      "Ġcombination": 4360,
      "ĠCycle": 4361,
      "Ġanomaly": 4362,
      "Ġestimated": 4363,
      "Ġresponse": 4364,
      "medi": 4365,
      "quartzite": 4366,
      "ĠMetamorphic": 4367,
      "Ġapophyses": 4368,
      "ĠdÃ©collement": 4369,
      "ĠBetul": 4370,
      "Ġcountry": 4371,
      "fficient": 4372,
      "Ġsucceed": 4373,
      "ĠPranhita": 4374,
      "Ġnepheline": 4375,
      "MAN": 4376,
      "grain": 4377,
      "kk": 4378,
      "kn": 4379,
      "prin": 4380,
      "ĠÂ°": 4381,
      "Ġtheory": 4382,
      "ency": 4383,
      "ese": 4384,
      "icr": 4385,
      "Ġbrown": 4386,
      "Ġman": 4387,
      "Ġmov": 4388,
      "Ġword": 4389,
      "ĠSo": 4390,
      "urce": 4391,
      "Ġground": 4392,
      "Ġisochron": 4393,
      "Ġthird": 4394,
      "Ġstates": 4395,
      "ĠCol": 4396,
      "ĠBAS": 4397,
      "iles": 4398,
      "ĠFract": 4399,
      "ĠDam": 4400,
      "ĠRocks": 4401,
      "ĠNall": 4402,
      "verg": 4403,
      "istan": 4404,
      "Ġsheared": 4405,
      "Ġproduct": 4406,
      "orticity": 4407,
      "ĠGeomorph": 4408,
      "Ġcannot": 4409,
      "source": 4410,
      "Ġoverpressure": 4411,
      "Ġoverlie": 4412,
      "2005": 4413,
      "2008": 4414,
      "aha": 4415,
      "Ġ2006": 4416,
      "ĠAnt": 4417,
      "Ġ1999": 4418,
      "Ġdescri": 4419,
      "Ġsynt": 4420,
      "Ġemplacement": 4421,
      "AAAA": 4422,
      "ĠOligocene": 4423,
      "Ġappears": 4424,
      "ĠGanga": 4425,
      "ancing": 4426,
      "Ġloading": 4427,
      "Ġepis": 4428,
      "ĠSystem": 4429,
      "Ġperfectly": 4430,
      "ĠSUB": 4431,
      "Ġequivalent": 4432,
      "Ġstromatolitic": 4433,
      "Ġbreccia": 4434,
      "Ġpolymict": 4435,
      "Ġfailure": 4436,
      "51": 4437,
      "VA": 4438,
      "eper": 4439,
      "lation": 4440,
      "mi": 4441,
      "Ġes": 4442,
      "Ġsuture": 4443,
      "ises": 4444,
      "Ġcf": 4445,
      "icobar": 4446,
      "Ġfram": 4447,
      "Ġlag": 4448,
      "Ġlife": 4449,
      "omag": 4450,
      "Ġ150": 4451,
      "ĠCO": 4452,
      "ĠBed": 4453,
      "Ġnet": 4454,
      "ilation": 4455,
      "ilarly": 4456,
      "ĠField": 4457,
      "vered": 4458,
      "Ġvalues": 4459,
      "Ġallow": 4460,
      "Ġfaun": 4461,
      "apuram": 4462,
      "rang": 4463,
      "oda": 4464,
      "ĠLad": 4465,
      "irly": 4466,
      "Ġones": 4467,
      "ĠWith": 4468,
      "Ġwhite": 4469,
      "Ġkimberl": 4470,
      "Ġgranodiorite": 4471,
      "Ġunc": 4472,
      "ANT": 4473,
      "oining": 4474,
      "Ġyoung": 4475,
      "Ġitself": 4476,
      "rows": 4477,
      "ĠGondwan": 4478,
      "arhwal": 4479,
      "Ġdeforming": 4480,
      "Ġseparation": 4481,
      "ĠScale": 4482,
      "inned": 4483,
      "Ġprovince": 4484,
      "Ġcurved": 4485,
      "Ġtemperatures": 4486,
      "ustrine": 4487,
      "ĠSpecial": 4488,
      "iceous": 4489,
      "Ġwidely": 4490,
      "Ġconnection": 4491,
      "Ġadjoining": 4492,
      "Ġsources": 4493,
      "Ġplutons": 4494,
      "Ġmeasurements": 4495,
      "Ġlittle": 4496,
      "Ġmeaning": 4497,
      "yritic": 4498,
      "Ġpublished": 4499,
      "ĠKotri": 4500,
      "UPTA": 4501,
      "horizontal": 4502,
      "KRISHNAN": 4503,
      "Ġterminology": 4504,
      "Ġglaciers": 4505,
      "ĠSchematic": 4506,
      "ĠUtah": 4507,
      "ĠNallamalai": 4508,
      "IA": 4509,
      "TER": 4510,
      "fic": 4511,
      "ief": 4512,
      "ta": 4513,
      "Ġrap": 4514,
      "Ġtakes": 4515,
      "anian": 4516,
      "Ġpri": 4517,
      "ols": 4518,
      "ĠSee": 4519,
      "ĠSummary": 4520,
      "elite": 4521,
      "uli": 4522,
      "ĠMay": 4523,
      "ĠCle": 4524,
      "ĠKam": 4525,
      "rane": 4526,
      "Ġexpect": 4527,
      "estig": 4528,
      "ĠInternational": 4529,
      "ĠOM": 4530,
      "erson": 4531,
      "issa": 4532,
      "Ġcour": 4533,
      "Ġcovered": 4534,
      "ĠStage": 4535,
      "Ġ500": 4536,
      "Ġimbric": 4537,
      "ourtesy": 4538,
      "Ġweat": 4539,
      "Ġslop": 4540,
      "mata": 4541,
      "1993": 4542,
      "Ġdesign": 4543,
      "Ġ1990": 4544,
      "Ġaccommod": 4545,
      "Ġmagnet": 4546,
      "Ġresulted": 4547,
      "Ġremain": 4548,
      "Ġexplain": 4549,
      "yps": 4550,
      "Ġoriginally": 4551,
      "dddd": 4552,
      "Ġassemblages": 4553,
      "Ġpermission": 4554,
      "....": 4555,
      "00000000": 4556,
      "Ġinstance": 4557,
      "hhhh": 4558,
      "Ġcrystalline": 4559,
      "Ġrequires": 4560,
      "Ġanticline": 4561,
      "ĠCaledon": 4562,
      "umaun": 4563,
      "Ġflattening": 4564,
      "ĠGeologists": 4565,
      "ĠKoira": 4566,
      "Ġpicture": 4567,
      "ĠKarakoram": 4568,
      "UK": 4569,
      "UN": 4570,
      "cape": 4571,
      "def": 4572,
      "late": 4573,
      "ores": 4574,
      "western": 4575,
      "Ġ:": 4576,
      "inc": 4577,
      "hemat": 4578,
      "Ġox": 4579,
      "arct": 4580,
      "Ġdel": 4581,
      "Ġdome": 4582,
      "Ġdates": 4583,
      "Ġmm": 4584,
      "ĠCrust": 4585,
      "ĠCrystall": 4586,
      "ĠBut": 4587,
      "ĠBase": 4588,
      "aments": 4589,
      "idites": 4590,
      "ĠDet": 4591,
      "oge": 4592,
      "ĠNep": 4593,
      "ĠNational": 4594,
      "odus": 4595,
      "ĠLater": 4596,
      "enschist": 4597,
      "ĠJag": 4598,
      "ĠMafic": 4599,
      "angular": 4600,
      "acustrine": 4601,
      "Ġneigh": 4602,
      "Ġ800": 4603,
      "ources": 4604,
      "Ġyou": 4605,
      "Ġmechanics": 4606,
      "Ġclearly": 4607,
      "Ġ1994": 4608,
      "ATION": 4609,
      "Ġmagnetic": 4610,
      "ALE": 4611,
      "Ġdescribes": 4612,
      "Ġsectors": 4613,
      "ĠPalaeoproterozoic": 4614,
      "Ġshapes": 4615,
      "Ġcomposed": 4616,
      "Ġcurve": 4617,
      "Ġxen": 4618,
      "unging": 4619,
      "Ġporosity": 4620,
      "Ġtexture": 4621,
      "Ġsettings": 4622,
      "Ġsupracrustals": 4623,
      "Ġreveal": 4624,
      "Ġpropagation": 4625,
      "Ġmagnitude": 4626,
      "ĠRegional": 4627,
      "Ġdistinguish": 4628,
      "Ġextinction": 4629,
      "Ġpermeability": 4630,
      "ĠCaledonides": 4631,
      "Ġneighb": 4632,
      "56": 4633,
      "dov": 4634,
      "field": 4635,
      "site": 4636,
      "uxt": 4637,
      "with": 4638,
      "heri": 4639,
      "Ġsat": 4640,
      "atable": 4641,
      "oral": 4642,
      "ician": 4643,
      "Ġfinite": 4644,
      "Ġpyrocl": 4645,
      "Ġduplex": 4646,
      "ravel": 4647,
      "ĠSin": 4648,
      "ĠSince": 4649,
      "ĠTheir": 4650,
      "osa": 4651,
      "osh": 4652,
      "idae": 4653,
      "ays": 4654,
      "Ġvast": 4655,
      "ĠDE": 4656,
      "Ġfairly": 4657,
      "ĠNell": 4658,
      "unachal": 4659,
      "Ġnext": 4660,
      "ĠThough": 4661,
      "Ġoccurred": 4662,
      "Ġsubd": 4663,
      "Ġargill": 4664,
      "Ġadded": 4665,
      "Ġclear": 4666,
      "ĠReview": 4667,
      "Figures": 4668,
      "ĠArunachal": 4669,
      "earing": 4670,
      "Ġsiliceous": 4671,
      "hesis": 4672,
      "Ġestimate": 4673,
      "Ġcomposite": 4674,
      "Ġdiagrams": 4675,
      "Ġtrue": 4676,
      "Ġmigration": 4677,
      "Ġaccumulate": 4678,
      "ĠAssoci": 4679,
      "Ġkinematics": 4680,
      "Ġramps": 4681,
      "Ġrequired": 4682,
      "ynamic": 4683,
      "ĠTectonophysics": 4684,
      "Ġfeldspar": 4685,
      "ĠDalma": 4686,
      "Ġvalue": 4687,
      "Ġpossibly": 4688,
      "dovician": 4689,
      "ĠNellore": 4690,
      "Courtesy": 4691,
      "VAS": 4692,
      "dip": 4693,
      "fol": 4694,
      "led": 4695,
      "side": 4696,
      "van": 4697,
      "yond": 4698,
      "Ġ[": 4699,
      "isal": 4700,
      "Ġcap": 4701,
      "Ġfam": 4702,
      "Ġfoc": 4703,
      "ĠSection": 4704,
      "Ġstable": 4705,
      "ĠGh": 4706,
      "ĠPre": 4707,
      "Ġdeeper": 4708,
      "ayan": 4709,
      "Ġbeach": 4710,
      "ĠDiff": 4711,
      "andon": 4712,
      "ĠNa": 4713,
      "ĠKun": 4714,
      "Ġexhum": 4715,
      "ĠLa": 4716,
      "ĠIndravati": 4717,
      "Ġprojection": 4718,
      "opsis": 4719,
      "ĠOver": 4720,
      "ĠUs": 4721,
      "Ġ48": 4722,
      "hys": 4723,
      "Ġenvel": 4724,
      "Ġindepend": 4725,
      "ework": 4726,
      "afics": 4727,
      "Ġvariation": 4728,
      "Ġconstruct": 4729,
      "Ġcarbonatite": 4730,
      "Ġremote": 4731,
      "Ġranging": 4732,
      "Ġlargely": 4733,
      "halaya": 4734,
      "ĠBoulder": 4735,
      "basins": 4736,
      "ĠEven": 4737,
      "Ġdecom": 4738,
      "Ġconnected": 4739,
      "ĠBihar": 4740,
      "Chapter": 4741,
      "ĠMalani": 4742,
      "11111111": 4743,
      "Ġcrystallographic": 4744,
      "Ġsecondary": 4745,
      "Ġtholeiites": 4746,
      "Ġpetroleum": 4747,
      "Ġrifts": 4748,
      "Ġcompression": 4749,
      "Ġknowledge": 4750,
      "chiopods": 4751,
      "Ġquestions": 4752,
      "Ġpeak": 4753,
      "Ġlaboratory": 4754,
      "Ġdegree": 4755,
      "achchh": 4756,
      "Ġinstantaneous": 4757,
      "known": 4758,
      "ĠLadakh": 4759,
      "Ġenvelope": 4760,
      "Al": 4761,
      "HYA": 4762,
      "go": 4763,
      "man": 4764,
      "na": 4765,
      "tian": 4766,
      "ini": 4767,
      "inces": 4768,
      "aly": 4769,
      "esis": 4770,
      "Ġcordierite": 4771,
      "ĠTo": 4772,
      "ĠSG": 4773,
      "ulad": 4774,
      "Ġstyl": 4775,
      "ĠBa": 4776,
      "Ġvaries": 4777,
      "ĠDongargarh": 4778,
      "ĠRel": 4779,
      "Ġalg": 4780,
      "aput": 4781,
      "ĠKachchh": 4782,
      "ĠLak": 4783,
      "ĠHigh": 4784,
      "ĠHigher": 4785,
      "Ġshell": 4786,
      "astropods": 4787,
      "oreh": 4788,
      "plane": 4789,
      "ĠGeochem": 4790,
      "elling": 4791,
      "raction": 4792,
      "edimentary": 4793,
      "ĠThus": 4794,
      "Ġmetas": 4795,
      "Ġsimply": 4796,
      "order": 4797,
      "Ġunderl": 4798,
      "ĠZanskar": 4799,
      "Ġrepresenting": 4800,
      "Ġ1996": 4801,
      "aucon": 4802,
      "Ġcharacterized": 4803,
      "Ġsilt": 4804,
      "ĠSeismic": 4805,
      "Ġ1987": 4806,
      "Ġmaterials": 4807,
      "ĠPaleogene": 4808,
      "Ġmylonites": 4809,
      "Ġfabrics": 4810,
      "Ġmeasured": 4811,
      "Ġparticles": 4812,
      "ĠEquation": 4813,
      "Ġproblem": 4814,
      "Ġdenot": 4815,
      "fault": 4816,
      "Ġsegments": 4817,
      "Ġmountain": 4818,
      "Ġchannel": 4819,
      "Ġnegative": 4820,
      "ĠAustral": 4821,
      "Ġprior": 4822,
      "90": 4823,
      "Early": 4824,
      "IG": 4825,
      "rs": 4826,
      "Ġae": 4827,
      "hest": 4828,
      "Ġspl": 4829,
      "Ġcm": 4830,
      "iced": 4831,
      "icus": 4832,
      "Ġmamm": 4833,
      "urg": 4834,
      "urs": 4835,
      "ulina": 4836,
      "Ġstyle": 4837,
      "ĠCan": 4838,
      "ĠChen": 4839,
      "chy": 4840,
      "ĠRE": 4841,
      "ift": 4842,
      "ranst": 4843,
      "ĠLamet": 4844,
      "undi": 4845,
      "seud": 4846,
      "Ġplunging": 4847,
      "ĠJoints": 4848,
      "outh": 4849,
      "Ġkink": 4850,
      "ĠOff": 4851,
      "ĠOrogen": 4852,
      "ostress": 4853,
      "Ġcoordinate": 4854,
      "izes": 4855,
      "Ġdikes": 4856,
      "Ġ78": 4857,
      "Ġchron": 4858,
      "Ġevolved": 4859,
      "Ġinterbedded": 4860,
      "Ġimpress": 4861,
      "rete": 4862,
      "Ġspacing": 4863,
      "Ġleuc": 4864,
      "ysore": 4865,
      "overed": 4866,
      "Ġouter": 4867,
      "Ġdomes": 4868,
      "Ġ1993": 4869,
      "1981": 4870,
      "Ġconstrain": 4871,
      "ĠComp": 4872,
      "Ġcarbonates": 4873,
      "ĠSandmata": 4874,
      "mmetry": 4875,
      "ollenites": 4876,
      "Ġemplaced": 4877,
      "ĠKhondalite": 4878,
      "Ġadditional": 4879,
      "osaurus": 4880,
      "aghni": 4881,
      "oooooooo": 4882,
      "ĠExtens": 4883,
      "Ġhardening": 4884,
      "Ġparticle": 4885,
      "Ġcomplete": 4886,
      "Ġprojections": 4887,
      "Ġchemical": 4888,
      "ylindrical": 4889,
      "ĠMarginal": 4890,
      "Ġparameters": 4891,
      "Ġrepeated": 4892,
      "uxtap": 4893,
      "500": 4894,
      "Delhi": 4895,
      "Dongargarh": 4896,
      "IL": 4897,
      "Ind": 4898,
      "OW": 4899,
      "Roy": 4900,
      "cus": 4901,
      "oured": 4902,
      "ru": 4903,
      "uge": 4904,
      "ype": 4905,
      "hev": 4906,
      "ars": 4907,
      "oric": 4908,
      "Ġfish": 4909,
      "Ġbrough": 4910,
      "ros": 4911,
      "Ġpast": 4912,
      "Ġpole": 4913,
      "ĠSem": 4914,
      "imately": 4915,
      "Ġevery": 4916,
      "ĠMat": 4917,
      "ĠIron": 4918,
      "Ġhum": 4919,
      "Ġhapp": 4920,
      "ĠBesides": 4921,
      "ĠFe": 4922,
      "Ġconcept": 4923,
      "ĠDun": 4924,
      "ogran": 4925,
      "undred": 4926,
      "Ġprot": 4927,
      "Ġwhy": 4928,
      "clud": 4929,
      "Ġevalu": 4930,
      "Ġslate": 4931,
      "Ġgreenschist": 4932,
      "Ġlithostratigraphic": 4933,
      "ĠAmb": 4934,
      "Ġdescribe": 4935,
      "richtian": 4936,
      "emperature": 4937,
      "ĠMesoproterozoic": 4938,
      "ĠMahade": 4939,
      "ĠOrdovician": 4940,
      "Ġaccumulates": 4941,
      "Ġcorresponds": 4942,
      "ĠGreen": 4943,
      "Ġisotropic": 4944,
      "rrrrrrrr": 4945,
      "Ġlandforms": 4946,
      "ĠTethys": 4947,
      "Ġridge": 4948,
      "Ġdiscontinuities": 4949,
      "Ġpenet": 4950,
      "Ġcataclastic": 4951,
      "Ġpalynof": 4952,
      "unction": 4953,
      "ĠChilpi": 4954,
      "ĠPapaghni": 4955,
      "Ġbrought": 4956,
      "1000": 4957,
      "?)": 4958,
      "CP": 4959,
      "OG": 4960,
      "biotite": 4961,
      "mag": 4962,
      "nagar": 4963,
      "Ġsum": 4964,
      "aty": 4965,
      "Ġostrac": 4966,
      "aland": 4967,
      "erb": 4968,
      "erve": 4969,
      "anced": 4970,
      "Ġfill": 4971,
      "Ġinversion": 4972,
      "Ġpract": 4973,
      "Ġpyrox": 4974,
      "Ġdr": 4975,
      "ĠSind": 4976,
      "Ġlatt": 4977,
      "ĠMon": 4978,
      "ĠMore": 4979,
      "ĠPR": 4980,
      "Ġhundred": 4981,
      "ĠAre": 4982,
      "ĠBer": 4983,
      "idot": 4984,
      "vect": 4985,
      "Ġash": 4986,
      "Ġvorticity": 4987,
      "Ġbeg": 4988,
      "agas": 4989,
      "adri": 4990,
      "hers": 4991,
      "ĠENE": 4992,
      "aking": 4993,
      "Ġintra": 4994,
      "Ġcohes": 4995,
      "Ġ85": 4996,
      "Ġnoticed": 4997,
      "Ġsandy": 4998,
      "Ġtranspression": 4999,
      "ĠBasalt": 5000,
      "Ġschem": 5001,
      "Ġ1995": 5002,
      "ĠMechan": 5003,
      "Ġbanding": 5004,
      "marine": 5005,
      "ĠOrissa": 5006,
      "Ġperman": 5007,
      "Ġgenerated": 5008,
      "Ġpebbly": 5009,
      "Ġmigmatitic": 5010,
      "Â±Â±Â±Â±": 5011,
      "Ġhydrocarbon": 5012,
      "interland": 5013,
      "eady": 5014,
      "Ġprecip": 5015,
      "Ġbuild": 5016,
      "Ġfront": 5017,
      "Ġplatform": 5018,
      "Ġdefinition": 5019,
      "ĠSakoli": 5020,
      "Ġaggregates": 5021,
      "Ġrapid": 5022,
      "arctica": 5023,
      "ĠBasement": 5024,
      "Bh": 5025,
      "ID": 5026,
      "LA": 5027,
      "Nd": 5028,
      "hj": 5029,
      "uate": 5030,
      "uck": 5031,
      "hene": 5032,
      "arn": 5033,
      "Ġfall": 5034,
      "ola": 5035,
      "Ġlog": 5036,
      "Ġlight": 5037,
      "ĠMO": 5038,
      "iganj": 5039,
      "ĠBhar": 5040,
      "ĠFirst": 5041,
      "Ġbeyond": 5042,
      "ĠDip": 5043,
      "state": 5044,
      "phal": 5045,
      "agarh": 5046,
      "ĠNath": 5047,
      "umer": 5048,
      "ĠJA": 5049,
      "âĢ¢": 5050,
      "ĠMajor": 5051,
      "llite": 5052,
      "Ġmarbles": 5053,
      "Ġuniform": 5054,
      "Ġ65": 5055,
      "Ġrelate": 5056,
      "ibet": 5057,
      "Ġspan": 5058,
      "Ġmodulus": 5059,
      "Ġsands": 5060,
      "Ġflowing": 5061,
      "Ġ1997": 5062,
      "Ġ1800": 5063,
      "Ġpatches": 5064,
      "ebrates": 5065,
      "attered": 5066,
      "Ġcontacts": 5067,
      "ampahar": 5068,
      "Ġcontinuity": 5069,
      "Ġinvolve": 5070,
      "ĠGlac": 5071,
      "Ġworkers": 5072,
      "CCCC": 5073,
      "Ġaccumulation": 5074,
      "Ġappearance": 5075,
      "module": 5076,
      "Ġeasy": 5077,
      "anchet": 5078,
      "Ġarenaceous": 5079,
      "Ġmetabasalt": 5080,
      "Ġrhyolite": 5081,
      "ĠFlinn": 5082,
      "ĠBrahm": 5083,
      "Ġproblems": 5084,
      "ĠNorway": 5085,
      "Ġserpent": 5086,
      "Ġevidences": 5087,
      "ĠDevonian": 5088,
      "Ġreconstruct": 5089,
      "ĠAssociation": 5090,
      "ĠAustralia": 5091,
      "MP": 5092,
      "Middle": 5093,
      "ched": 5094,
      "comp": 5095,
      "ios": 5096,
      "lay": 5097,
      "rupt": 5098,
      "sa": 5099,
      "vant": 5100,
      "what": 5101,
      "xford": 5102,
      "Ġtell": 5103,
      "Ġsin": 5104,
      "Ġsens": 5105,
      "Ġsides": 5106,
      "atites": 5107,
      "atang": 5108,
      "arts": 5109,
      "Ġcop": 5110,
      "Ġfan": 5111,
      "Ġfilled": 5112,
      "Ġandalusite": 5113,
      "Ġpap": 5114,
      "ĠSan": 5115,
      "ulf": 5116,
      "Ġstep": 5117,
      "Ġstatus": 5118,
      "osil": 5119,
      "ĠAct": 5120,
      "Ġreef": 5121,
      "ĠFlow": 5122,
      "Ġconjugate": 5123,
      "Ġvic": 5124,
      "ĠDh": 5125,
      "otal": 5126,
      "ĠLe": 5127,
      "Ġshore": 5128,
      "astrichtian": 5129,
      "udi": 5130,
      "orted": 5131,
      "periment": 5132,
      "ondhj": 5133,
      "Ġdiam": 5134,
      "Ġslight": 5135,
      "matite": 5136,
      "Ġrecently": 5137,
      "Ġlithostratigraphy": 5138,
      "ergence": 5139,
      "relation": 5140,
      "ISW": 5141,
      "1989": 5142,
      "urai": 5143,
      "Ġgeometries": 5144,
      "Ġopening": 5145,
      "Ġlonger": 5146,
      "Ġextended": 5147,
      "Ġ1989": 5148,
      "Ġapparent": 5149,
      "Ġcurv": 5150,
      "Ġcurrent": 5151,
      "ĠBarren": 5152,
      "ĠSimilarly": 5153,
      "ĠExperiment": 5154,
      "Ġhinges": 5155,
      "Ġmylonitic": 5156,
      "Ġcrystals": 5157,
      "Ġcomprising": 5158,
      "Ġimpact": 5159,
      "Ġpredominantly": 5160,
      "Ġstrongly": 5161,
      "Ġpelites": 5162,
      "Ġsamples": 5163,
      "Ġassumed": 5164,
      "ĠSedimentary": 5165,
      "ĠIsland": 5166,
      "ĠIslands": 5167,
      "atnam": 5168,
      "Ġcollected": 5169,
      "ĠPakistan": 5170,
      "Ġnecessarily": 5171,
      "Ġpreferred": 5172,
      "Ġnodules": 5173,
      "omencl": 5174,
      "Ġcircular": 5175,
      "ĠStrike": 5176,
      "Ġkilometers": 5177,
      "Ġlandscape": 5178,
      "ĠStudies": 5179,
      "Ġframework": 5180,
      "Ġxenoliths": 5181,
      "ĠOffshore": 5182,
      "600": 5183,
      "Narmada": 5184,
      "RAT": 5185,
      "equ": 5186,
      "off": 5187,
      "sp": 5188,
      "sts": 5189,
      "Ġedge": 5190,
      "arch": 5191,
      "ital": 5192,
      "Ġfig": 5193,
      "Ġpicr": 5194,
      "asi": 5195,
      "ĠTir": 5196,
      "ley": 5197,
      "ĠMand": 5198,
      "ĠMuth": 5199,
      "ĠPer": 5200,
      "ĠIND": 5201,
      "Ġhinterland": 5202,
      "ĠAp": 5203,
      "ĠBhand": 5204,
      "chni": 5205,
      "ĠDel": 5206,
      "ĠRock": 5207,
      "oga": 5208,
      "ranch": 5209,
      "thi": 5210,
      "ques": 5211,
      "heric": 5212,
      "hering": 5213,
      "rainage": 5214,
      "Ġcome": 5215,
      "ivity": 5216,
      "Ġcompared": 5217,
      "acies": 5218,
      "ĠUl": 5219,
      "neisses": 5220,
      "Ġchlorite": 5221,
      "Ġnoted": 5222,
      "Ġinterv": 5223,
      "Ġsomewhat": 5224,
      "Ġ1991": 5225,
      "placements": 5226,
      "ĠAlkaline": 5227,
      "rology": 5228,
      "ovite": 5229,
      "1800": 5230,
      "Ġprovides": 5231,
      "Ġerupt": 5232,
      "ollen": 5233,
      "7777": 5234,
      "ĠÎ±": 5235,
      "ĠBoud": 5236,
      "ĠClose": 5237,
      "olithic": 5238,
      "Ġcentury": 5239,
      "Ġconsiderable": 5240,
      "Ġtrilob": 5241,
      "ADHYA": 5242,
      "aluable": 5243,
      "Ġ2500": 5244,
      "ivalves": 5245,
      "ĠMarine": 5246,
      "ĠKalad": 5247,
      "Ġpebbles": 5248,
      "umbai": 5249,
      "akrishna": 5250,
      "Ġbends": 5251,
      "ridge": 5252,
      "ĠRaniganj": 5253,
      "ĠSilurian": 5254,
      "Ġaspects": 5255,
      "Ġcracks": 5256,
      "ĠDistrict": 5257,
      "ĠCharnockite": 5258,
      "Ġamygdular": 5259,
      "Ġmultiple": 5260,
      "Ġdesignated": 5261,
      "ĠLameta": 5262,
      "Ġlattice": 5263,
      "ondhjem": 5264,
      "omenclature": 5265,
      "OT": 5266,
      "VP": 5267,
      "jab": 5268,
      "lor": 5269,
      "pts": 5270,
      "inolite": 5271,
      "erial": 5272,
      "ices": 5273,
      "Ġpull": 5274,
      "Ġdark": 5275,
      "Ġgrit": 5276,
      "imb": 5277,
      "Ġstarts": 5278,
      "resh": 5279,
      "ĠMIS": 5280,
      "iger": 5281,
      "ĠAND": 5282,
      "rial": 5283,
      "agg": 5284,
      "apti": 5285,
      "ĠKumaun": 5286,
      "Ġexisting": 5287,
      "ĠHy": 5288,
      "ressive": 5289,
      "Ġsealing": 5290,
      "inematic": 5291,
      "seismic": 5292,
      "Ġcomplic": 5293,
      "akhan": 5294,
      "Ġcontent": 5295,
      "avani": 5296,
      "plified": 5297,
      "Ġwhose": 5298,
      "opal": 5299,
      "Ġcompact": 5300,
      "ellow": 5301,
      "Ġcool": 5302,
      "onda": 5303,
      "Ġ400": 5304,
      "Ġ700": 5305,
      "Ġmeta": 5306,
      "ANG": 5307,
      "Ġspherical": 5308,
      "vier": 5309,
      "1991": 5310,
      "ignite": 5311,
      "ards": 5312,
      "hanj": 5313,
      "Ġ1500": 5314,
      "Ġglaucon": 5315,
      "ĠSubathu": 5316,
      "ragarh": 5317,
      "Ġprovided": 5318,
      "Ġtopography": 5319,
      "Ġdolom": 5320,
      "2600": 5321,
      "Ġcircles": 5322,
      "Ġnames": 5323,
      "ĠGloss": 5324,
      "oidal": 5325,
      "Ġintruding": 5326,
      "Ġlinked": 5327,
      "ĠGrey": 5328,
      "OSH": 5329,
      "Ġcomparison": 5330,
      "ĠExtension": 5331,
      "carbonate": 5332,
      "ĠElse": 5333,
      "ĠTerrain": 5334,
      "Ġlimbs": 5335,
      "Ġdunes": 5336,
      "Ġoccupy": 5337,
      "ĠSuite": 5338,
      "Ġmotion": 5339,
      "Ġinvert": 5340,
      "adhakrishna": 5341,
      "ĠAntarctica": 5342,
      "omagnetic": 5343,
      "ĠNepal": 5344,
      "ĠDifferent": 5345,
      "Ġindependent": 5346,
      "orehole": 5347,
      "Ġaeolian": 5348,
      "Ġpermanent": 5349,
      "IAN": 5350,
      "JEE": 5351,
      "Phot": 5352,
      "cil": 5353,
      "dom": 5354,
      "gre": 5355,
      "iatus": 5356,
      "put": 5357,
      "shear": 5358,
      "values": 5359,
      "Ġrain": 5360,
      "atter": 5361,
      "anth": 5362,
      "ising": 5363,
      "isporites": 5364,
      "ishers": 5365,
      "Ġcrus": 5366,
      "ĠTE": 5367,
      "ĠTit": 5368,
      "ĠTra": 5369,
      "ĠTibet": 5370,
      "ĠSA": 5371,
      "Ġlake": 5372,
      "Ġisog": 5373,
      "ulites": 5374,
      "ĠGor": 5375,
      "ĠGarhwal": 5376,
      "ĠMc": 5377,
      "ighest": 5378,
      "eth": 5379,
      "osc": 5380,
      "Ġhighest": 5381,
      "ĠCGC": 5382,
      "terly": 5383,
      "riff": 5384,
      "ĠDa": 5385,
      "agation": 5386,
      "ects": 5387,
      "range": 5388,
      "odar": 5389,
      "Ġ23": 5390,
      "ĠLun": 5391,
      "ĠLREE": 5392,
      "istral": 5393,
      "Ġonce": 5394,
      "Ġplume": 5395,
      "Ġcontribut": 5396,
      "avy": 5397,
      "hara": 5398,
      "ĠOxford": 5399,
      "ĠVert": 5400,
      "ĠUda": 5401,
      "ĠState": 5402,
      "Ġdisplacements": 5403,
      "raditional": 5404,
      "Ġmoder": 5405,
      "Ġmodified": 5406,
      "anahalli": 5407,
      "ounts": 5408,
      "liest": 5409,
      "Ġapplic": 5410,
      "Ġvolcano": 5411,
      "Ġnearly": 5412,
      "Ġlocations": 5413,
      "Ġdistributed": 5414,
      "ropagation": 5415,
      "Ġinferred": 5416,
      "shale": 5417,
      "Ġboulder": 5418,
      "Ġphot": 5419,
      "Ġincreased": 5420,
      "ITH": 5421,
      "Ġexploration": 5422,
      "Ġexplored": 5423,
      "Ġdiagonal": 5424,
      "Ġconfir": 5425,
      "Ġplateau": 5426,
      "onalite": 5427,
      "ĠÎ¸": 5428,
      "Ġemphas": 5429,
      "ĠMadurai": 5430,
      "ĠOnce": 5431,
      "Ġultramafics": 5432,
      "pppp": 5433,
      "Ġgenerate": 5434,
      "Ġexperimental": 5435,
      "Ġobservation": 5436,
      "Ġcreate": 5437,
      "aaaaaaaa": 5438,
      "Ġcriteria": 5439,
      "Ġearthquake": 5440,
      "ĠSmall": 5441,
      "Ġportion": 5442,
      "Ġelongation": 5443,
      "Ġcompletely": 5444,
      "Ġbalancing": 5445,
      "ĠMeghalaya": 5446,
      "Ġgeochemistry": 5447,
      "ĠBhima": 5448,
      "Ġpillowed": 5449,
      "Ġophiolite": 5450,
      "abalpur": 5451,
      "Ġresistance": 5452,
      "ĠKolhan": 5453,
      "ilgiri": 5454,
      "Ġuncertain": 5455,
      "going": 5456,
      "aputra": 5457,
      "Ġvicinity": 5458,
      "Ġfigures": 5459,
      "ĠKaladgi": 5460,
      "riffith": 5461,
      "BK": 5462,
      "KS": 5463,
      "UCT": 5464,
      "air": 5465,
      "by": 5466,
      "called": 5467,
      "propagation": 5468,
      "Ġ_": 5469,
      "Ġhen": 5470,
      "Ġtake": 5471,
      "Ġsumm": 5472,
      "Ġfinal": 5473,
      "Ġandes": 5474,
      "Ġpink": 5475,
      "olcan": 5476,
      "Ġlack": 5477,
      "Ġgastropods": 5478,
      "Ġstaurolite": 5479,
      "ĠGUPTA": 5480,
      "ĠGriffith": 5481,
      "ĠPass": 5482,
      "ĠProg": 5483,
      "ĠArab": 5484,
      "chin": 5485,
      "ĠNon": 5486,
      "ĠNNE": 5487,
      "ĠNumer": 5488,
      "ĠKare": 5489,
      "ĠKolar": 5490,
      "Ġroof": 5491,
      "rices": 5492,
      "ĠOcean": 5493,
      "ĠVi": 5494,
      "soon": 5495,
      "ĠUm": 5496,
      "Ġresolved": 5497,
      "Ġgeochron": 5498,
      "Ġevap": 5499,
      "Ġminimum": 5500,
      "Ġextensions": 5501,
      "2007": 5502,
      "Ġindicat": 5503,
      "1994": 5504,
      "Ġscattered": 5505,
      "Ġ115": 5506,
      "ĠAlthough": 5507,
      "Ġearliest": 5508,
      "ĠSupracrust": 5509,
      "Ġmicroscale": 5510,
      "innaur": 5511,
      "ampro": 5512,
      "END": 5513,
      "ĠAsian": 5514,
      "Ġdolerite": 5515,
      "rabens": 5516,
      "Ġfactor": 5517,
      "ultramafic": 5518,
      "ĠLithology": 5519,
      "Ġcenter": 5520,
      "ĠSimilar": 5521,
      "Ġreflects": 5522,
      "Ġsubsidence": 5523,
      "ĠPalghat": 5524,
      "ANDA": 5525,
      "Ġpositive": 5526,
      "Ġrarely": 5527,
      "ĠIntrus": 5528,
      "Ġpelitic": 5529,
      "sequent": 5530,
      "ĠSchist": 5531,
      "ĠPhulad": 5532,
      "tttttttt": 5533,
      "Ġabsent": 5534,
      "Ġdissolution": 5535,
      "uscovite": 5536,
      "ĠJaisal": 5537,
      "Ġgeomorphic": 5538,
      "Ġintercalated": 5539,
      "Ġheterogeneous": 5540,
      "Ġversus": 5541,
      "ĠRAMAKRISHNAN": 5542,
      "mediate": 5543,
      "Ġfaunal": 5544,
      "ranstension": 5545,
      "cluding": 5546,
      "ADHYAY": 5547,
      "Photograph": 5548,
      "Ġhence": 5549,
      "CSZ": 5550,
      "DE": 5551,
      "TY": 5552,
      "che": 5553,
      "cut": 5554,
      "gian": 5555,
      "lag": 5556,
      "mafic": 5557,
      "pen": 5558,
      "rite": 5559,
      "Ġult": 5560,
      "inites": 5561,
      "onk": 5562,
      "arj": 5563,
      "itational": 5564,
      "rope": 5565,
      "rohi": 5566,
      "Ġpr": 5567,
      "Ġpoor": 5568,
      "Ġpyroxene": 5569,
      "Ġmention": 5570,
      "ĠTr": 5571,
      "Ġ(>": 5572,
      "Ġislands": 5573,
      "Ġstiff": 5574,
      "ĠGH": 5575,
      "ĠGr": 5576,
      "ĠME": 5577,
      "ĠMysore": 5578,
      "Ġhy": 5579,
      "ĠColl": 5580,
      "ĠCurrent": 5581,
      "ĠBis": 5582,
      "utan": 5583,
      "idium": 5584,
      "ters": 5585,
      "ĠRem": 5586,
      "Ġalt": 5587,
      "Ġ27": 5588,
      "Ġexpression": 5589,
      "undament": 5590,
      "hert": 5591,
      "iable": 5592,
      "ultaneous": 5593,
      "Ġcontempor": 5594,
      "avel": 5595,
      "ractional": 5596,
      "Ġ600": 5597,
      "Ġ74": 5598,
      "Ġmeters": 5599,
      "Ġinterval": 5600,
      "Ġyet": 5601,
      "Ġextensively": 5602,
      "endra": 5603,
      "Ġ2005": 5604,
      "Ġlocation": 5605,
      "Ġlithostatic": 5606,
      "1992": 5607,
      "ropri": 5608,
      "Ġ1992": 5609,
      "Ġaccount": 5610,
      "Ġago": 5611,
      "ĠAmgaon": 5612,
      "uchsite": 5613,
      "Ġseparates": 5614,
      "Ġcalcite": 5615,
      "Ġelliptical": 5616,
      "Ġenclave": 5617,
      "ĠGneissic": 5618,
      "Ġcontinued": 5619,
      "Ġproven": 5620,
      "ĠAsia": 5621,
      "Ġeffects": 5622,
      "Ġspecific": 5623,
      "Ġsignificance": 5624,
      "ORM": 5625,
      "Ġortho": 5626,
      "Ġpalaeos": 5627,
      "modified": 5628,
      "Ġthought": 5629,
      "Ġarcuate": 5630,
      "ĠGreat": 5631,
      "Ġnumerical": 5632,
      "Ġneeded": 5633,
      "Ġbroadly": 5634,
      "ĠCorrelation": 5635,
      "Ġtransgression": 5636,
      "Ġpurple": 5637,
      "Ġexpressed": 5638,
      "Ġcontinents": 5639,
      "Ġpotential": 5640,
      "ĠAfrica": 5641,
      "roduced": 5642,
      "Ġdescription": 5643,
      "Ġkimberlite": 5644,
      "ĠSinha": 5645,
      "Ġslightly": 5646,
      "ĠUdaipur": 5647,
      "ĠArabian": 5648,
      "ĠJaisalmer": 5649,
      "'.": 5650,
      "Afric": 5651,
      "CE": 5652,
      "NS": 5653,
      "TH": 5654,
      "bit": 5655,
      "cell": 5656,
      "dwara": 5657,
      "pelite": 5658,
      "temperature": 5659,
      "ua": 5660,
      "Ġtract": 5661,
      "ona": 5662,
      "eni": 5663,
      "Ġfree": 5664,
      "Ġwet": 5665,
      "ĠTyp": 5666,
      "ĠSab": 5667,
      "ĠSiv": 5668,
      "use": 5669,
      "Ġgravel": 5670,
      "ĠGir": 5671,
      "ĠMB": 5672,
      "ĠMumbai": 5673,
      "Ġ111": 5674,
      "Ġhyp": 5675,
      "Ġhiatus": 5676,
      "ĠCross": 5677,
      "ows": 5678,
      "ried": 5679,
      "ocer": 5680,
      "Ġvaluable": 5681,
      "aged": 5682,
      "umar": 5683,
      "Ġorgan": 5684,
      "ĠLon": 5685,
      "ĠLet": 5686,
      "ĠLow": 5687,
      "Ġroot": 5688,
      "Ġancient": 5689,
      "oretical": 5690,
      "ĠJabalpur": 5691,
      "Ġ33": 5692,
      "plan": 5693,
      "ĠWar": 5694,
      "Ġfloor": 5695,
      "ĠVis": 5696,
      "Ġupright": 5697,
      "retion": 5698,
      "ikk": 5699,
      "Ġsimultaneous": 5700,
      "Ġlineaments": 5701,
      "ounced": 5702,
      "cons": 5703,
      "athan": 5704,
      "Ġleading": 5705,
      "Ġtransformation": 5706,
      "Ġtransfer": 5707,
      "Ġoutliers": 5708,
      "ĠProc": 5709,
      "Ġfollows": 5710,
      "1984": 5711,
      "1986": 5712,
      "Ġuppermost": 5713,
      "ronounced": 5714,
      "ĠBhil": 5715,
      "Ġdominate": 5716,
      "atti": 5717,
      "Ġunconformities": 5718,
      "Ġgradational": 5719,
      "Ġequation": 5720,
      "Ġphyllosil": 5721,
      "ĠPublishers": 5722,
      "ĠClay": 5723,
      "ĠSonakhan": 5724,
      "Ġfooth": 5725,
      "Ġlinkage": 5726,
      "Ġcombined": 5727,
      "Ġinfluenced": 5728,
      "Ġapproach": 5729,
      "Ġdimension": 5730,
      "ĠImport": 5731,
      "metamorph": 5732,
      "Ġvarying": 5733,
      "Ġrelevant": 5734,
      "Ġquestion": 5735,
      "Ġrealistic": 5736,
      "ĠEurope": 5737,
      "Ġseems": 5738,
      "Ġfractionation": 5739,
      "Ġarkose": 5740,
      "lipal": 5741,
      "Ġslopes": 5742,
      "ĠChenn": 5743,
      "India": 5744,
      "agascar": 5745,
      "ĠUlt": 5746,
      "ĠClosepet": 5747,
      "avelength": 5748,
      ".-": 5749,
      "3000": 5750,
      "No": 5751,
      "acc": 5752,
      "aren": 5753,
      "bers": 5754,
      "bend": 5755,
      "gram": 5756,
      "kt": 5757,
      "mas": 5758,
      "more": 5759,
      "rup": 5760,
      "uil": 5761,
      "Ġ?": 5762,
      "inch": 5763,
      "inoides": 5764,
      "onia": 5765,
      "Ġsol": 5766,
      "Ġsqu": 5767,
      "atum": 5768,
      "Ġfring": 5769,
      "Ġfaster": 5770,
      "Ġput": 5771,
      "Ġphen": 5772,
      "Ġdilation": 5773,
      "Ġdrainage": 5774,
      "Ġmut": 5775,
      "ĠTan": 5776,
      "ĠTime": 5777,
      "ĠSW": 5778,
      "ĠShar": 5779,
      "Ġlampro": 5780,
      "Ġgyps": 5781,
      "imoga": 5782,
      "ĠMed": 5783,
      "ĠPrin": 5784,
      "ĠPoly": 5785,
      "Ġhill": 5786,
      "Ġdev": 5787,
      "rief": 5788,
      "ĠDVP": 5789,
      "ĠRh": 5790,
      "ĠKul": 5791,
      "ades": 5792,
      "Ġexternal": 5793,
      "abil": 5794,
      "Ġplug": 5795,
      "ĠJah": 5796,
      "Ġatomic": 5797,
      "ĠWhy": 5798,
      "Ġkh": 5799,
      "Ġgranophyre": 5800,
      "ĠMaastrichtian": 5801,
      "aches": 5802,
      "isson": 5803,
      "Ġclockwise": 5804,
      "Ġunst": 5805,
      "Ġ75": 5806,
      "ĠChamp": 5807,
      "Ġrelay": 5808,
      "Ġchall": 5809,
      "Ġintermediate": 5810,
      "ĠBasic": 5811,
      "wards": 5812,
      "Ġcleav": 5813,
      "ATA": 5814,
      "ATH": 5815,
      "Ġsmear": 5816,
      "Ġacid": 5817,
      "ĠFauna": 5818,
      "Ġseparating": 5819,
      "1983": 5820,
      "Ġincrement": 5821,
      "Ġmicrofractures": 5822,
      "Ġ1981": 5823,
      "Ġcondition": 5824,
      "pora": 5825,
      "Ġera": 5826,
      "irifer": 5827,
      "ESH": 5828,
      "Ġcausing": 5829,
      "Ġcentim": 5830,
      "Ġconsiderably": 5831,
      "Ġtrun": 5832,
      "ĠOng": 5833,
      "Ġcherts": 5834,
      "ĠNagaur": 5835,
      "Ġprogressively": 5836,
      "Ġporphyritic": 5837,
      "sequence": 5838,
      "Ġdiscontinuous": 5839,
      "Ġforaminif": 5840,
      "Ġcounter": 5841,
      "llllllllllllllll": 5842,
      "ĠMinerals": 5843,
      "Ġrespons": 5844,
      "ĠCoastal": 5845,
      "ĠCaledonian": 5846,
      "Ġsegment": 5847,
      "Ġcataclas": 5848,
      "Ġpurpos": 5849,
      "Ġsket": 5850,
      "Ġbehav": 5851,
      "Ġpaleostress": 5852,
      "Ġmanganese": 5853,
      "Ġbrachiopods": 5854,
      "Ġclimatic": 5855,
      "ĠROY": 5856,
      "Ġspectrum": 5857,
      "Ġweathering": 5858,
      "ogranite": 5859,
      "ĠGlossopteris": 5860,
      "ropriate": 5861,
      "85": 5862,
      "KZ": 5863,
      "PH": 5864,
      "RAN": 5865,
      "TI": 5866,
      "fossils": 5867,
      "gava": 5868,
      "ique": 5869,
      "mica": 5870,
      "nt": 5871,
      "ucle": 5872,
      "Ġu": 5873,
      "Ġturb": 5874,
      "Ġoper": 5875,
      "also": 5876,
      "ants": 5877,
      "Ġbatholith": 5878,
      "Ġpronounced": 5879,
      "Ġmid": 5880,
      "Ġwavelength": 5881,
      "ĠType": 5882,
      "ĠSRI": 5883,
      "Ġlies": 5884,
      "Ġthinning": 5885,
      "ĠPart": 5886,
      "ĠPhot": 5887,
      "ĠCall": 5888,
      "ĠCIS": 5889,
      "ilas": 5890,
      "ĠFo": 5891,
      "ithonian": 5892,
      "ocol": 5893,
      "ĠDy": 5894,
      "ĠDAS": 5895,
      "ogical": 5896,
      "ĠLep": 5897,
      "ĠHal": 5898,
      "aks": 5899,
      "ongar": 5900,
      "Ġcompound": 5901,
      "Ġintense": 5902,
      "ediments": 5903,
      "Ġstrained": 5904,
      "Ġformer": 5905,
      "Ġresources": 5906,
      "Ġoverprin": 5907,
      "ryozo": 5908,
      "Ġintersect": 5909,
      "Ġsubgrain": 5910,
      "Ġslow": 5911,
      "Ġyrs": 5912,
      "Ġperidot": 5913,
      "Ġamounts": 5914,
      "xtral": 5915,
      "Ġgrained": 5916,
      "Ġacting": 5917,
      "ĠFigures": 5918,
      "Ġ1600": 5919,
      "Ġheavy": 5920,
      "Ġmatrices": 5921,
      "Ġvertebrate": 5922,
      "ĠBhutan": 5923,
      "Ġsuccessions": 5924,
      "Ġgradient": 5925,
      "Ġexplained": 5926,
      "Ġinvolving": 5927,
      "ĠRams": 5928,
      "Ġeffective": 5929,
      "inctes": 5930,
      "ĠSimlipal": 5931,
      "ĠOrth": 5932,
      "Ġcloser": 5933,
      "Ġuplifted": 5934,
      "ĠGangetic": 5935,
      "Ġcontrovers": 5936,
      "RIMP": 5937,
      "tilophyllum": 5938,
      "azpur": 5939,
      "Ġdominantly": 5940,
      "Ġportray": 5941,
      "Ġpopulations": 5942,
      "ĠSHRIMP": 5943,
      "Ġtransgressive": 5944,
      "Ġobtain": 5945,
      "Ġobtained": 5946,
      "ĠCambridge": 5947,
      "ĠMountains": 5948,
      "itudinal": 5949,
      "ĠGPB": 5950,
      "ĠInstitut": 5951,
      "ĠPoisson": 5952,
      "ĠÏķ": 5953,
      "Ġmicroscope": 5954,
      "ĠCleavage": 5955,
      "ĠOMG": 5956,
      "ĠCrustal": 5957,
      "ogeography": 5958,
      "Ġfocus": 5959,
      "Ġexhumation": 5960,
      "Ġsinistral": 5961,
      "Ġcomplicated": 5962,
      "Ġindicators": 5963,
      "African": 5964,
      "Ġgypsum": 5965,
      "Himalay": 5966,
      "IK": 5967,
      "Late": 5968,
      "PO": 5969,
      "cause": 5970,
      "fels": 5971,
      "mb": 5972,
      "mund": 5973,
      "sk": 5974,
      "sedimentary": 5975,
      "yal": 5976,
      "Ġtrap": 5977,
      "inally": 5978,
      "ero": 5979,
      "enn": 5980,
      "itoid": 5981,
      "isible": 5982,
      "ications": 5983,
      "Ġborehole": 5984,
      "Ġpolar": 5985,
      "Ġdig": 5986,
      "ĠTur": 5987,
      "ĠTip": 5988,
      "ĠSDFB": 5989,
      "Ġlacustrine": 5990,
      "ush": 5991,
      "Ġgold": 5992,
      "ĠGrav": 5993,
      "ĠMylon": 5994,
      "ĠAg": 5995,
      "Ġconverg": 5996,
      "Ġdeple": 5997,
      "ĠRest": 5998,
      "ĠRadhakrishna": 5999,
      "ĠNA": 6000,
      "ĠNort": 6001,
      "ĠNormal": 6002,
      "adw": 6003,
      "ĠHom": 6004,
      "Ġdeflect": 6005,
      "astically": 6006,
      "Ġplaced": 6007,
      "plate": 6008,
      "ĠOut": 6009,
      "positional": 6010,
      "ichn": 6011,
      "Ġdiorite": 6012,
      "Ġpartition": 6013,
      "Ġrelates": 6014,
      "Ġrelief": 6015,
      "ontological": 6016,
      "Ġslates": 6017,
      "Ġmodeled": 6018,
      "Ġjuxtap": 6019,
      "Ġrefer": 6020,
      "ropical": 6021,
      "ĠProf": 6022,
      "Ġmicaceous": 6023,
      "ĠShield": 6024,
      "ptian": 6025,
      "Ġmaint": 6026,
      "Ġrotates": 6027,
      "ĠAmphib": 6028,
      "1982": 6029,
      "ALL": 6030,
      "IND": 6031,
      "ONE": 6032,
      "Ġglass": 6033,
      "Ġheight": 6034,
      "Ġmatter": 6035,
      "area": 6036,
      "Ġcorrelatable": 6037,
      "ĠSecond": 6038,
      "ĠSirohi": 6039,
      "Ġgradual": 6040,
      "Ġprevious": 6041,
      "2500": 6042,
      "Ġcurves": 6043,
      "Ġstretched": 6044,
      "ĠSimple": 6045,
      "Ġreflected": 6046,
      "ujh": 6047,
      "9999": 6048,
      "Ġprofiles": 6049,
      "Ġillustration": 6050,
      "Ġintrudes": 6051,
      "Ġburied": 6052,
      "Ġtips": 6053,
      "Ġpredict": 6054,
      "Ġcoalfield": 6055,
      "thetic": 6056,
      "Ġdivision": 6057,
      "urbhanj": 6058,
      "ĠFurthermore": 6059,
      "ottom": 6060,
      "Ġassumption": 6061,
      "Ġinterest": 6062,
      "Ġpopular": 6063,
      "Ġdetermined": 6064,
      "Ġtriangular": 6065,
      "Ġinitiated": 6066,
      "Ġreduced": 6067,
      "Ġintercalations": 6068,
      "ĠDolomite": 6069,
      "Ġapproximately": 6070,
      "Ġdrawn": 6071,
      "ĠBanded": 6072,
      "Ġvolumes": 6073,
      "Ġyoungest": 6074,
      "ĠGondwanaland": 6075,
      "Ġsatellite": 6076,
      "ĠKarewa": 6077,
      "ĠUltram": 6078,
      "81": 6079,
      "CZ": 6080,
      "Mah": 6081,
      "bs": 6082,
      "fall": 6083,
      "garnet": 6084,
      "mic": 6085,
      "uced": 6086,
      "wh": 6087,
      "was": 6088,
      "Ġtent": 6089,
      "Ġtax": 6090,
      "head": 6091,
      "Ġsq": 6092,
      "alian": 6093,
      "Ġcumul": 6094,
      "Ġbene": 6095,
      "roc": 6096,
      "Ġpile": 6097,
      "ĠTrich": 6098,
      "elastic": 6099,
      "ulate": 6100,
      "ĠPanchet": 6101,
      "ĠPtilophyllum": 6102,
      "Ġrevers": 6103,
      "ĠDr": 6104,
      "ĠNNW": 6105,
      "ĠNicobar": 6106,
      "ĠNilgiri": 6107,
      "ĠKat": 6108,
      "ument": 6109,
      "adhan": 6110,
      "Ġ250": 6111,
      "ipher": 6112,
      "ipient": 6113,
      "ĠEur": 6114,
      "ologic": 6115,
      "Ġcontext": 6116,
      "Ġprogram": 6117,
      "avaram": 6118,
      "ĠON": 6119,
      "Ġcoinc": 6120,
      "Ġneotectonic": 6121,
      "Ġmarl": 6122,
      "Ġresem": 6123,
      "Ġresting": 6124,
      "Ġchrom": 6125,
      "Ġdispl": 6126,
      "Ġregular": 6127,
      "Ġlineament": 6128,
      "Ġgreater": 6129,
      "Ġperipher": 6130,
      "Ġcorals": 6131,
      "ĠQCP": 6132,
      "Ġmineralogy": 6133,
      "Ġincipient": 6134,
      "Ġactual": 6135,
      "Ġ180": 6136,
      "ĠAmmon": 6137,
      "Ġcalculated": 6138,
      "ASAD": 6139,
      "Ġpresents": 6140,
      "ĠSurface": 6141,
      "Ġpreserv": 6142,
      "Ġnortheastern": 6143,
      "ĠForamin": 6144,
      "Ġprovinces": 6145,
      "ĠMeas": 6146,
      "Ġconfig": 6147,
      "Ġtechni": 6148,
      "Ġappropriate": 6149,
      "iota": 6150,
      "ammam": 6151,
      "ĠPalar": 6152,
      "Ġidentify": 6153,
      "Ġtrondhjem": 6154,
      "getation": 6155,
      "ĠMadagascar": 6156,
      "Ġanalyses": 6157,
      "Ġgravitational": 6158,
      "Ġattem": 6159,
      "Ġattributed": 6160,
      "Ġmonsoon": 6161,
      "Ġ357": 6162,
      "Ġpredic": 6163,
      "Ġepid": 6164,
      "Ġoccurrences": 6165,
      "Ġdivisions": 6166,
      "Ġradial": 6167,
      "ĠTerra": 6168,
      "ĠBecause": 6169,
      "phyllite": 6170,
      "ĠBadami": 6171,
      "ĠBadampahar": 6172,
      "Ġinitiate": 6173,
      "Ġaffinity": 6174,
      "ithecus": 6175,
      "ĠTiro": 6176,
      "ĠINT": 6177,
      "ĠAcad": 6178,
      "Ġsubstant": 6179,
      "Ġanisotropic": 6180,
      "herium": 6181,
      "Ġargillaceous": 6182,
      "hevron": 6183,
      "ĠNathdwara": 6184,
      "ĠBrahmaputra": 6185,
      "Ġdiamond": 6186,
      "ĠDelwara": 6187,
      "ĠBoudin": 6188,
      "ĠElsevier": 6189,
      "ĠImportant": 6190,
      "ktonic": 6191,
      "ĠJahazpur": 6192,
      "Ġcleavages": 6193,
      "adwick": 6194,
      "ujhmar": 6195,
      "Ġbeneath": 6196,
      "-,": 6197,
      "BB": 6198,
      "GE": 6199,
      "NA": 6200,
      "Tertiary": 6201,
      "bara": 6202,
      "from": 6203,
      "hoe": 6204,
      "jar": 6205,
      "king": 6206,
      "ohar": 6207,
      "rically": 6208,
      "sel": 6209,
      "ym": 6210,
      "Ġ).": 6211,
      "Ġtraditional": 6212,
      "arib": 6213,
      "enk": 6214,
      "enest": 6215,
      "iter": 6216,
      "anch": 6217,
      "orites": 6218,
      "Ġfundament": 6219,
      "Ġbul": 6220,
      "Ġbrief": 6221,
      "Ġinner": 6222,
      "Ġpower": 6223,
      "Ġmes": 6224,
      "Ġmemb": 6225,
      "Ġweld": 6226,
      "ĠTik": 6227,
      "entle": 6228,
      "Ġlakes": 6229,
      "uri": 6230,
      "Ġgu": 6231,
      "Ġgentle": 6232,
      "ima": 6233,
      "Ġstand": 6234,
      "Ġec": 6235,
      "igg": 6236,
      "ĠPres": 6237,
      "ĠPage": 6238,
      "ĠPCSZ": 6239,
      "ĠApp": 6240,
      "ĠBro": 6241,
      "ĠBagh": 6242,
      "ceeds": 6243,
      "ĠFour": 6244,
      "ĠFossil": 6245,
      "ĠFlu": 6246,
      "Ġdextral": 6247,
      "ocy": 6248,
      "agad": 6249,
      "ĠNatural": 6250,
      "ĠKond": 6251,
      "ĠHer": 6252,
      "ĠHor": 6253,
      "ĠHut": 6254,
      "iacar": 6255,
      "raining": 6256,
      "Ġ3000": 6257,
      "illing": 6258,
      "ĠInf": 6259,
      "Ġkind": 6260,
      "Ġkeep": 6261,
      "ĠOre": 6262,
      "Ġquant": 6263,
      "ĠCha": 6264,
      "Ġmetap": 6265,
      "Ġcho": 6266,
      "Ġimages": 6267,
      "Ġspaced": 6268,
      "Ġmodern": 6269,
      "Ġsimpl": 6270,
      "ĠDehra": 6271,
      "rench": 6272,
      "Ġplanktonic": 6273,
      "ahalli": 6274,
      "ahoe": 6275,
      "Ġtransported": 6276,
      "ended": 6277,
      "Ġrefold": 6278,
      "Ġhorst": 6279,
      "Ġwells": 6280,
      "Ġobvious": 6281,
      "Ġscales": 6282,
      "Ġ125": 6283,
      "Ġinfra": 6284,
      "eshwar": 6285,
      "Ġcarbonatites": 6286,
      "ĠRAM": 6287,
      "Ġterrest": 6288,
      "ĠBhavani": 6289,
      "Ġgrades": 6290,
      "rishear": 6291,
      "Ġtension": 6292,
      "ĠAnderson": 6293,
      "Ġcompositional": 6294,
      "Ġtraces": 6295,
      "ICK": 6296,
      "Ġillust": 6297,
      "Ġterrains": 6298,
      "Ġrequire": 6299,
      "Ġmigmatites": 6300,
      "Ġsupercontinent": 6301,
      "Ġbending": 6302,
      "UUUU": 6303,
      "Ġdistinction": 6304,
      "Ġgreywackes": 6305,
      "Ġabsence": 6306,
      "ĠSlate": 6307,
      "Ġsoils": 6308,
      "Ġexposes": 6309,
      "OPADHYAY": 6310,
      "ĠPakhal": 6311,
      "Ġdeltaic": 6312,
      "ĠCharnockites": 6313,
      "Ġcarried": 6314,
      "ithetic": 6315,
      "Ġmorphology": 6316,
      "inopoly": 6317,
      "itudes": 6318,
      "Ġfrequent": 6319,
      "ĠNandgaon": 6320,
      "Ġkomatiites": 6321,
      "Ġlithologies": 6322,
      "Ġswarms": 6323,
      "Ġimbrication": 6324,
      "Ġmagnetite": 6325,
      "ĠPRASAD": 6326,
      "ĠArea": 6327,
      "Ġbeginning": 6328,
      "consolidated": 6329,
      "ĠRamsay": 6330,
      "ĠInstitute": 6331,
      "enestella": 6332,
      "iacaran": 6333,
      "Ġterrestrial": 6334,
      "',": 6335,
      "54": 6336,
      "800": 6337,
      "CHAR": 6338,
      "PC": 6339,
      "SP": 6340,
      "UND": 6341,
      "bearing": 6342,
      "gam": 6343,
      "kh": 6344,
      "mission": 6345,
      "ouring": 6346,
      "uv": 6347,
      "Ġice": 6348,
      "Ġtil": 6349,
      "Ġtranstension": 6350,
      "including": 6351,
      "Ġsound": 6352,
      "Ġore": 6353,
      "Ġorog": 6354,
      "araj": 6355,
      "itari": 6356,
      "Ġfi": 6357,
      "Ġfresh": 6358,
      "Ġfuchsite": 6359,
      "Ġpress": 6360,
      "Ġpeg": 6361,
      "Ġpollen": 6362,
      "Ġwed": 6363,
      "Ġwood": 6364,
      "ĠThar": 6365,
      "Ġlob": 6366,
      "Ġlignite": 6367,
      "Ġtook": 6368,
      "imod": 6369,
      "Ġisland": 6370,
      "ulic": 6371,
      "ĠGE": 6372,
      "ĠIII": 6373,
      "ĠIde": 6374,
      "Ġhot": 6375,
      "ĠBan": 6376,
      "ĠBag": 6377,
      "ĠBrittle": 6378,
      "idual": 6379,
      "ĠData": 6380,
      "ĠRhy": 6381,
      "andra": 6382,
      "ĠNN": 6383,
      "apal": 6384,
      "ĠHere": 6385,
      "ĠHill": 6386,
      "istent": 6387,
      "ipollenites": 6388,
      "Ġseas": 6389,
      "ĠEach": 6390,
      "rater": 6391,
      "abric": 6392,
      "Ġsuites": 6393,
      "ĠJak": 6394,
      "Ġproduction": 6395,
      "Ġdeformational": 6396,
      "ĠInc": 6397,
      "ĠWell": 6398,
      "Ġka": 6399,
      "Ġcompens": 6400,
      "Ġcomputer": 6401,
      "Ġintrac": 6402,
      "Ġflaw": 6403,
      "1975": 6404,
      "cline": 6405,
      "Ġclastic": 6406,
      "Ġ88": 6407,
      "Ġchlor": 6408,
      "Ġsubject": 6409,
      "Ġspat": 6410,
      "Ġslick": 6411,
      "ĠDepart": 6412,
      "ĠDebari": 6413,
      "Ġindet": 6414,
      "Ġdifferently": 6415,
      "obot": 6416,
      "ordant": 6417,
      "amba": 6418,
      "Ġplants": 6419,
      "ART": 6420,
      "idea": 6421,
      "Ġlept": 6422,
      "Ġrecomm": 6423,
      "Ġtransitional": 6424,
      "Ġthickening": 6425,
      "Ġarm": 6426,
      "Ġscient": 6427,
      "ĠPlastic": 6428,
      "ĠShimoga": 6429,
      "Ġtermed": 6430,
      "Ġaccretion": 6431,
      "pecially": 6432,
      "ATE": 6433,
      "ATT": 6434,
      "ĠAlp": 6435,
      "ĠAmong": 6436,
      "ĠSandstones": 6437,
      "ĠBhad": 6438,
      "Ġlocalities": 6439,
      "Ġremoved": 6440,
      "Ġgradually": 6441,
      "yrobl": 6442,
      "Ġ1980": 6443,
      "Ġgeologist": 6444,
      "ĠBarail": 6445,
      "Ġrecords": 6446,
      "Ġglacier": 6447,
      "ĠContractional": 6448,
      "Ġworked": 6449,
      "Ġplotting": 6450,
      "ĠExam": 6451,
      "perture": 6452,
      "Ġimply": 6453,
      "Ġporphyrocl": 6454,
      "ĠAbujhmar": 6455,
      "sequently": 6456,
      "Ġterrace": 6457,
      "Ġanomalies": 6458,
      "Ġelongate": 6459,
      "wwww": 6460,
      "ĠMetamorphism": 6461,
      "Ġequivalents": 6462,
      "Ġlaterally": 6463,
      "Ġtectono": 6464,
      "Ġexpand": 6465,
      "Ġmountains": 6466,
      "ĠEdition": 6467,
      "ĠBelts": 6468,
      "Ġinterference": 6469,
      "ĠCambay": 6470,
      "ĠAlbaka": 6471,
      "Ġstream": 6472,
      "Ġstreams": 6473,
      "Ġbuckling": 6474,
      "ĠMayurbhanj": 6475,
      "ĠKamthi": 6476,
      "Ġcourse": 6477,
      "Ġpyroclastics": 6478,
      "Ġmetasediments": 6479,
      "Ġpyroxenite": 6480,
      "ĠBhargava": 6481,
      "Ġmentioned": 6482,
      "ĠBhilwara": 6483,
      "Ġbehavior": 6484,
      "ĠTrichinopoly": 6485,
      "Ġconfiguration": 6486,
      "ahoehoe": 6487,
      "imodal": 6488,
      "**": 6489,
      "52": 6490,
      "84": 6491,
      "Mod": 6492,
      "Tri": 6493,
      "WAR": 6494,
      "gl": 6495,
      "hpur": 6496,
      "ken": 6497,
      "oar": 6498,
      "oelastic": 6499,
      "she": 6500,
      "surface": 6501,
      "thel": 6502,
      "Â«": 6503,
      "Ġtab": 6504,
      "onn": 6505,
      "Ġown": 6506,
      "Ġtheoretical": 6507,
      "orogenic": 6508,
      "Ġfive": 6509,
      "Ġfans": 6510,
      "asw": 6511,
      "Ġwant": 6512,
      "ĠSR": 6513,
      "ĠSir": 6514,
      "ĠSendra": 6515,
      "Ġgas": 6516,
      "Ġsteady": 6517,
      "Ġegg": 6518,
      "ĠGo": 6519,
      "ĠGad": 6520,
      "ĠMoy": 6521,
      "ĠPot": 6522,
      "ĠPir": 6523,
      "ĠCal": 6524,
      "ĠBGC": 6525,
      "Ġnucle": 6526,
      "ĠFol": 6527,
      "ida": 6528,
      "oti": 6529,
      "ĠRot": 6530,
      "ogl": 6531,
      "ifex": 6532,
      "unge": 6533,
      "ĠKad": 6534,
      "thick": 6535,
      "ĠLat": 6536,
      "ĠLil": 6537,
      "herly": 6538,
      "Ġroll": 6539,
      "ipura": 6540,
      "rative": 6541,
      "iant": 6542,
      "opod": 6543,
      "Ġflank": 6544,
      "ĠThin": 6545,
      "ĠThick": 6546,
      "Ġ1976": 6547,
      "Ġcliff": 6548,
      "ĠStratigraph": 6549,
      "Ġextrus": 6550,
      "Ġ41": 6551,
      "Ġensem": 6552,
      "Ġsoutheastern": 6553,
      "conomic": 6554,
      "Ġparag": 6555,
      "2009": 6556,
      "arby": 6557,
      "Ġtranslation": 6558,
      "Ġcorrect": 6559,
      "ĠQU": 6560,
      "axes": 6561,
      "ropy": 6562,
      "ifications": 6563,
      "derabad": 6564,
      "ĠProt": 6565,
      "Ġvegetation": 6566,
      "Ġdeforms": 6567,
      "ĠAlwar": 6568,
      "Ġconstrained": 6569,
      "Ġtreated": 6570,
      "ĠYoung": 6571,
      "Ġinvestig": 6572,
      "ĠRajah": 6573,
      "Ġenclos": 6574,
      "ĠGranites": 6575,
      "1600": 6576,
      "anner": 6577,
      "ĠPublication": 6578,
      "linear": 6579,
      "Ġlaterite": 6580,
      "Ġlengths": 6581,
      "Ġemerg": 6582,
      "Ġcentre": 6583,
      "Ġsignificantly": 6584,
      "ĠAtl": 6585,
      "TAVA": 6586,
      "Ġprofound": 6587,
      "4444": 6588,
      "Ġpalaeo": 6589,
      "ĠNewer": 6590,
      "ĠBlack": 6591,
      "Ġplutonic": 6592,
      "Ġcontinuously": 6593,
      "Ġoffsets": 6594,
      "meter": 6595,
      "Ġcommun": 6596,
      "Ġadvance": 6597,
      "Ġabundance": 6598,
      "Ġmagnes": 6599,
      "33333333": 6600,
      "ynamics": 6601,
      "Ġbuilding": 6602,
      "ĠÂ©": 6603,
      "rasad": 6604,
      "Ġspreading": 6605,
      "ĠMegal": 6606,
      "Ġnecessary": 6607,
      "Ġchannels": 6608,
      "Ġfractionated": 6609,
      "ĠMurree": 6610,
      "Ġrheology": 6611,
      "Ġâī": 6612,
      "Ġeigenvect": 6613,
      "Ġmoves": 6614,
      "Ġwords": 6615,
      "ĠGeomorphology": 6616,
      "Ġexpected": 6617,
      "deformation": 6618,
      "ĠCrystallines": 6619,
      "dipping": 6620,
      "ĠExtensional": 6621,
      "Ġscheme": 6622,
      "Ġprecipitation": 6623,
      "ĠBhander": 6624,
      "Ġinvertebrate": 6625,
      "Ġprovenance": 6626,
      "ĠSabari": 6627,
      "Ġphyllosilicate": 6628,
      "Ġtrunc": 6629,
      "Ġresponsible": 6630,
      "ĠTirodi": 6631,
      "Ġorogens": 6632,
      "Ġwedges": 6633,
      "oarchaean": 6634,
      "Ġensemble": 6635,
      ",,": 6636,
      "91": 6637,
      "IW": 6638,
      "Kh": 6639,
      "^^": 6640,
      "__": 6641,
      "for": 6642,
      "molite": 6643,
      "nar": 6644,
      "pat": 6645,
      "rations": 6646,
      "tecton": 6647,
      "vent": 6648,
      "zil": 6649,
      "Ġaug": 6650,
      "onite": 6651,
      "reme": 6652,
      "era": 6653,
      "Ġfer": 6654,
      "Ġfiss": 6655,
      "Ġinliers": 6656,
      "Ġped": 6657,
      "Ġpahoehoe": 6658,
      "ĠTerm": 6659,
      "ĠTithonian": 6660,
      "ĠSS": 6661,
      "ĠSst": 6662,
      "elites": 6663,
      "Ġlie": 6664,
      "ulph": 6665,
      "ĠGan": 6666,
      "ĠGap": 6667,
      "ĠPassive": 6668,
      "Ġreor": 6669,
      "Ġnomenclature": 6670,
      "ĠFORM": 6671,
      "util": 6672,
      "chlorite": 6673,
      "ĠRhe": 6674,
      "ĠRid": 6675,
      "stri": 6676,
      "anda": 6677,
      "andin": 6678,
      "aghat": 6679,
      "apalli": 6680,
      "uns": 6681,
      "ĠKan": 6682,
      "ĠKhet": 6683,
      "odic": 6684,
      "odont": 6685,
      "ĠLid": 6686,
      "irine": 6687,
      "ĠEle": 6688,
      "udh": 6689,
      "ĠJain": 6690,
      "Ġcompat": 6691,
      "Ġintens": 6692,
      "ĠVari": 6693,
      "ĠUnd": 6694,
      "clog": 6695,
      "Ġclus": 6696,
      "ĠStates": 6697,
      "Ġoverview": 6698,
      "Ġquar": 6699,
      "Ġable": 6700,
      "Ġabrupt": 6701,
      "Ġimage": 6702,
      "Ġenc": 6703,
      "Ġrip": 6704,
      "Ġlitho": 6705,
      "Ġelse": 6706,
      "Ġcolour": 6707,
      "Ġdevelops": 6708,
      "Ġmarking": 6709,
      "ĠReading": 6710,
      "Ġtremolite": 6711,
      "III": 6712,
      "Ġshortened": 6713,
      "ĠStructures": 6714,
      "Ġsimilarity": 6715,
      "Ġsilic": 6716,
      "Ġlocalized": 6717,
      "Ġrestored": 6718,
      "Ġcontinues": 6719,
      "Ġ1983": 6720,
      "Ġprinciple": 6721,
      "Ġtopics": 6722,
      "Ġtechn": 6723,
      "Ġapply": 6724,
      "Ġanaly": 6725,
      "ĠRamagiri": 6726,
      "ĠÎ½": 6727,
      "Ġchanged": 6728,
      "SSSS": 6729,
      "Ġgeneration": 6730,
      "Ġtextures": 6731,
      "helf": 6732,
      "Ġload": 6733,
      "yanadhan": 6734,
      "Ġsynclines": 6735,
      "Ġmulti": 6736,
      "ĠImplications": 6737,
      "Ġdiscontinuity": 6738,
      "ophyllite": 6739,
      "Ġestimates": 6740,
      "ĠEng": 6741,
      "Ġpasses": 6742,
      "Ġconcentration": 6743,
      "Ġbalanced": 6744,
      "aidyanadhan": 6745,
      "ssssssss": 6746,
      "ĠDolerite": 6747,
      "Ġevidenced": 6748,
      "bbbb": 6749,
      "ĠClassification": 6750,
      "Ġelevated": 6751,
      "Ġmanganiferous": 6752,
      "Ġreservoirs": 6753,
      "sections": 6754,
      "ĠAfrican": 6755,
      "Ġphosphatic": 6756,
      "Ġfibers": 6757,
      "Ġconcepts": 6758,
      "Ġlistric": 6759,
      "Ġsucceeded": 6760,
      "Ġsucceeding": 6761,
      "ĠDamodar": 6762,
      "Ġespecially": 6763,
      "UKH": 6764,
      "hematically": 6765,
      "VASTAVA": 6766,
      "ĠGeochemical": 6767,
      "Ġreefs": 6768,
      "Ġcurvature": 6769,
      "Ġeruption": 6770,
      "Ġglauconitic": 6771,
      "Ġdolomitic": 6772,
      "ĠTitle": 6773,
      "ikkim": 6774,
      "Ġfoothills": 6775,
      "Ġpartitioning": 6776,
      "barao": 6777,
      "ĠJakhar": 6778,
      "ĠDepartment": 6779,
      "Ġrecommended": 6780,
      "theless": 6781,
      "ĠFoliation": 6782,
      "ĠStratigraphie": 6783,
      "400": 6784,
      "Dhar": 6785,
      "DUCT": 6786,
      "Pa": 6787,
      "SG": 6788,
      "SH": 6789,
      "day": 6790,
      "ek": 6791,
      "faces": 6792,
      "hib": 6793,
      "overy": 6794,
      "pani": 6795,
      "tidal": 6796,
      "ues": 6797,
      "inary": 6798,
      "Ġsel": 6799,
      "Ġspe": 6800,
      "aters": 6801,
      "ald": 6802,
      "ena": 6803,
      "isp": 6804,
      "Ġcare": 6805,
      "orotal": 6806,
      "icite": 6807,
      "Ġfull": 6808,
      "Ġfixed": 6809,
      "Ġbivalves": 6810,
      "Ġdense": 6811,
      "Ġmill": 6812,
      "Ġmoved": 6813,
      "Ġmixed": 6814,
      "asional": 6815,
      "olina": 6816,
      "Ġ(?)": 6817,
      "ĠSk": 6818,
      "ĠSr": 6819,
      "ĠSw": 6820,
      "ĠSyl": 6821,
      "ĠSuture": 6822,
      "eli": 6823,
      "Ġlent": 6824,
      "Ġthrow": 6825,
      "ormally": 6826,
      "ĠMM": 6827,
      "ĠMor": 6828,
      "ĠMorph": 6829,
      "ĠMisc": 6830,
      "eta": 6831,
      "eties": 6832,
      "ĠPat": 6833,
      "ĠPure": 6834,
      "ĠPresent": 6835,
      "ĠPach": 6836,
      "ĠPrim": 6837,
      "ĠIV": 6838,
      "Ġrev": 6839,
      "Ġreached": 6840,
      "ĠFAD": 6841,
      "ĠFenestella": 6842,
      "veys": 6843,
      "ayed": 6844,
      "stratigraphic": 6845,
      "andi": 6846,
      "ĠNDFB": 6847,
      "apithecus": 6848,
      "thy": 6849,
      "odhpur": 6850,
      "undum": 6851,
      "ĠHos": 6852,
      "ĠEll": 6853,
      "Ġdefining": 6854,
      "Ġsufficient": 6855,
      "Ġprox": 6856,
      "ĠWNW": 6857,
      "opyroxene": 6858,
      "Ġintensity": 6859,
      "emic": 6860,
      "ĠMac": 6861,
      "wari": 6862,
      "lla": 6863,
      "Ġneeds": 6864,
      "Ġunique": 6865,
      "ĠStrat": 6866,
      "Ġ76": 6867,
      "rysts": 6868,
      "Ġconsolidated": 6869,
      "Ġmeg": 6870,
      "Ġinterface": 6871,
      "Ġrim": 6872,
      "Ġsubmarine": 6873,
      "Ġsphere": 6874,
      "Ġsyenites": 6875,
      "Ġsymmetry": 6876,
      "Ġ900": 6877,
      "ritarch": 6878,
      "Ġampl": 6879,
      "ometry": 6880,
      "ĠAny": 6881,
      "Ġthicker": 6882,
      "Ġarrows": 6883,
      "Ġarrange": 6884,
      "veloped": 6885,
      "Ġnorthwestern": 6886,
      "Ġincom": 6887,
      "ptions": 6888,
      "Ġaccess": 6889,
      "3300": 6890,
      "ails": 6891,
      "Ġconstitu": 6892,
      "Ġdiscrete": 6893,
      "Ġdiscovered": 6894,
      "Ġelliptic": 6895,
      "rictional": 6896,
      "ĠSandur": 6897,
      "Ġsilty": 6898,
      "Ġsuccessive": 6899,
      "ĠSequ": 6900,
      "Ġremn": 6901,
      "Ġshaped": 6902,
      "Ġgrading": 6903,
      "amps": 6904,
      "Ġ1986": 6905,
      "ĠAsy": 6906,
      "ĠSciences": 6907,
      "ĠLineations": 6908,
      "Ġchapters": 6909,
      "RODUCT": 6910,
      "Ġattention": 6911,
      "Ġtends": 6912,
      "Ġlooking": 6913,
      "Ġlithospheric": 6914,
      "value": 6915,
      "Ġporphyrobl": 6916,
      "Ġcommenced": 6917,
      "Ġreveals": 6918,
      "GGGG": 6919,
      "ĠDisplacement": 6920,
      "apuri": 6921,
      "88888888": 6922,
      "Ġoverlapping": 6923,
      "IIIIIIII": 6924,
      "Ġgeochemical": 6925,
      "ĠDistribution": 6926,
      "Ġvisualised": 6927,
      "eeeeeeeeeeee": 6928,
      "Ġirregularities": 6929,
      "eeling": 6930,
      "Ġdinosaurs": 6931,
      "ĠPunjab": 6932,
      "Ġkbar": 6933,
      "ĠMalla": 6934,
      "Ġmoving": 6935,
      "Ġlago": 6936,
      "Ġneighboring": 6937,
      "Ġsubdiv": 6938,
      "Ġstylolites": 6939,
      "Ġconstraints": 6940,
      "Ġpalynofossils": 6941,
      "ĠHyderabad": 6942,
      "Ġcooling": 6943,
      "domains": 6944,
      "Ġrainfall": 6945,
      "ĠTrace": 6946,
      "Ġhypot": 6947,
      "ĠChennai": 6948,
      "Ġforaminiferal": 6949,
      "ĠCISZ": 6950,
      "Ġportrayed": 6951,
      "mundry": 6952,
      "ĠONGC": 6953,
      "ĠINTRODUCT": 6954,
      "selves": 6955,
      "Ġleptyn": 6956,
      "ĠLidder": 6957,
      "ĠINTRODUCTION": 6958,
      "93": 6959,
      "97": 6960,
      "Cretaceous": 6961,
      "HT": 6962,
      "LAN": 6963,
      "MS": 6964,
      "Ram": 6965,
      "VAN": 6966,
      "ks": 6967,
      "kyanite": 6968,
      "pted": 6969,
      "vand": 6970,
      "vast": 6971,
      "Ïķ": 6972,
      "ĹĪ": 6973,
      "inj": 6974,
      "nding": 6975,
      "Ġce": 6976,
      "Ġbryozo": 6977,
      "rov": 6978,
      "Ġpy": 6979,
      "Ġdry": 6980,
      "Ġmac": 6981,
      "Ġmoll": 6982,
      "Ġwack": 6983,
      "Ġwarm": 6984,
      "ĠTak": 6985,
      "ĠSant": 6986,
      "ĠSHAR": 6987,
      "Ġtool": 6988,
      "ĠGRO": 6989,
      "ĠPa": 6990,
      "ĠPin": 6991,
      "ĠPor": 6992,
      "ĠPseud": 6993,
      "ĠPrasad": 6994,
      "ĠAptian": 6995,
      "Ġrework": 6996,
      "ĠBol": 6997,
      "amopteris": 6998,
      "ĠFr": 6999,
      "rif": 7000,
      "ayana": 7001,
      "Ġvill": 7002,
      "Ġvergence": 7003,
      "ĠDas": 7004,
      "otic": 7005,
      "otrun": 7006,
      "stant": 7007,
      "stratigraphy": 7008,
      "static": 7009,
      "agsh": 7010,
      "ĠNever": 7011,
      "ĠKumar": 7012,
      "ranes": 7013,
      "Ġexhib": 7014,
      "ĠLay": 7015,
      "unda": 7016,
      "ously": 7017,
      "Ġcomes": 7018,
      "Ġplates": 7019,
      "Ġzero": 7020,
      "ĠJh": 7021,
      "ĠJodhpur": 7022,
      "Ġ3300": 7023,
      "avala": 7024,
      "ians": 7025,
      "ĠWCZ": 7026,
      "opted": 7027,
      "aryya": 7028,
      "emn": 7029,
      "ĠOuter": 7030,
      "ĠVa": 7031,
      "ĠVal": 7032,
      "ĠVaidyanadhan": 7033,
      "1976": 7034,
      "acite": 7035,
      "issing": 7036,
      "erences": 7037,
      "Ġ190": 7038,
      "ĠUpl": 7039,
      "clined": 7040,
      "izing": 7041,
      "Ġunl": 7042,
      "Ġunknown": 7043,
      "ĠSteg": 7044,
      "Ġnote": 7045,
      "retching": 7046,
      "Ġring": 7047,
      "Ġsporad": 7048,
      "Ġmode": 7049,
      "insula": 7050,
      "ĠDeep": 7051,
      "forming": 7052,
      "Ġpara": 7053,
      "athi": 7054,
      "Ġunderg": 7055,
      "Ġ2008": 7056,
      "ĠBasal": 7057,
      "Ġelect": 7058,
      "rinted": 7059,
      "ĠRef": 7060,
      "Ġactinolite": 7061,
      "ĠAltern": 7062,
      "ĠDharm": 7063,
      "IST": 7064,
      "Ġstriations": 7065,
      "Ġschistose": 7066,
      "walior": 7067,
      "ĠYork": 7068,
      "Ġangles": 7069,
      "pective": 7070,
      "1500": 7071,
      "Ġnumbers": 7072,
      "ovian": 7073,
      "Ġ1982": 7074,
      "ENK": 7075,
      "ĠÎ¼": 7076,
      "ammer": 7077,
      "Ġfelspar": 7078,
      "Ġconsiderations": 7079,
      "ĠPalyn": 7080,
      "2800": 7081,
      "Ġdecades": 7082,
      "Ġ402": 7083,
      "ĠOld": 7084,
      "egated": 7085,
      "Ġ289": 7086,
      "Ġboudinaged": 7087,
      "Ġpositions": 7088,
      "Ġmedian": 7089,
      "ĠMainland": 7090,
      "Ġbreaks": 7091,
      "Ġprimitive": 7092,
      "NNF": 7093,
      "Ġcreated": 7094,
      "Ġporphy": 7095,
      "Ġgabbros": 7096,
      "Ġcompressive": 7097,
      "Ġflexure": 7098,
      "Ġdivisible": 7099,
      "ĠModel": 7100,
      "Ġerosional": 7101,
      "Ġalternations": 7102,
      "Ġdistinguished": 7103,
      "Ġpreferent": 7104,
      "Ġantithetic": 7105,
      "AID": 7106,
      "Ġelevation": 7107,
      "ĠGeneralised": 7108,
      "Ġjointing": 7109,
      "Ġimagery": 7110,
      "swell": 7111,
      "Ġspinel": 7112,
      "ĠâĹĪ": 7113,
      "orado": 7114,
      "Ġanisotropy": 7115,
      "Ġswarm": 7116,
      "Ġlaminated": 7117,
      "ĠLocally": 7118,
      "ĠSoil": 7119,
      "Ġproducts": 7120,
      "Ġalgae": 7121,
      "ĠLaksh": 7122,
      "Ġsummar": 7123,
      "Ġostracodes": 7124,
      "Ġcohesive": 7125,
      "Ġgritty": 7126,
      "ĠDaitari": 7127,
      "arjeeling": 7128,
      "arenite": 7129,
      "Ġlamprophy": 7130,
      "Ġsketch": 7131,
      "ocolate": 7132,
      "ĠGravity": 7133,
      "ĠUltramafic": 7134,
      "Ġtaxa": 7135,
      "Ġepidote": 7136,
      "ĠHutti": 7137,
      "Ġpressures": 7138,
      "ĠMoyar": 7139,
      "ĠLilang": 7140,
      "ĠFORMATION": 7141,
      "ĠRidge": 7142,
      "ĠKhetri": 7143,
      "ĠSylhet": 7144,
      "vandrum": 7145,
      "vastava": 7146,
      "ĠNevertheless": 7147,
      "550": 7148,
      "AB": 7149,
      "De": 7150,
      "HM": 7151,
      "IR": 7152,
      "KB": 7153,
      "Mg": 7154,
      "NI": 7155,
      "PUR": 7156,
      "Series": 7157,
      "be": 7158,
      "bach": 7159,
      "berg": 7160,
      "book": 7161,
      "ked": 7162,
      "long": 7163,
      "normal": 7164,
      "qvi": 7165,
      "rist": 7166,
      "sang": 7167,
      "va": 7168,
      "wana": 7169,
      "yur": 7170,
      "Ġaut": 7171,
      "rep": 7172,
      "Ġsaid": 7173,
      "itch": 7174,
      "ishes": 7175,
      "Ġca": 7176,
      "Ġcall": 7177,
      "Ġfit": 7178,
      "Ġbottom": 7179,
      "rock": 7180,
      "rook": 7181,
      "Ġperal": 7182,
      "Ġpinch": 7183,
      "Ġdens": 7184,
      "Ġmelt": 7185,
      "ask": 7186,
      "asar": 7187,
      "asian": 7188,
      "rai": 7189,
      "ĠTapti": 7190,
      "ĠSa": 7191,
      "ĠSol": 7192,
      "ĠSAR": 7193,
      "ĠSaha": 7194,
      "Ġloss": 7195,
      "left": 7196,
      "Ġgro": 7197,
      "Ġgets": 7198,
      "Ġgrabens": 7199,
      "Ġthink": 7200,
      "Ġechin": 7201,
      "ĠPr": 7202,
      "ĠPost": 7203,
      "ĠIll": 7204,
      "ĠCL": 7205,
      "ĠCPO": 7206,
      "ĠAA": 7207,
      "ĠAri": 7208,
      "Ġrece": 7209,
      "ĠBB": 7210,
      "ĠBon": 7211,
      "ĠFels": 7212,
      "Ġdealing": 7213,
      "Ġvar": 7214,
      "ĠDisc": 7215,
      "ĠRamb": 7216,
      "staurolite": 7217,
      "Ġalone": 7218,
      "ĠKank": 7219,
      "ĠKRISHN": 7220,
      "ranular": 7221,
      "uminous": 7222,
      "ĠLines": 7223,
      "ĠHar": 7224,
      "ĠHard": 7225,
      "Ġseism": 7226,
      "mentary": 7227,
      "uda": 7228,
      "Ġcontour": 7229,
      "ialic": 7230,
      "ĠJoh": 7231,
      "ivation": 7232,
      "Ġproport": 7233,
      "avada": 7234,
      "ĠWa": 7235,
      "harbari": 7236,
      "ĠVenk": 7237,
      "Ġcores": 7238,
      "Ġcoup": 7239,
      "clus": 7240,
      "Ġclinop": 7241,
      "ondal": 7242,
      "Ġrespond": 7243,
      "ĠStromat": 7244,
      "Ġdiat": 7245,
      "isms": 7246,
      "Ġ55": 7247,
      "Ġoccasional": 7248,
      "hyd": 7249,
      "wegian": 7250,
      "ermor": 7251,
      "Ġinteraction": 7252,
      "ĠDevelop": 7253,
      "formal": 7254,
      "ewan": 7255,
      "eeper": 7256,
      "Ġ2007": 7257,
      "ĠZewan": 7258,
      "Ġarid": 7259,
      "Ġarch": 7260,
      "Ġadopted": 7261,
      "rinpura": 7262,
      "Ġ120": 7263,
      "ĠShales": 7264,
      "Ġacts": 7265,
      "Ġallochthonous": 7266,
      "Ġmagmas": 7267,
      "ailed": 7268,
      "Ġfluvi": 7269,
      "Ġstriking": 7270,
      "Ġdoub": 7271,
      "Ġheat": 7272,
      "Ġhead": 7273,
      "ographical": 7274,
      "2010": 7275,
      "Ġsimilarities": 7276,
      "Ġcorrelate": 7277,
      "Ġ179": 7278,
      "Ġsynthetic": 7279,
      "ĠSpirifer": 7280,
      "awan": 7281,
      "Ġexplan": 7282,
      "Ġexplore": 7283,
      "ĠPeninsula": 7284,
      "ENS": 7285,
      "ĠTrivandrum": 7286,
      "Ġtraced": 7287,
      "Ġ302": 7288,
      "Ġchanging": 7289,
      "ukh": 7290,
      "Ġglaciation": 7291,
      "ĠLithostratigraphic": 7292,
      "Ġreflection": 7293,
      "ADHAN": 7294,
      "ĠEvidence": 7295,
      "ĠOnly": 7296,
      "ANDRA": 7297,
      "ĠLinear": 7298,
      "Ġdownward": 7299,
      "maline": 7300,
      "Ġrelationships": 7301,
      "ancy": 7302,
      "umbent": 7303,
      "Ġinitially": 7304,
      "Ġnaturally": 7305,
      "Ġrecrystallized": 7306,
      "ĠBrazil": 7307,
      "structures": 7308,
      "Ġpopulation": 7309,
      "Ġstarted": 7310,
      "Ġreactivated": 7311,
      "odonts": 7312,
      "ifying": 7313,
      "ĠNaras": 7314,
      "ĠNorwegian": 7315,
      "KRISHNA": 7316,
      "Ġexpressions": 7317,
      "ĠSarkar": 7318,
      "Ġconnecting": 7319,
      "Ġwindow": 7320,
      "ĠBHAT": 7321,
      "Ġdecreases": 7322,
      "Ġdebris": 7323,
      "ĠGlobotrun": 7324,
      "Ġradiometric": 7325,
      "Ġmassifs": 7326,
      "Ġlithologic": 7327,
      "Ġbuckle": 7328,
      "ĠJharkhand": 7329,
      "ĠAngular": 7330,
      "Ġexperienced": 7331,
      "ĠColorado": 7332,
      "ĠBASIN": 7333,
      "ĠFracture": 7334,
      "Ġepisode": 7335,
      "Ġallows": 7336,
      "ranged": 7337,
      "Ġunderlain": 7338,
      "ĠCanada": 7339,
      "Ġhappens": 7340,
      "ĠProgressive": 7341,
      "ĠNumerous": 7342,
      "NSF": 7343,
      "rupted": 7344,
      "Ġchalleng": 7345,
      "skinned": 7346,
      "Ġpolarity": 7347,
      "ĠBoudinage": 7348,
      "ĠHeron": 7349,
      "Ġillustrates": 7350,
      "ĠRajahmundry": 7351,
      "Ġelsewhere": 7352,
      "ĠSHARMA": 7353,
      "agshai": 7354,
      "Ġpreferentially": 7355,
      "')": 7356,
      "Aravalli": 7357,
      "BH": 7358,
      "BIF": 7359,
      "Box": 7360,
      "Cauvery": 7361,
      "DHA": 7362,
      "ED": 7363,
      "KK": 7364,
      "Miocene": 7365,
      "Ne": 7366,
      "OD": 7367,
      "Re": 7368,
      "Raj": 7369,
      "SON": 7370,
      "bra": 7371,
      "ij": 7372,
      "mass": 7373,
      "mont": 7374,
      "mitt": 7375,
      "no": 7376,
      "pid": 7377,
      "pop": 7378,
      "sand": 7379,
      "spect": 7380,
      "wing": 7381,
      "zum": 7382,
      "ÃŃ": 7383,
      "Ġtable": 7384,
      "Ġach": 7385,
      "Ġaperture": 7386,
      "Ġsal": 7387,
      "Ġsus": 7388,
      "Ġsite": 7389,
      "Ġsay": 7390,
      "Ġsnow": 7391,
      "Ġoval": 7392,
      "erc": 7393,
      "itely": 7394,
      "esterly": 7395,
      "anorthosite": 7396,
      "Ġcame": 7397,
      "Ġchevron": 7398,
      "org": 7399,
      "Ġfast": 7400,
      "Ġbimodal": 7401,
      "Ġpie": 7402,
      "Ġdid": 7403,
      "Ġday": 7404,
      "Ġdate": 7405,
      "Ġduration": 7406,
      "Ġdynamic": 7407,
      "Ġmb": 7408,
      "asse": 7409,
      "olute": 7410,
      "ĠSIN": 7411,
      "Ġlaid": 7412,
      "urfaces": 7413,
      "Ġtour": 7414,
      "Ġgr": 7415,
      "ully": 7416,
      "ulac": 7417,
      "Ġthinn": 7418,
      "Ġstrict": 7419,
      "Ġsteeper": 7420,
      "ĠGV": 7421,
      "ĠGulf": 7422,
      "ĠMus": 7423,
      "ĠMig": 7424,
      "ĠMak": 7425,
      "ĠMUR": 7426,
      "ĠPort": 7427,
      "ĠPrak": 7428,
      "osic": 7429,
      "osition": 7430,
      "Ġ110": 7431,
      "ĠCons": 7432,
      "ĠCatacl": 7433,
      "ĠAcc": 7434,
      "ĠAfter": 7435,
      "Ġreach": 7436,
      "ĠBre": 7437,
      "ĠBur": 7438,
      "ĠBerg": 7439,
      "ĠBull": 7440,
      "amell": 7441,
      "amphib": 7442,
      "ĠFermor": 7443,
      "Ġconven": 7444,
      "Ġdemon": 7445,
      "ĠDD": 7446,
      "ĠDo": 7447,
      "ĠDuctile": 7448,
      "ĠDongar": 7449,
      "otaxial": 7450,
      "ĠRav": 7451,
      "apart": 7452,
      "ĠKm": 7453,
      "adia": 7454,
      "adicus": 7455,
      "Ġ237": 7456,
      "Ġexceed": 7457,
      "ĠLing": 7458,
      "ĠLip": 7459,
      "ĠHes": 7460,
      "Ġshad": 7461,
      "Ġseal": 7462,
      "Ġsemi": 7463,
      "Ġdefines": 7464,
      "Ġdefects": 7465,
      "Ġonto": 7466,
      "Ġplastically": 7467,
      "ĠIndex": 7468,
      "Ġzon": 7469,
      "iala": 7470,
      "ĠJav": 7471,
      "illi": 7472,
      "antic": 7473,
      "Ġinteg": 7474,
      "ĠMax": 7475,
      "1977": 7476,
      "acular": 7477,
      "nee": 7478,
      "neg": 7479,
      "ĠUp": 7480,
      "ĠUmar": 7481,
      "Ġresidual": 7482,
      "ĠStretching": 7483,
      "Ġextract": 7484,
      "Ġgeophysical": 7485,
      "Ġquick": 7486,
      "Ġmete": 7487,
      "thermal": 7488,
      "Ġinterl": 7489,
      "Ġsuba": 7490,
      "Ġsubseismic": 7491,
      "Ġeng": 7492,
      "Ġenrich": 7493,
      "Ġsurveys": 7494,
      "Ġquartzof": 7495,
      "ĠDeob": 7496,
      "Ġindex": 7497,
      "Ġtwinning": 7498,
      "Ġplanation": 7499,
      "1100": 7500,
      "Ġapart": 7501,
      "argil": 7502,
      "lomeratic": 7503,
      "ishing": 7504,
      "ĠProduct": 7505,
      "Ġincor": 7506,
      "Ġincomp": 7507,
      "ĠXX": 7508,
      "Ġ113": 7509,
      "airagarh": 7510,
      "shank": 7511,
      "Ġbox": 7512,
      "Ġ154": 7513,
      "ERJEE": 7514,
      "Ġschistosity": 7515,
      "ĠRaju": 7516,
      "rystalline": 7517,
      "ĠBhopal": 7518,
      "Ġblue": 7519,
      "ĠGneisses": 7520,
      "Ġlongitudinal": 7521,
      "Ġremov": 7522,
      "Ġunconformable": 7523,
      "Ġevolutionary": 7524,
      "ampalli": 7525,
      "vironment": 7526,
      "ENE": 7527,
      "ĠKarim": 7528,
      "ĠKarharbari": 7529,
      "Ġthemselves": 7530,
      "Ġanalog": 7531,
      "ĠÎ³": 7532,
      "amination": 7533,
      "ĠPermo": 7534,
      "Ġcycl": 7535,
      "Ġgeologically": 7536,
      "Ġnamadicus": 7537,
      "ĠQuartzites": 7538,
      "ĠFolding": 7539,
      "ypris": 7540,
      "Ġwider": 7541,
      "Ġproduces": 7542,
      "Ġorthopyroxene": 7543,
      "ĠKhasi": 7544,
      "Ġyields": 7545,
      "ĠGangamopteris": 7546,
      "Ġ284": 7547,
      "ĠMinor": 7548,
      "Ġrecognition": 7549,
      "Ġrecognized": 7550,
      "trappeans": 7551,
      "Ġhomotaxial": 7552,
      "ombay": 7553,
      "Ġgoes": 7554,
      "Ġgoing": 7555,
      "OLOG": 7556,
      "developed": 7557,
      "ĠMode": 7558,
      "Ġcommences": 7559,
      "Ġportions": 7560,
      "Ġdeltas": 7561,
      "Ġconcern": 7562,
      "ĠDisloc": 7563,
      "----": 7564,
      "ĠKota": 7565,
      "Ġfoliated": 7566,
      "Ġconcentric": 7567,
      "Ġantiform": 7568,
      "YANADHAN": 7569,
      "Ġdriven": 7570,
      "Ġlaws": 7571,
      "ĠAlbian": 7572,
      "eelan": 7573,
      "ĠJharol": 7574,
      "Ġexperience": 7575,
      "hematical": 7576,
      "folder": 7577,
      "Ġfamous": 7578,
      "Ġsplit": 7579,
      "oooooooooooo": 7580,
      "ĠMahadevan": 7581,
      "ĠActive": 7582,
      "Ġintervening": 7583,
      "igerina": 7584,
      "green": 7585,
      "Ġmoderate": 7586,
      "Ġcontemporaneous": 7587,
      "Ġmutual": 7588,
      "Ġplugs": 7589,
      "Ġpurposes": 7590,
      "ĠTipam": 7591,
      "Ġchromite": 7592,
      "Ġtrondhjemite": 7593,
      "ĠTikoff": 7594,
      "Ġmetapelites": 7595,
      "Module": 7596,
      "Ġeigenvectors": 7597,
      "Ġripple": 7598,
      "Ġtechnically": 7599,
      "Ġanalyz": 7600,
      "ĠDharmapuri": 7601,
      "ĠJohn": 7602,
      "ĠSINHA": 7603,
      "Ġdemonst": 7604,
      "Ġenrichment": 7605,
      "<<": 7606,
      "DW": 7607,
      "EM": 7608,
      "Eocene": 7609,
      "FF": 7610,
      "ILE": 7611,
      "Nicobar": 7612,
      "Pen": 7613,
      "St": 7614,
      "Sub": 7615,
      "bore": 7616,
      "cm": 7617,
      "current": 7618,
      "fossil": 7619,
      "faks": 7620,
      "fabric": 7621,
      "iqu": 7622,
      "iated": 7623,
      "ience": 7624,
      "jee": 7625,
      "kant": 7626,
      "miss": 7627,
      "tr": 7628,
      "Ġ{": 7629,
      "Ġtalc": 7630,
      "Ġahead": 7631,
      "Ġsulph": 7632,
      "atoric": 7633,
      "erites": 7634,
      "arayana": 7635,
      "aniv": 7636,
      "isional": 7637,
      "Ġcul": 7638,
      "Ġcub": 7639,
      "Ġcylind": 7640,
      "Ġcylindrical": 7641,
      "Ġfully": 7642,
      "Ġpoles": 7643,
      "Ġpseud": 7644,
      "Ġdimensional": 7645,
      "Ġmo": 7646,
      "Ġmember": 7647,
      "raj": 7648,
      "ĠTa": 7649,
      "Ġ(=": 7650,
      "Ġ(~": 7651,
      "ĠSP": 7652,
      "ĠSer": 7653,
      "ĠSel": 7654,
      "ĠSect": 7655,
      "ĠSamb": 7656,
      "ĠSrin": 7657,
      "Ġly": 7658,
      "Ġtools": 7659,
      "Ġthings": 7660,
      "Ġstabil": 7661,
      "oming": 7662,
      "ĠGov": 7663,
      "ĠGull": 7664,
      "ĠGwalior": 7665,
      "ĠMul": 7666,
      "ĠMUKH": 7667,
      "ĠTher": 7668,
      "osen": 7669,
      "ĠIts": 7670,
      "ĠCr": 7671,
      "ĠAj": 7672,
      "Ġredd": 7673,
      "ĠBAN": 7674,
      "ĠBhatt": 7675,
      "ĠBatholith": 7676,
      "amus": 7677,
      "ille": 7678,
      "ĠFore": 7679,
      "utonic": 7680,
      "Ġasce": 7681,
      "ocurrent": 7682,
      "ĠDom": 7683,
      "ĠDelt": 7684,
      "othy": 7685,
      "ĠRew": 7686,
      "sthene": 7687,
      "phase": 7688,
      "andam": 7689,
      "agaon": 7690,
      "ifically": 7691,
      "ecten": 7692,
      "ĠNappe": 7693,
      "apatnam": 7694,
      "Ġ260": 7695,
      "Ġexists": 7696,
      "ĠLank": 7697,
      "ĠHREE": 7698,
      "Ġshif": 7699,
      "Ġanate": 7700,
      "aini": 7701,
      "cccc": 7702,
      "Ġplots": 7703,
      "Ġplunge": 7704,
      "Ġcontribution": 7705,
      "Ġ31": 7706,
      "Ġ32": 7707,
      "Ġ37": 7708,
      "Ġ345": 7709,
      "Ġprospect": 7710,
      "avai": 7711,
      "Ġkey": 7712,
      "persthene": 7713,
      "Ġflo": 7714,
      "Ġbasinal": 7715,
      "ĠVar": 7716,
      "ĠVENK": 7717,
      "hered": 7718,
      "Ġnever": 7719,
      "Ġ193": 7720,
      "Ġresearch": 7721,
      "Ġextrem": 7722,
      "Ġreliable": 7723,
      "Ġchosen": 7724,
      "Ġimpos": 7725,
      "Ġrising": 7726,
      "Ġsubhorizontal": 7727,
      "Ġsubsequent": 7728,
      "ANN": 7729,
      "Ġslaty": 7730,
      "cana": 7731,
      "Ġindust": 7732,
      "achments": 7733,
      "Ġtwins": 7734,
      "reek": 7735,
      "Ġyour": 7736,
      "Ġindica": 7737,
      "Ġrefraction": 7738,
      "Ġcorundum": 7739,
      "enganga": 7740,
      "Ġarranged": 7741,
      "rowth": 7742,
      "ropod": 7743,
      "Ġbecame": 7744,
      "Ġoutlier": 7745,
      "lexural": 7746,
      "Ġmechanically": 7747,
      "Ġincurs": 7748,
      "Ġ181": 7749,
      "Ġ117": 7750,
      "Ġ1100": 7751,
      "Ġacritarch": 7752,
      "ĠAmpani": 7753,
      "Ġ160": 7754,
      "ISS": 7755,
      "1985": 7756,
      "ASS": 7757,
      "ĠScandin": 7758,
      "ĠCommon": 7759,
      "Ġellipses": 7760,
      "Ġoverlaps": 7761,
      "Ġparallelism": 7762,
      "Ġvertebrates": 7763,
      "Ġsilicate": 7764,
      "RAP": 7765,
      "Ġ141": 7766,
      "Ġexplos": 7767,
      "Ġtrachy": 7768,
      "ullavai": 7769,
      "Ġclassical": 7770,
      "Ġclassifications": 7771,
      "Ġstretch": 7772,
      "ustration": 7773,
      "ofacies": 7774,
      "ĠSimplified": 7775,
      "ĠAlluvial": 7776,
      "ĠContact": 7777,
      "ĠMahabal": 7778,
      "orthosites": 7779,
      "continental": 7780,
      "Ġbuoy": 7781,
      "ĠKali": 7782,
      "Ġmonz": 7783,
      "Ġdetails": 7784,
      "ĠCycl": 7785,
      "Ġsurrounded": 7786,
      "Ġmigmatite": 7787,
      "Ġsuperb": 7788,
      "DDDD": 7789,
      "ĠRecently": 7790,
      "Ġdistinctive": 7791,
      "Ġanticl": 7792,
      "Ġpropagating": 7793,
      "akhapatnam": 7794,
      "Ġdenote": 7795,
      "Ġstromatolites": 7796,
      "ĠPhyll": 7797,
      "Ġreduce": 7798,
      "Ġswat": 7799,
      "ĠEdiacaran": 7800,
      "nnnnnnnn": 7801,
      "ĠMoine": 7802,
      "Ġexistence": 7803,
      "zzzz": 7804,
      "Ġinverted": 7805,
      "Ġeigenvalues": 7806,
      "Ġconcealed": 7807,
      "Ġepisodes": 7808,
      "Ġaccommodate": 7809,
      "Ġremaining": 7810,
      "ĠSemri": 7811,
      "Ġsensing": 7812,
      "Ġcopper": 7813,
      "ENDRA": 7814,
      "Ġpoorly": 7815,
      "ĠGHOSH": 7816,
      "Ġorthoquartzite": 7817,
      "ĠKuling": 7818,
      "ĠMeasures": 7819,
      "ymn": 7820,
      "Ġextrusion": 7821,
      "Dharwar": 7822,
      "Ġlenticular": 7823,
      "ĠAsymmetric": 7824,
      "Ġhypothesis": 7825,
      "Ġporphyry": 7826,
      "AIDYANADHAN": 7827,
      "rookshank": 7828,
      "ĠIllustration": 7829,
      "ondalites": 7830,
      "ĠKarimnagar": 7831,
      "eelanandam": 7832,
      "ĠGullfaks": 7833,
      "ĠRewa": 7834,
      "ĠLanka": 7835,
      "ĠScandinav": 7836,
      "95": 7837,
      "EG": 7838,
      "Equ": 7839,
      "Kinnaur": 7840,
      "Mad": 7841,
      "OID": 7842,
      "ST": 7843,
      "WSW": 7844,
      "Zn": 7845,
      "cylindrical": 7846,
      "graben": 7847,
      "iog": 7848,
      "km": 7849,
      "kinematic": 7850,
      "lim": 7851,
      "lastic": 7852,
      "mid": 7853,
      "trans": 7854,
      "uven": 7855,
      "Ġur": 7856,
      "Ġens": 7857,
      "Ġ),": 7858,
      "Ġtit": 7859,
      "Ġtap": 7860,
      "Ġtribut": 7861,
      "Ġtropical": 7862,
      "Ġaa": 7863,
      "inor": 7864,
      "inations": 7865,
      "oni": 7866,
      "reas": 7867,
      "Ġsap": 7868,
      "Ġsix": 7869,
      "ats": 7870,
      "Ġopt": 7871,
      "eria": 7872,
      "anford": 7873,
      "Ġcrater": 7874,
      "Ġbones": 7875,
      "Ġbring": 7876,
      "Ġmili": 7877,
      "asam": 7878,
      "ĠShe": 7879,
      "elet": 7880,
      "Ġiss": 7881,
      "Ġisostatic": 7882,
      "Ġstone": 7883,
      "Ġeclog": 7884,
      "ĠGand": 7885,
      "ĠGOP": 7886,
      "iguous": 7887,
      "ĠPe": 7888,
      "ĠParb": 7889,
      "ĠPenganga": 7890,
      "ĠIran": 7891,
      "Ġhold": 7892,
      "ĠCent": 7893,
      "ĠChem": 7894,
      "ĠAR": 7895,
      "ĠAd": 7896,
      "ĠBir": 7897,
      "ĠBack": 7898,
      "ĠFA": 7899,
      "utral": 7900,
      "ider": 7901,
      "idam": 7902,
      "Ġconver": 7903,
      "chron": 7904,
      "ĠDinosaur": 7905,
      "ĠDagshai": 7906,
      "ĠRo": 7907,
      "ĠRang": 7908,
      "ĠRied": 7909,
      "stress": 7910,
      "Ġalter": 7911,
      "ifers": 7912,
      "ĠNumm": 7913,
      "une": 7914,
      "ĠKall": 7915,
      "ĠKargil": 7916,
      "allu": 7917,
      "Ġord": 7918,
      "adhy": 7919,
      "Ġexact": 7920,
      "ĠLife": 7921,
      "ĠHI": 7922,
      "Ġshaly": 7923,
      "herla": 7924,
      "Ġrod": 7925,
      "Ġanimal": 7926,
      "ipada": 7927,
      "ĠErinpura": 7928,
      "Ġplum": 7929,
      "ialo": 7930,
      "ĠJoint": 7931,
      "ĠJohar": 7932,
      "Ġ36": 7933,
      "Ġfloral": 7934,
      "ĠVe": 7935,
      "ĠVISW": 7936,
      "ĠUSA": 7937,
      "Ġunconsolidated": 7938,
      "Ġ715": 7939,
      "Ġ82": 7940,
      "Ġmeant": 7941,
      "Ġdisposition": 7942,
      "ibli": 7943,
      "ibasa": 7944,
      "Ġsubparallel": 7945,
      "Ġspring": 7946,
      "oba": 7947,
      "aji": 7948,
      "imalai": 7949,
      "Ġyellow": 7950,
      "eee": 7951,
      "Ġ106": 7952,
      "Ġtransect": 7953,
      "ĠAnal": 7954,
      "Ġarri": 7955,
      "ansion": 7956,
      "ansiri": 7957,
      "Ġstratigraphie": 7958,
      "Ġoutside": 7959,
      "Ġvarieties": 7960,
      "Ġaccomp": 7961,
      "Ġ112": 7962,
      "1980": 7963,
      "Ġsupported": 7964,
      "Ġgeneralised": 7965,
      "ductile": 7966,
      "ĠCompar": 7967,
      "Ġdetached": 7968,
      "aurus": 7969,
      "Ġinclined": 7970,
      "Ġinclusion": 7971,
      "elspathic": 7972,
      "Ġterrane": 7973,
      "Ġnortherly": 7974,
      "Ġmicrofossils": 7975,
      "atta": 7976,
      "Ġsystematic": 7977,
      "Ġ147": 7978,
      "ovil": 7979,
      "anna": 7980,
      "ĠUniaxial": 7981,
      "ringothy": 7982,
      "ieve": 7983,
      "Ġ1985": 7984,
      "Ġequations": 7985,
      "Ġratios": 7986,
      "Ġcompositions": 7987,
      "tych": 7988,
      "Ġamphibole": 7989,
      "Ġspecifically": 7990,
      "ĠFolded": 7991,
      "Ġreflectors": 7992,
      "Ġpromot": 7993,
      "Ġconsidering": 7994,
      "ĠKhairagarh": 7995,
      "ĠExpl": 7996,
      "Ġcherty": 7997,
      "Ġmylonit": 7998,
      "Ġ609": 7999,
      "Ġessential": 8000,
      "ĠPetrol": 8001,
      "ĠPetrology": 8002,
      "Ġcontrasts": 8003,
      "Ġcomprise": 8004,
      "Ġregardless": 8005,
      "Ġprimarily": 8006,
      "OSE": 8007,
      "Ġgouge": 8008,
      "Ġsurroundings": 8009,
      "NNNN": 8010,
      "Ġcreates": 8011,
      "Ġpetrology": 8012,
      "iformes": 8013,
      "Ġcompressional": 8014,
      "yrite": 8015,
      "Ġrhyolites": 8016,
      "Ġhydrostatic": 8017,
      "ĠModified": 8018,
      "Ġanticlines": 8019,
      "Ġsoftening": 8020,
      "ĠSedimentation": 8021,
      "Ġconcordant": 8022,
      "MMMM": 8023,
      "Ġalternating": 8024,
      "Ġalternative": 8025,
      "granite": 8026,
      "Ġdetermine": 8027,
      "Ġreturn": 8028,
      "Ġconcentrations": 8029,
      "fauna": 8030,
      "ĠSHALE": 8031,
      "ARAYAN": 8032,
      "ĠRegion": 8033,
      "Ġbiostratigraphy": 8034,
      "Ġcolumnar": 8035,
      "Ġapophysis": 8036,
      "Ġfrontal": 8037,
      "Ġhelps": 8038,
      "ĠTechn": 8039,
      "Ġdeviations": 8040,
      "ĠMountain": 8041,
      "Ġophiolites": 8042,
      "uuuu": 8043,
      "asauli": 8044,
      "Ġconformably": 8045,
      "Ġheterogene": 8046,
      "Ġdecrease": 8047,
      "Ġrheological": 8048,
      "Ġmicroscopic": 8049,
      "ĠCalcareous": 8050,
      "Ġspinifex": 8051,
      "mmmmmmmm": 8052,
      "Ġreasonable": 8053,
      "Ġsynthesis": 8054,
      "Ġlagoon": 8055,
      "Ġfamil": 8056,
      "Ġunderlies": 8057,
      "Ġdenoted": 8058,
      "Ġimpressions": 8059,
      "Ġleucogranite": 8060,
      "ĠExperiments": 8061,
      "RATIG": 8062,
      "ĠTibetan": 8063,
      "ĠVertical": 8064,
      "olcanics": 8065,
      "ĠSupracrustals": 8066,
      "ĠWarangal": 8067,
      "ĠVisakhapatnam": 8068,
      "ĠSharma": 8069,
      "ĠOngole": 8070,
      "Ġcataclasis": 8071,
      "Ġdigital": 8072,
      "ĠForaminifera": 8073,
      "Ġbulk": 8074,
      "Ġchoice": 8075,
      "Ġporphyroclasts": 8076,
      "ĠRheology": 8077,
      "Ġcompatibility": 8078,
      "Ġcluster": 8079,
      "orotalia": 8080,
      "Ġlagoonal": 8081,
      "Ġmacro": 8082,
      "Ġvillage": 8083,
      "Ġthinner": 8084,
      "Ġincorpor": 8085,
      "anivilas": 8086,
      "ĠMahabaleshwar": 8087,
      "ibliography": 8088,
      "ringothyris": 8089,
      "150": 8090,
      "BS": 8091,
      "Baner": 8092,
      "Formation": 8093,
      "Gondw": 8094,
      "IP": 8095,
      "IV": 8096,
      "KRA": 8097,
      "Mal": 8098,
      "Por": 8099,
      "Zanskar": 8100,
      "bound": 8101,
      "cri": 8102,
      "cence": 8103,
      "crust": 8104,
      "domin": 8105,
      "high": 8106,
      "lat": 8107,
      "lig": 8108,
      "lest": 8109,
      "mobar": 8110,
      "nch": 8111,
      "pa": 8112,
      "po": 8113,
      "pite": 8114,
      "patnam": 8115,
      "ser": 8116,
      "wic": 8117,
      "Ã¸": 8118,
      "Ġtim": 8119,
      "Ġtry": 8120,
      "Ġtrough": 8121,
      "int": 8122,
      "reth": 8123,
      "Ġsolid": 8124,
      "Ġsizes": 8125,
      "alach": 8126,
      "alkaline": 8127,
      "eromagnetic": 8128,
      "arine": 8129,
      "enlines": 8130,
      "Ġcrin": 8131,
      "Ġfm": 8132,
      "Ġbord": 8133,
      "Ġpert": 8134,
      "Ġpack": 8135,
      "Ġpair": 8136,
      "Ġpitch": 8137,
      "Ġdest": 8138,
      "Ġdism": 8139,
      "Ġmuscovite": 8140,
      "Ġmissing": 8141,
      "asc": 8142,
      "Ġwrit": 8143,
      "raw": 8144,
      "Ġ('": 8145,
      "ĠSikkim": 8146,
      "ĠSNSF": 8147,
      "enth": 8148,
      "urren": 8149,
      "ulia": 8150,
      "oma": 8151,
      "ĠGu": 8152,
      "ĠGaj": 8153,
      "ĠGreek": 8154,
      "ĠMid": 8155,
      "ĠPol": 8156,
      "ĠPark": 8157,
      "ĠCord": 8158,
      "ĠCumb": 8159,
      "ĠAL": 8160,
      "ĠAgg": 8161,
      "Ġread": 8162,
      "Ġreclined": 8163,
      "ĠBai": 8164,
      "Ġnormally": 8165,
      "cephal": 8166,
      "ĠFF": 8167,
      "ĠFlexural": 8168,
      "utt": 8169,
      "Ġconsequence": 8170,
      "Ġdemar": 8171,
      "ocarp": 8172,
      "ocrysts": 8173,
      "ĠDic": 8174,
      "ĠDarjeeling": 8175,
      "ĠRob": 8176,
      "ĠKinematic": 8177,
      "ĠLA": 8178,
      "ĠLis": 8179,
      "ĠHud": 8180,
      "iac": 8181,
      "Ġround": 8182,
      "Ġrough": 8183,
      "ĠEm": 8184,
      "Ġsudd": 8185,
      "akot": 8186,
      "ĠJack": 8187,
      "aved": 8188,
      "iana": 8189,
      "ĠWai": 8190,
      "perm": 8191,
      "Ġintroduced": 8192,
      "ricts": 8193,
      "ĠOb": 8194,
      "ĠVAIDYANADHAN": 8195,
      "1974": 8196,
      "soor": 8197,
      "posite": 8198,
      "class": 8199,
      "Ġdivers": 8200,
      "Ġdiffer": 8201,
      "ularia": 8202,
      "Ġqual": 8203,
      "Ġupon": 8204,
      "Ġ87": 8205,
      "ĠChak": 8206,
      "Ġmetres": 8207,
      "hyadri": 8208,
      "Ġchocolate": 8209,
      "Ġdispers": 8210,
      "Ġinterior": 8211,
      "Ġrupt": 8212,
      "ANAT": 8213,
      "Ġweight": 8214,
      "Ġspots": 8215,
      "Ġsphene": 8216,
      "Ġmodelling": 8217,
      "matites": 8218,
      "ockets": 8219,
      "eez": 8220,
      "Ġrecumbent": 8221,
      "Ġindicus": 8222,
      "rograph": 8223,
      "ysis": 8224,
      "lomerates": 8225,
      "Ġthereby": 8226,
      "Ġwellbore": 8227,
      "ĠZe": 8228,
      "ĠZones": 8229,
      "Â°.": 8230,
      "Ġscarp": 8231,
      "ĠPlant": 8232,
      "Ġ127": 8233,
      "ĠShali": 8234,
      "Ġ116": 8235,
      "Ġ137": 8236,
      "Ġ155": 8237,
      "ASZ": 8238,
      "ĠCommission": 8239,
      "ONIC": 8240,
      "ĠRADHA": 8241,
      "Ġterranes": 8242,
      "Ġhistories": 8243,
      "Ġ1700": 8244,
      "Ġclaystone": 8245,
      "Ġsystemat": 8246,
      "Ġsuggestive": 8247,
      "awa": 8248,
      "ĠAndreas": 8249,
      "ĠChapters": 8250,
      "Ġ1984": 8251,
      "Ġcollisional": 8252,
      "Ġphyllitic": 8253,
      "porous": 8254,
      "Ġfeed": 8255,
      "ĠÎ»": 8256,
      "Ġlaterites": 8257,
      "Ġenderb": 8258,
      "Ġproducing": 8259,
      "ĠKhamb": 8260,
      "ĠKhammam": 8261,
      "cover": 8262,
      "ĠAssoc": 8263,
      "Ġ602": 8264,
      "Ġeasier": 8265,
      "illimeter": 8266,
      "ĠRaialo": 8267,
      "ĠBlaini": 8268,
      "Ġinstead": 8269,
      "TTTT": 8270,
      "helon": 8271,
      "Ġimplying": 8272,
      "ameter": 8273,
      "Ġmedia": 8274,
      "Ġinitiation": 8275,
      "Ġbroken": 8276,
      "Ġ290": 8277,
      "Ġobliqu": 8278,
      "osphinctes": 8279,
      "ĠAbout": 8280,
      "Ġorthogneisses": 8281,
      "ĠPhosph": 8282,
      "ĠFlora": 8283,
      "Ġvisible": 8284,
      "ĠEquus": 8285,
      "Ġelongated": 8286,
      "ĠPhysical": 8287,
      "ĠNarayan": 8288,
      "ĠChilka": 8289,
      "OCENE": 8290,
      "HHHH": 8291,
      "Ġammonites": 8292,
      "22222222": 8293,
      "ĠIsolated": 8294,
      "ĠInstead": 8295,
      "Ġjointed": 8296,
      "Ġbraided": 8297,
      "Ġphosphorite": 8298,
      "minarayana": 8299,
      "yyyy": 8300,
      "((((": 8301,
      "ĠKaim": 8302,
      "Ġspectacular": 8303,
      "ĠMallampalli": 8304,
      "Ġoverpressured": 8305,
      "ĠSUBB": 8306,
      "Ġaccommodated": 8307,
      "hhhhhhhh": 8308,
      "Ġduplexes": 8309,
      "Ġsubdivided": 8310,
      "foliation": 8311,
      "Ġconstruction": 8312,
      "Ġhuman": 8313,
      "ĠGreenstone": 8314,
      "Ġpenetrative": 8315,
      "Ġhundreds": 8316,
      "layered": 8317,
      "Ġtells": 8318,
      "Ġpaper": 8319,
      "Ġtrilobite": 8320,
      "ĠLunavada": 8321,
      "Ġandesite": 8322,
      "ĠUmia": 8323,
      "onkan": 8324,
      "metamorphosed": 8325,
      "Ġunstable": 8326,
      "Ġcentimeter": 8327,
      "ĠLepid": 8328,
      "Ġdepleted": 8329,
      "Ġperiphery": 8330,
      "Ġpredicted": 8331,
      "ĠChaibasa": 8332,
      "Ġrefolded": 8333,
      "ĠIdeally": 8334,
      "obotan": 8335,
      "ARTZ": 8336,
      "ĠExamples": 8337,
      "Triassic": 8338,
      "ĠQUARTZ": 8339,
      "Ġellipticity": 8340,
      "Ġporphyroblasts": 8341,
      "ĠVaik": 8342,
      "ĠBonai": 8343,
      "ĠVenkat": 8344,
      "ĠDevelopment": 8345,
      "Ġconvenient": 8346,
      "ĠUmaria": 8347,
      "Ġengine": 8348,
      "Ġprospects": 8349,
      "Equation": 8350,
      "ĠParbat": 8351,
      "ĠRiedel": 8352,
      "adhyay": 8353,
      "leston": 8354,
      "Ġdemarc": 8355,
      "ĠHudleston": 8356,
      "Ġsudden": 8357,
      "ĠRADHAKRISHNA": 8358,
      "850": 8359,
      "An": 8360,
      "DER": 8361,
      "Pal": 8362,
      "Palae": 8363,
      "Ra": 8364,
      "Sil": 8365,
      "Th": 8366,
      "aver": 8367,
      "bu": 8368,
      "ca": 8369,
      "calc": 8370,
      "crack": 8371,
      "dev": 8372,
      "efficient": 8373,
      "ias": 8374,
      "ious": 8375,
      "ki": 8376,
      "log": 8377,
      "nsis": 8378,
      "ror": 8379,
      "sim": 8380,
      "top": 8381,
      "well": 8382,
      "Ġtang": 8383,
      "Ġtrishear": 8384,
      "inue": 8385,
      "atist": 8386,
      "Ġores": 8387,
      "ndom": 8388,
      "alpur": 8389,
      "erge": 8390,
      "itor": 8391,
      "esma": 8392,
      "anur": 8393,
      "ancies": 8394,
      "Ġbrack": 8395,
      "Ġbiota": 8396,
      "ione": 8397,
      "rod": 8398,
      "rous": 8399,
      "Ġpoin": 8400,
      "Ġparent": 8401,
      "Ġpockets": 8402,
      "Ġduct": 8403,
      "Ġdrop": 8404,
      "Ġmanner": 8405,
      "Ġwave": 8406,
      "olasse": 8407,
      "rand": 8408,
      "ĠTre": 8409,
      "ĠTab": 8410,
      "Ġ((": 8411,
      "ĠSC": 8412,
      "ĠShy": 8413,
      "ĠSitt": 8414,
      "ĠSANT": 8415,
      "ĠSNNF": 8416,
      "ĠSullavai": 8417,
      "urbed": 8418,
      "lee": 8419,
      "Ġgap": 8420,
      "Ġgently": 8421,
      "ĠGar": 8422,
      "ĠGold": 8423,
      "ĠMy": 8424,
      "ĠMund": 8425,
      "ĠMik": 8426,
      "ĠMassive": 8427,
      "ĠMPa": 8428,
      "ĠPad": 8429,
      "ĠPorph": 8430,
      "ĠPoint": 8431,
      "Ġhack": 8432,
      "ĠAN": 8433,
      "ĠAch": 8434,
      "ĠAdd": 8435,
      "ĠBombay": 8436,
      "ĠBibliography": 8437,
      "ĠFan": 8438,
      "cha": 8439,
      "Ġdealt": 8440,
      "ocom": 8441,
      "ocambrian": 8442,
      "ĠDras": 8443,
      "ĠDaon": 8444,
      "ste": 8445,
      "phirine": 8446,
      "ĠNot": 8447,
      "ĠNear": 8448,
      "ĠNanga": 8449,
      "uni": 8450,
      "ĠKale": 8451,
      "ĠKals": 8452,
      "ĠKHAN": 8453,
      "oded": 8454,
      "add": 8455,
      "Ġ223": 8456,
      "Ġexceeds": 8457,
      "ĠLo": 8458,
      "ĠLong": 8459,
      "ĠLang": 8460,
      "ĠLAD": 8461,
      "ĠHa": 8462,
      "ĠHan": 8463,
      "ĠHub": 8464,
      "herry": 8465,
      "ouse": 8466,
      "Ġonset": 8467,
      "akona": 8468,
      "Ġcontinue": 8469,
      "ivas": 8470,
      "Ġproper": 8471,
      "avur": 8472,
      "avara": 8473,
      "ĠGeod": 8474,
      "ĠWal": 8475,
      "Ġgranular": 8476,
      "ĠOphi": 8477,
      "ĠVOL": 8478,
      "ĠVanivilas": 8479,
      "angl": 8480,
      "acial": 8481,
      "acancies": 8482,
      "neath": 8483,
      "Ġcoars": 8484,
      "Ġneutral": 8485,
      "ĠThal": 8486,
      "ĠThird": 8487,
      "Ġunless": 8488,
      "Ġdiameter": 8489,
      "Ġ450": 8490,
      "ights": 8491,
      "Ġ625": 8492,
      "Ġ713": 8493,
      "Ġ550": 8494,
      "Ġ850": 8495,
      "Ġ823": 8496,
      "ĠChin": 8497,
      "ĠCham": 8498,
      "ĠChik": 8499,
      "Ġintermitt": 8500,
      "Ġimper": 8501,
      "Ġsubduct": 8502,
      "ANA": 8503,
      "Ġspores": 8504,
      "Ġslices": 8505,
      "ubai": 8506,
      "Ġsandwic": 8507,
      "Ġ97": 8508,
      "Ġotherwise": 8509,
      "Ġ104": 8510,
      "Ġ105": 8511,
      "Ġrecovered": 8512,
      "Ġtransverse": 8513,
      "Ġunderneath": 8514,
      "Ġhorses": 8515,
      "Ġ2009": 8516,
      "ĠQF": 8517,
      "Ġbounding": 8518,
      "ĠPlains": 8519,
      "Ġcoloured": 8520,
      "Ġmicas": 8521,
      "Ġassociations": 8522,
      "ĠShiv": 8523,
      "ĠXY": 8524,
      "uchi": 8525,
      "ISA": 8526,
      "inuous": 8527,
      "ĠArk": 8528,
      "AST": 8529,
      "INI": 8530,
      "Ġgiving": 8531,
      "Ġangios": 8532,
      "Ġmathematical": 8533,
      "ĠSubbarao": 8534,
      "Ġdipmeter": 8535,
      "Ġpreserve": 8536,
      "ĠPalaeolithic": 8537,
      "ĠGranitoids": 8538,
      "Ġ145": 8539,
      "Ġintrusives": 8540,
      "Ġrestrict": 8541,
      "ĠUnion": 8542,
      "Ġestu": 8543,
      "Ġgreenstones": 8544,
      "hala": 8545,
      "ĠRamakona": 8546,
      "ĠÎ²": 8547,
      "Ġrandom": 8548,
      "ankar": 8549,
      "ydesma": 8550,
      "Ġactivated": 8551,
      "TACHAR": 8552,
      "ĠMetabas": 8553,
      "omorphs": 8554,
      "AMI": 8555,
      "regation": 8556,
      "ĠNagpur": 8557,
      "Ġtextbook": 8558,
      "Chadwick": 8559,
      "Ġelasticity": 8560,
      "Ġcontrasting": 8561,
      "yanmar": 8562,
      "Ġsiltstones": 8563,
      "Ġtuffaceous": 8564,
      "oredeep": 8565,
      "fracturing": 8566,
      "ĠSyringothyris": 8567,
      "Ġsuperposed": 8568,
      "Ġpublication": 8569,
      "Ġpublications": 8570,
      "Ġidea": 8571,
      "ĠDisconformity": 8572,
      "ĠRanchi": 8573,
      "Ġpeninsular": 8574,
      "Ġpencil": 8575,
      "Ġdenud": 8576,
      "Ġbalance": 8577,
      "ĠMagnetic": 8578,
      "ĠSlip": 8579,
      "atna": 8580,
      "Ġreduces": 8581,
      "Ġexpansion": 8582,
      "Ġgeomorphological": 8583,
      "embered": 8584,
      "ĠdÃ©collements": 8585,
      "Ġinterfaces": 8586,
      "Ġapproximate": 8587,
      "Ġfavor": 8588,
      "66666666": 8589,
      "Ġbarite": 8590,
      "Ġlimitations": 8591,
      "ĠPlanet": 8592,
      "Ġcementation": 8593,
      "iiiiiiiiiiii": 8594,
      "ĠPunagarh": 8595,
      "Ġarkosic": 8596,
      "unnel": 8597,
      "LLLLLLLL": 8598,
      "ĠDesert": 8599,
      "Ġlisted": 8600,
      "ĠFractures": 8601,
      "dddddddd": 8602,
      "ĠCrystalline": 8603,
      "ĠLaterite": 8604,
      "ĠGhosh": 8605,
      "ĠPrevious": 8606,
      "Ġconstructed": 8607,
      "ĠSGT": 8608,
      "Ġshells": 8609,
      "ĠREDD": 8610,
      "Ġdrilling": 8611,
      "ĠSindreth": 8612,
      "Ġcohesion": 8613,
      "ĠMOHAN": 8614,
      "ĠGlacial": 8615,
      "atangi": 8616,
      "Ġpicritic": 8617,
      "Ġcrushed": 8618,
      "ĠTECT": 8619,
      "Ġisograd": 8620,
      "Ġisogons": 8621,
      "Ġphotograph": 8622,
      "ĠIntrusions": 8623,
      "ĠBiswas": 8624,
      "ĠLonar": 8625,
      "Ġsqueez": 8626,
      "Ġphenomen": 8627,
      "Ġturbidites": 8628,
      "ĠSRIVASTAVA": 8629,
      "ĠCallovian": 8630,
      "Ġconvergence": 8631,
      "ĠRestoration": 8632,
      "Ġtentative": 8633,
      "ĠKatrol": 8634,
      "Ġprograms": 8635,
      "Ġsubstantial": 8636,
      "ariba": 8637,
      "Ġfundamental": 8638,
      "Ġstandard": 8639,
      "Ġechelon": 8640,
      "ĠFourth": 8641,
      "ĠKondagaon": 8642,
      "ĠInfra": 8643,
      "Â«Â«": 8644,
      "deformational": 8645,
      "ĠMorphology": 8646,
      "Ġarrangement": 8647,
      "Ġwacke": 8648,
      "ĠGROUP": 8649,
      "ĠFrontal": 8650,
      "Ġexhibit": 8651,
      "ĠUplift": 8652,
      "ĠStegodon": 8653,
      "ĠFelsic": 8654,
      "Ġclinopyroxene": 8655,
      "ĠBHATTACHAR": 8656,
      "ĠGlobotruncana": 8657,
      "Recent": 8658,
      "ĠAccording": 8659,
      "ĠLipak": 8660,
      "Ġquartzofelspathic": 8661,
      "ĠBhopalpatnam": 8662,
      "kantia": 8663,
      "ĠDomain": 8664,
      "Ġswathes": 8665,
      "Ġoptical": 8666,
      "ĠAnalysis": 8667,
      "Gondwana": 8668,
      "ĠCumbum": 8669,
      "ĠJackson": 8670,
      "soorie": 8671,
      "ĠSittamp": 8672,
      "ĠDaonella": 8673,
      "ĠKalsubai": 8674,
      "%)": 8675,
      "120": 8676,
      "92": 8677,
      "AV": 8678,
      "ETT": 8679,
      "GER": 8680,
      "JI": 8681,
      "KER": 8682,
      "Mes": 8683,
      "Pale": 8684,
      "RY": 8685,
      "Section": 8686,
      "WARI": 8687,
      "bis": 8688,
      "cor": 8689,
      "cratonic": 8690,
      "den": 8691,
      "ean": 8692,
      "fj": 8693,
      "filled": 8694,
      "ged": 8695,
      "graph": 8696,
      "hab": 8697,
      "konda": 8698,
      "lic": 8699,
      "law": 8700,
      "muscovite": 8701,
      "pot": 8702,
      "pping": 8703,
      "sch": 8704,
      "south": 8705,
      "ux": 8706,
      "ware": 8707,
      "xite": 8708,
      "zone": 8709,
      "Ã¶": 8710,
      "Ġaerial": 8711,
      "reat": 8712,
      "Ġsummary": 8713,
      "Ġoolitic": 8714,
      "itated": 8715,
      "ania": 8716,
      "anadi": 8717,
      "isra": 8718,
      "isite": 8719,
      "ispora": 8720,
      "Ġbis": 8721,
      "Ġinland": 8722,
      "Ġpene": 8723,
      "Ġmight": 8724,
      "aser": 8725,
      "ĠSom": 8726,
      "Ġlost": 8727,
      "ulata": 8728,
      "Ġstem": 8729,
      "Ġstones": 8730,
      "rests": 8731,
      "rested": 8732,
      "ĠGG": 8733,
      "ĠGul": 8734,
      "ĠGod": 8735,
      "ĠGarnet": 8736,
      "ĠGabbro": 8737,
      "ĠMarb": 8738,
      "ĠMCT": 8739,
      "ĠMili": 8740,
      "etent": 8741,
      "etric": 8742,
      "ĠPL": 8743,
      "ĠPP": 8744,
      "ĠPond": 8745,
      "ĠPressure": 8746,
      "ĠPRE": 8747,
      "osts": 8748,
      "osely": 8749,
      "ĠIS": 8750,
      "Ġhook": 8751,
      "ĠCON": 8752,
      "ĠChert": 8753,
      "ĠCrookshank": 8754,
      "ĠBat": 8755,
      "ĠBEL": 8756,
      "ĠBru": 8757,
      "ĠBISW": 8758,
      "ilm": 8759,
      "ocont": 8760,
      "Ġves": 8761,
      "Ġvacancies": 8762,
      "ĠRod": 8763,
      "ifest": 8764,
      "ĠNd": 8765,
      "ĠNug": 8766,
      "ĠNAG": 8767,
      "ĠNini": 8768,
      "ĠKA": 8769,
      "ĠKing": 8770,
      "ĠKail": 8771,
      "ĠKinnaur": 8772,
      "ĠKasauli": 8773,
      "Ġ222": 8774,
      "Ġexcell": 8775,
      "ĠLL": 8776,
      "ĠLst": 8777,
      "ĠLand": 8778,
      "ĠList": 8779,
      "ĠHyd": 8780,
      "ĠHaz": 8781,
      "Ġanorthosites": 8782,
      "rating": 8783,
      "abar": 8784,
      "Ġcomplications": 8785,
      "ĠJal": 8786,
      "ĠJam": 8787,
      "Ġ360": 8788,
      "plank": 8789,
      "ĠGeometric": 8790,
      "opahar": 8791,
      "opadhyay": 8792,
      "Ġcomple": 8793,
      "ĠVAL": 8794,
      "ĠVAS": 8795,
      "ĠVinj": 8796,
      "1971": 8797,
      "Ġformula": 8798,
      "Ġ1960": 8799,
      "Ġ1970": 8800,
      "Ġ1979": 8801,
      "ĠStand": 8802,
      "Ġ436": 8803,
      "ighat": 8804,
      "Ġ641": 8805,
      "Ġgeographic": 8806,
      "iley": 8807,
      "active": 8808,
      "Ġ51": 8809,
      "Ġ560": 8810,
      "Ġabut": 8811,
      "Ġabound": 8812,
      "Ġabandon": 8813,
      "Ġevol": 8814,
      "Ġimmedi": 8815,
      "Ġrig": 8816,
      "elder": 8817,
      "ikere": 8818,
      "ordance": 8819,
      "athpur": 8820,
      "inda": 8821,
      "Ġ107": 8822,
      "ĠZr": 8823,
      "ĠAnorthosite": 8824,
      "Ġarg": 8825,
      "Â°,": 8826,
      "rapur": 8827,
      "Ġcold": 8828,
      "Ġmicrog": 8829,
      "Ġvariegated": 8830,
      "Ġtermination": 8831,
      "Ġsoon": 8832,
      "ATUS": 8833,
      "Ġlowest": 8834,
      "333": 8835,
      "Ġ167": 8836,
      "ĠArc": 8837,
      "ĠComposite": 8838,
      "Ġdetachments": 8839,
      "ĠSurma": 8840,
      "Ġlocality": 8841,
      "Ġsyntectonic": 8842,
      "Ġrestraining": 8843,
      "ĠTherefore": 8844,
      "pretation": 8845,
      "Ġgrows": 8846,
      "Ġexplains": 8847,
      "ĠNeosp": 8848,
      "Ġconfus": 8849,
      "Ġgreenish": 8850,
      "Ġdolerites": 8851,
      "rabas": 8852,
      "ĠÎĶ": 8853,
      "Ġvariously": 8854,
      "Ġxx": 8855,
      "udda": 8856,
      "ĠResources": 8857,
      "Ġlatest": 8858,
      "Ġfelspathic": 8859,
      "anjkhand": 8860,
      "Ġclosed": 8861,
      "ANDAM": 8862,
      "Ġ258": 8863,
      "Ġuplifts": 8864,
      "ĠSonrai": 8865,
      "Ġpalaeontological": 8866,
      "ĠBlanford": 8867,
      "ĠNaga": 8868,
      "Ġ2600": 8869,
      "Ġ804": 8870,
      "Ġshelly": 8871,
      "ariably": 8872,
      "ĠConstant": 8873,
      "HARA": 8874,
      "ĠMalanjkhand": 8875,
      "Ġburrows": 8876,
      "Ġeventually": 8877,
      "Ġlooked": 8878,
      "Ġhomin": 8879,
      "tala": 8880,
      "ĠMoho": 8881,
      "âĢĿ.": 8882,
      "Ġ241": 8883,
      "Ġcreating": 8884,
      "wacke": 8885,
      "Ġpelite": 8886,
      "Ġcompetence": 8887,
      "ĠTamar": 8888,
      "ĠSchmid": 8889,
      "CHANDRA": 8890,
      "Ġcuts": 8891,
      "ĠEncl": 8892,
      "granular": 8893,
      "PPPP": 8894,
      "Ġtriangle": 8895,
      "Ġoppositely": 8896,
      "Ġstarting": 8897,
      "Ġ581": 8898,
      "ĠDirect": 8899,
      "Ġexposures": 8900,
      "oec": 8901,
      "ĠManend": 8902,
      "Ġdissected": 8903,
      "Ġgeomorphology": 8904,
      "Ġskelet": 8905,
      "Ġbehind": 8906,
      "))))": 8907,
      "Ġplaty": 8908,
      "folds": 8909,
      "Ġammonoids": 8910,
      "Ġclimb": 8911,
      "Ġidealized": 8912,
      "wanath": 8913,
      "Ġfiber": 8914,
      "Ġlamination": 8915,
      "ĠPurple": 8916,
      "estiges": 8917,
      "Ġdeline": 8918,
      "ĠDetailed": 8919,
      "ĠJagat": 8920,
      "ĠJagann": 8921,
      "ĠNaqvi": 8922,
      "ĠUsing": 8923,
      "Ġalgal": 8924,
      "Ġmammals": 8925,
      "ĠBerach": 8926,
      "Ġreconstruction": 8927,
      "Ġapparently": 8928,
      "ĠExperimental": 8929,
      "Ġintervals": 8930,
      "aggregation": 8931,
      "anthophyllite": 8932,
      "Ġcrushing": 8933,
      "Ġapplication": 8934,
      "Ġapplicable": 8935,
      "Ġgeochronology": 8936,
      "Ġgeochronological": 8937,
      "ĠSupracrustal": 8938,
      "ĠTypical": 8939,
      "ĠLonavala": 8940,
      "Ġsimultaneously": 8941,
      "Ġkhondalites": 8942,
      "Ġincremental": 8943,
      "ĠPhoto": 8944,
      "Ġoverprinting": 8945,
      "Ġsubgrains": 8946,
      "Ġperidotite": 8947,
      "Ġcontroversial": 8948,
      "Himalaya": 8949,
      "yalur": 8950,
      "ĠNorthern": 8951,
      "Ġcumulative": 8952,
      "ĠEurydesma": 8953,
      "Ġresemble": 8954,
      "Ġmesosc": 8955,
      "ĠAppalach": 8956,
      "Ġcompensated": 8957,
      "Ġtabular": 8958,
      "otiya": 8959,
      "Ġparagneisses": 8960,
      "Ġemerges": 8961,
      "Ġfissures": 8962,
      "Ġmillion": 8963,
      "Ġbryozoans": 8964,
      "Ġmollusc": 8965,
      "ĠTakche": 8966,
      "Ġundergone": 8967,
      "Ġelectron": 8968,
      "sangpo": 8969,
      "ĠAriyalur": 8970,
      "Ġtourmaline": 8971,
      "ĠMussoorie": 8972,
      "amellib": 8973,
      "ĠProductus": 8974,
      "Ġremoval": 8975,
      "ĠDislocation": 8976,
      "Peninsular": 8977,
      "Ġlying": 8978,
      "ĠMulug": 8979,
      "Ġreddish": 8980,
      "Ġextremely": 8981,
      "Ġacritarchs": 8982,
      "ĠScandinavian": 8983,
      "ĠVISWANAT": 8984,
      "Ġaccompan": 8985,
      "Ġdismembered": 8986,
      "ĠKaimur": 8987,
      "ĠTECTONIC": 8988,
      "ĠSittampundi": 8989,
      "ĠPondic": 8990,
      "ĠNiniyur": 8991,
      "Ġimmediately": 8992,
      ")-": 8993,
      "87": 8994,
      "89": 8995,
      "98": 8996,
      "AK": 8997,
      "CAN": 8998,
      "Cambrian": 8999,
      "Dariba": 9000,
      "EV": 9001,
      "EY": 9002,
      "Ge": 9003,
      "GSI": 9004,
      "HUR": 9005,
      "Jurassic": 9006,
      "Katangi": 9007,
      "OK": 9008,
      "Pliocene": 9009,
      "Sh": 9010,
      "Sp": 9011,
      "The": 9012,
      "Tir": 9013,
      "THY": 9014,
      "UG": 9015,
      "YYA": 9016,
      "best": 9017,
      "back": 9018,
      "dis": 9019,
      "dol": 9020,
      "dist": 9021,
      "ferred": 9022,
      "gal": 9023,
      "homb": 9024,
      "kb": 9025,
      "kovil": 9026,
      "lap": 9027,
      "length": 9028,
      "mig": 9029,
      "mobile": 9030,
      "ooth": 9031,
      "tur": 9032,
      "turn": 9033,
      "uated": 9034,
      "vas": 9035,
      "wide": 9036,
      "xis": 9037,
      "Î¸": 9038,
      "Ġher": 9039,
      "Ġten": 9040,
      "Ġtempor": 9041,
      "Ġtonalite": 9042,
      "inian": 9043,
      "rees": 9044,
      "Ġsink": 9045,
      "atur": 9046,
      "Ġoo": 9047,
      "algam": 9048,
      "erts": 9049,
      "arji": 9050,
      "enar": 9051,
      "encies": 9052,
      "itness": 9053,
      "Ġcasts": 9054,
      "Ġfinally": 9055,
      "Ġbranch": 9056,
      "roph": 9057,
      "Ġpu": 9058,
      "Ġpul": 9059,
      "Ġmy": 9060,
      "Ġmaking": 9061,
      "Ġmillimeter": 9062,
      "Ġwaters": 9063,
      "Ġwitness": 9064,
      "raulic": 9065,
      "ĠTH": 9066,
      "ĠTat": 9067,
      "ĠTad": 9068,
      "ĠTandon": 9069,
      "Ġ(<": 9070,
      "ĠSet": 9071,
      "ĠSON": 9072,
      "ĠShelf": 9073,
      "Ġlet": 9074,
      "Ġgave": 9075,
      "Ġthinned": 9076,
      "oms": 9077,
      "omph": 9078,
      "omanian": 9079,
      "ĠGrowth": 9080,
      "ĠMATH": 9081,
      "ete": 9082,
      "eters": 9083,
      "ĠPull": 9084,
      "ĠPillow": 9085,
      "osol": 9086,
      "Ġhole": 9087,
      "Ġhosts": 9088,
      "ĠChe": 9089,
      "ĠCar": 9090,
      "ĠCyp": 9091,
      "ĠChel": 9092,
      "ĠAv": 9093,
      "ĠAchan": 9094,
      "ĠAulac": 9095,
      "Ġreaches": 9096,
      "ĠBL": 9097,
      "ĠBom": 9098,
      "ĠBuck": 9099,
      "Ġnorite": 9100,
      "amed": 9101,
      "amangal": 9102,
      "ĠFine": 9103,
      "ĠFossils": 9104,
      "chier": 9105,
      "ĠDome": 9106,
      "ĠRann": 9107,
      "stre": 9108,
      "ĠNi": 9109,
      "ĠNow": 9110,
      "ĠNod": 9111,
      "ĠKap": 9112,
      "vertical": 9113,
      "odacite": 9114,
      "Ġ224": 9115,
      "Ġ240": 9116,
      "ĠLEE": 9117,
      "ĠLuck": 9118,
      "ĠHans": 9119,
      "Ġroad": 9120,
      "ipe": 9121,
      "Ġsem": 9122,
      "ĠEros": 9123,
      "ratic": 9124,
      "Ġsheath": 9125,
      "uctu": 9126,
      "Ġplay": 9127,
      "Ġforward": 9128,
      "akk": 9129,
      "Ġ350": 9130,
      "Ġ3100": 9131,
      "ĠGeochron": 9132,
      "harpur": 9133,
      "opside": 9134,
      "ante": 9135,
      "ĠOO": 9136,
      "ĠOf": 9137,
      "ĠOt": 9138,
      "ĠVisc": 9139,
      "ĠMaj": 9140,
      "1967": 9141,
      "Ġcohere": 9142,
      "Ġunmetamorphosed": 9143,
      "Ġ429": 9144,
      "Ġoverc": 9145,
      "Ġ750": 9146,
      "Ġ588": 9147,
      "Ġ563": 9148,
      "Ġ81": 9149,
      "Ġ84": 9150,
      "ĠChina": 9151,
      "Ġmeter": 9152,
      "Ġdisch": 9153,
      "radharpur": 9154,
      "Ġrises": 9155,
      "Ġsubgroup": 9156,
      "ĠDevi": 9157,
      "obil": 9158,
      "Ġ95": 9159,
      "matitic": 9160,
      "Ġundul": 9161,
      "renkonda": 9162,
      "Ġ103": 9163,
      "Ġ108": 9164,
      "Ġ109": 9165,
      "Ġreptil": 9166,
      "Ġindicative": 9167,
      "Ġamb": 9168,
      "Ġamalgam": 9169,
      "Ġjas": 9170,
      "Ġjunction": 9171,
      "Ġcorn": 9172,
      "ĠZONE": 9173,
      "ĠAnjar": 9174,
      "hens": 9175,
      "Ġlithic": 9176,
      "Ġlithofacies": 9177,
      "Ġarise": 9178,
      "ĠBasalts": 9179,
[...]
