#version: 0.2
t i
t a
t h
r e
t o
t s
t th
o n
t e
i n
tth e
, \
. \
n d
a l
t f
t c
t r
e r
ti on
o r
e n
t d
ti n
to f
e s
a r
t b
t w
t p
t m
ta nd
a n
l e
i c
t re
h e
i s
l a
t u
in g
e d
a tion
u l
o m
o l
ti s
t to
or m
s s
a c
to r
o u
t l
e c
o w
i g
te r
td e
n s
a t
l y
v e
tr a
u c
u re
tb e
f orm
o c
a s
a ul
t g
to n
u r
ta l
tu re
ti c
i m
te d
t n
tth at
ta re
l i
tf aul
ta n
t T
) \
u s
form ation
n F
o s
td i
he ar
c e
tf r
tc on
ig ure
e l
te x
t y
tw i
v er
ta s
ts tre
tm a
tra in
i on
' ,
Ġ '
g e
o g
i d
r a
ts hear
: \
en t
z on
r o
tw e
tde formation
oc k
tm o
tb y
ts h
m p
tstre ss
nF igure
tr uc
ture s
tf ol
tf or
â Ģ
s e
tc an
m e
t la
ts train
p e
tT he
n T
f f
tc om
in e
twi th
t I
n c
t S
tfaul t
ts e
y s
t zon
. ',
tr ock
tw h
e re
( \
) .\
q u
n S
li p
tin g
a nd
al ly
om e
he re
a p
t te
tfol d
y er
tf orm
r i
ts truc
ta c
i r
t A
tion s
a te
t v
tr i
th er
l l
tfaul ts
tc h
tla yer
p re
ĵ \
âĢ ĵ\
td is
u m
te n
ol og
m ent
tfr om
ere n
o t
tfr ac
ta t
on g
p h
in s
al l
o re
tm e
n f
o in
i al
tp ar
1 9
s o
p p
ta tion
an s
es s
m a
tre s
uc h
la s
p le
te ns
tr o
n th
tw here
i l
i ty
n p
us t
tdi ff
tp l
ou s
l ow
n C
k e
i en
ation s
n A
tzon e
im en
n e
ig h
tstruc tures
al t
nT he
tp re
t le
ou nd
tth is
tu r
tens ion
a ted
is m
ow n
tre la
e olog
u t
tmo d
tp ro
f ac
t F
al le
tp r
a ve
re c
las tic
ti ve
te s
ur ing
tma y
tI n
ic h
h an
a v
ts im
ic al
tw o
el d
ur fac
twe en
ul ar
tg ra
tT h
n i
tl ine
n Ï
ta r
tdiff eren
t C
o d
2 0
t W
ta b
trock s
a d
tc r
tbe tween
a ge
t M
n P
tpl an
a b
td uring
n D
n R
g h
ts alt
tmod el
i le
t H
al e
ec han
ti t
a g
t k
er al
tal so
tor ien
tcon s
th ave
tmo re
tu s
twh ich
p la
t G
tth r
tn ot
p er
ton e
tcom p
i eld
ts urfac
en ts
tic al
ts uch
t tr
tex tension
a mp
nd e
n g
l u
ou gh
nÏ ĥ
tlayer s
ve l
nth e
t P
n B
ar d
tp er
t ver
tdi rec
re d
tr ic
1 0
ec tion
ta x
ton ic
as e
tzon es
d e
) ,\
i te
n b
n M
td a
tfold s
tur al
o p
t two
ti mp
u b
d i
pe nd
tn e
tal ong
en ce
c ur
tin c
t B
to b
n J
m on
twi ll
and s
ts ome
tin ter
i p
t N
re e
i ve
n w
n al
t j
ac tion
tm echan
t ty
n a
tb ut
er s
an g
ts lip
ec t
n m
tan t
tTh is
os t
c tonic
n I
to c
u la
ol u
le av
tfrac tures
t R
F igure
oin t
tf low
ar y
ss ure
tre f
ter m
n o
d ing
to ther
i ation
to ver
1 1
v en
pla ce
n G
a us
tfrac ture
tm in
n in
tf ield
tth an
tsurfac e
p ar
te l
1 2
tre g
n E
ar i
tsim ple
tdifferen t
ts ta
ti f
tl ow
form ed
tg e
oin ts
t tle
ou r
tda ta
toc cur
leav age
n re
a x
orm al
1 6
tc o
tl i
as es
l es
tb ec
ic k
ap ter
ou t
th igh
tsh own
i z
tdirec tion
d uc
place ment
r ow
tl y
tthe re
tplan e
amp le
og en
ttr ans
n H
c ale
tthe y
tcom mon
alle l
t ti
ys tal
ph ic
or i
t qu
s t
ed imen
ri ttle
in es
torien tation
a k
t E
th as
i b
n L
ma tic
ti ts
el l
ori zon
tin to
tsh ow
= \
ts p
ul d
tg en
a me
v ed
ta m
os e
eolog y
c h
ou d
n W
m ents
ts o
tte ctonic
pre s
orizon tal
tel lip
1 8
s ion
t D
en s
an ge
tw all
1 5
tc leavage
ac h
i ti
t term
vel op
n Î
ti nd
o o
tmin eral
in ed
an y
aul t
a y
f t
n h
1 7
alle d
r ac
tn ormal
tsh or
tu nd
ax ial
tb as
tu p
s lip
pre ss
ic ally
tl ar
tmechan ism
ro ss
1 3
tty p
? \
tan g
tri ke
nc on
aus e
m s
ts edimen
tl oc
tge ome
in c
tm ar
lu id
ts ub
tde f
tre ss
ol d
tinc re
or tant
tre pres
m all
v es
tcon tr
tpre ssure
a ture
td o
tp h
tn o
e w
g ra
y l
tr y
tdis placement
tus ed
tfol iation
tres ul
tb rittle
ta pp
th e
en g
w ard
tex ample
tm ost
tcr ust
n l
v i
tac c
e ver
tc ol
tor y
tb ands
tb oud
tp lastic
la te
tW h
f ore
r ic
tc alled
twh ile
ate s
ten ing
tme ans
y m
t z
ta d
is c
imen sion
at ter
tte ns
th orizontal
g es
ec tor
- \
tex p
trela ted
twh en
1 4
s er
ta in
le c
tthr ough
tde velop
tgra in
th ow
tre c
id e
mp er
truc tural
tde formed
timp ortant
inc ip
eng th
nd i
ys te
or d
tin u
tthe ir
tf luid
igh t
n n
ti m
ism ic
olu me
tind ic
ts mall
td om
le d
oc ess
tg row
d en
tth ick
ym me
n and
tw ell
tp a
tu se
n t
tpar t
incip al
o ss
tp or
tch ange
tab out
our nal
ac k
tdis c
p s
ss ive
ap ir
tm any
tra ti
tk n
h apter
i tion
on d
tc la
tp oint
th is
td es
tl ines
tver tical
en se
an t
v ol
tc l
tm ic
tform ed
u e
tn on
tan y
tdi ag
19 9
c ri
tthe n
ter s
o th
ter ial
20 0
tj oints
n ess
tpar tic
2 2
a pe
o te
tg eolog
tpar allel
nJ ournal
ti ll
ts trike
tmo ve
tri x
i f
tare a
a m
tth ree
tro ta
tro tation
tar y
ts ame
ton ly
ten t
tam or
l oc
t O
tan al
ir c
tshor tening
e ous
tc ases
ic ular
pend icular
ts yste
nde formation
ta ss
tthr ust
oo k
v id
ti al
tax es
t L
in d
tb ound
Ġ' ',
ine matic
tcons id
tc ase
tsta te
l ic
n k
ts ection
tch ing
3 0
tf ac
tf ound
tion al
ar tz
tdi apir
tma terial
treg im
tu ni
tang le
tde p
tra te
ne x
tp atter
he d
us ion
tund er
i li
tH ow
tI f
n N
tpr ocess
press ion
th ing
tde pend
tsh ape
tform ation
mper ature
re s
in k
tin vol
ab le
2 1
b er
tbe en
tver y
this tory
19 8
nC hapter
tcommon ly
tmechanism s
tdes cri
tma trix
tstruc ture
tv olume
o ve
t U
tc en
er red
tin formation
tl ess
eren ce
tF or
i an
is ts
tg i
tbec ause
in n
tI t
tpr incipal
tcr ystal
tG eology
nI n
no f
ymme tric
v al
oc i
textension al
tli th
Â °
tv ari
c es
t J
tloc al
tgeome try
n or
Ļ \
tor ogen
ec tions
âĢ Ļ\
r os
tp ure
tl ength
tgen er
tamor phic
is s
so id
tlar ge
tdiag ra
ts ense
ng th
k es
tc irc
ec ts
i es
l an
tfold ing
yl on
r ystal
pp er
tper pendicular
te ff
twe ak
ys is
om p
tse t
il ar
i th
t ve
tex per
tlow er
ti le
te ach
olu tion
a re
n O
p or
r an
la nd
tac ross
tv ector
tob ser
f ul
o x
tthe se
tc ur
trela tive
tti me
a ys
is tic
tdi p
tse par
tse ismic
tmineral s
o ph
pp ing
tl im
b u
ti v
ar ac
la p
tan ce
tqu artz
tdom in
arac ter
2 6
l ock
ti es
te qu
os ity
tstruc tural
tcomp on
ili ty
te nd
tof f
tb oth
tty pe
tsedimen tary
tdep th
i tes
th od
es t
ic s
um ula
tpl ot
tW e
iz e
tcontr action
2 4
tS tructural
tdescri b
ta p
tres p
ple x
till us
ts cale
tc ri
os ed
tstre ngth
tax is
ang le
tellip soid
imension al
x im
on s
tr al
og ra
h r
n r
ta tions
on e
tl ong
tto ward
uc tile
tstress es
) .',
ts u
ns train
tcon di
l ine
n v
tin iti
tm ust
tri bu
tne w
tresul t
i ed
on al
te ven
tgra ins
tmar k
m er
ns hear
tv isc
tthick ness
tHow ever
c o
e a
te as
in al
as ure
tal l
tch apter
tregim e
u ss
tc re
es e
ys ical
ib le
tboud ins
to p
tu pper
ec ted
qu e
tte nd
tro le
trela tions
ab ric
tk inematic
tkn own
tn um
tstre tching
tline ation
tar ound
tj oint
â Ī
an c
ap p
tme thod
tN or
tthere fore
iti es
as ed
ro p
ir st
ns h
li z
tgen eral
a ting
to u
tw as
im ple
ad ing
tax ial
toccur s
s cale
t ta
u al
to ur
ts te
td ra
ar th
tse en
tWh at
tdiagra m
u ally
or k
en tal
en ted
is t
is ting
tfr ic
tte mperature
tdis loc
olog y
nD e
ang ing
d imensional
tS uch
tH ence
3 3
e t
tch aracter
tgrow th
tpartic ular
tanal ysis
tc ore
tin s
tor ig
tac h
tsurfac es
tsp ac
rac tures
tcl ose
tcondi tions
g a
tab ove
tacc umula
trati gra
b le
tp late
amp les
ttyp ically
2 8
l is
en ing
qu i
tA l
2 9
3 5
e p
le x
tor ation
ur ther
tcon tinu
pre ssure
ma ge
tline ations
tref erence
âĪ Ĵ
n K
ľ \
Ŀ \
ts ands
om es
âĢ ľ\
âĢ Ŀ\
tinter pre
na re
tref erred
ttyp es
n u
n to
nd is
ou nt
tma g
tme tamorphic
tro p
tmodel s
per ties
tcomp action
old s
tlith os
2 3
h ip
tb lock
twith in
tse ts
ere d
tme asure
tpro duc
iz ed
o uld
ver se
ph y
tsim ilar
treg ion
tdisc uss
m od
tre ac
tg re
tcon n
f ter
n X
re g
is e
ig id
tmar g
tconsid er
e x
o le
tin f
ing le
tl ook
tli ke
tgi ven
f ic
i ll
ts tra
ts ide
te lastic
tm ylon
tre duc
ver al
tse veral
h ap
n is
tf la
tc or
os ition
tboud in
ttens ile
rystal liz
tw ed
tde form
li ding
tuse ful
tcla ss
torogen ic
2 7
o trop
tf irst
tcon f
tpre s
two uld
S A
e ty
to ut
tth us
te v
al c
as ing
tM o
nb e
tN ote
ogen eous
tbas ed
tpa th
teff ect
tobser v
n te
w ay
y d
td uctile
tra ted
pe tent
nT h
tse e
nB ox
tcirc le
tve ins
g er
in ing
la tion
ns tress
tfaul ting
tpro perties
tline ar
tref lec
a tac
i a
ts ingle
tr ong
tp ore
thing e
l o
ts tu
tre qui
ce p
par allel
tsub s
tdepend s
lap se
3 4
th anging
ts he
ts ig
tf abric
tob j
nE x
tsyste m
tcompon ent
2 5
a ter
r om
re ssive
ts ize
al ed
tg o
tshear ing
tcontr ol
tim es
tmove ment
toff se
la ted
aul ts
tab le
tplan es
ula tion
tbec omes
thigh er
m ic
er ical
truc tures
np r
twall s
4 0
s ection
ta fter
ec ond
ro f
tur ing
eolog ical
ni fic
tplan ar
nde formed
ers tand
tellip se
tbound ary
td ec
tcon tra
tme an
nf ault
np ar
tdifferen ce
torien tations
tsp ec
tterm s
ndi ff
tpatter n
3 6
w ays
ti den
ts tratigra
li ed
li que
tma in
twe re
3 8
c ed
p here
tp oints
tm uch
ou n
tra mp
og ressive
tfold ed
tcons tant
tshow s
tsedimen ts
tdo es
tcla y
trole um
ta tic
tr ans
td own
tb ed
tp la
ly ing
ur al
tte n
tpro j
tdifferen tial
ari es
xim um
lex ural
n V
on tinu
te le
tsh ale
tri ft
torien ted
trepres ent
tgeolog ic
tgener ally
trelations hip
ti ma
td ens
tb ur
as t
tres toration
ttectonic s
tcol lapse
oph ys
ts c
in ation
in ce
tc aus
ton es
tla ter
tco uld
texper imen
tu n
id es
tdis tribu
nw h
tcri ter
mer ic
b ur
e troleum
i tic
t V
th ough
tw ay
om b
tbe nd
se e
tTh ese
ree p
Â° \
tparticular ly
/ \
Ã ©
ts y
tr igid
tma p
Ġ' (
tch ang
tindic ate
tpatter ns
l ing
r ust
ts liding
tf a
tsh ould
tam ount
tsig nific
n la
th og
ts ections
td imension
ad y
tsome times
tph ysical
trota te
tdiscuss ed
ts and
ts trong
tor s
tg eology
os ite
tcom b
nS train
tne ed
tR e
tund erstand
tdef ined
trati o
oci ated
oci ety
tdra g
; \
i ly
² \
tth in
tb ase
ic ation
âĢ ²\
19 7
tmechan ical
tlar ger
ncon s
tad di
tinf lu
thog onal
tc ross
tc alc
or s
la ss
ec tive
li es
tfol low
tcom plex
ag ation
twed ge
aled on
c en
n Y
n as
r ound
tin ental
tp oss
tre m
tal ways
tn a
tma ximum
twh at
tA n
tpar ts
tper f
tti p
rac ture
lan e
tmark ers
otrop ic
4 5
c ol
d ic
i t
n ma
to pp
tb and
tbe l
os i
ty ou
tpro p
tdevelop ment
trec rystalliz
ogra phic
n U
n ac
u es
er tain
tre verse
ed i
nw here
tkn ow
tmic ros
tass ociated
bur den
u d
al ing
tra tes
tcom petent
tob lique
tcharacter istic
tsands tone
tdeformation s
nT ec
tform s
tv al
tle vel
tcr us
tcontraction al
j u
n Z
r oc
u nd
ts econd
er g
is h
tl o
ver s
tfor ce
tri f
tdirec tions
ttrans por
tincre ase
tnum ber
toffse t
a ins
i ations
n me
r ing
ar ly
tan eous
tlayer ing
tdiff usion
tco axial
tfac t
tprocess es
tillus trated
tach ment
tblock s
tdens ity
tchang es
al anc
td ue
om ogeneous
nF ault
tma ke
nFigure s
twith out
ore land
tmodel ing
oss en
tbound aries
tdiapir s
tMo hr
tcontra st
i tu
m an
ti de
tc reep
uc k
ap pe
tac t
nth at
tC aledon
ng ra
oo twall
tincre ases
tapp ro
vi ew
tpor ous
tconsid ered
tdisloc ation
tlithos phere
Ã© col
Ã©col le
3 7
6 0
n x
t tw
ts ty
tr action
tto p
ns e
nc omp
tS ociety
tse qu
tA s
tsim p
tus ually
tinter nal
tbec ome
n ge
ta te
th ard
ul l
tic ity
im p
tI SA
tda mage
tapp lied
nr ock
tbur ial
a red
v ity
tr ation
tbe ing
tbe fore
tg ive
tex amples
tfrac turing
tthr us
tne ar
nre s
tsyste ms
tset ting
tequ al
tvisc osity
co axial
tfric tional
tboudin age
d er
n an
n zon
o ther
u le
ta ins
tth ose
tf igure
tw ork
la y
tu ndeformed
tac tive
ther n
tover burden
nG eological
ttens or
tpa ssive
lic ations
nDe formation
b or
n trans
t K
u p
te c
ol iation
ten ough
ab ility
ttr ac
trepres ented
tNor th
n er
n ed
v o
ta ga
tde term
ver y
nc om
np lastic
tD e
texp l
tinvol ved
tcen tral
d le
n on
ts tar
tor thogonal
tic e
tn ow
tcon tain
um m
ple te
tension al
tF ault
trepres ents
tgeolog ists
tinvol ves
tiniti al
teas ily
tspac e
tsignific ant
b s
r ans
v ing
th el
ts ymmetric
tthe m
tf ew
td ri
tm an
tex pla
qu ation
nS tress
all ow
ab ly
tqu es
tad d
tcontinu ous
tobserv ations
tcriter ion
3 9
n ulation
s train
ac t
im ent
tn or
tan other
tThe y
nS alt
nf or
no ther
tmarg ins
tposs ible
i er
m ost
t Y
ts ample
in ate
tf oreland
tre ve
la c
tl ink
el f
tla t
ne t
tdisc ontinu
inn ing
ex isting
tstu d
tna tural
h es
v a
tf ind
tb ack
tal though
tS ea
tes tim
nE quation
tsta ge
yl ind
tresul ts
5 0
n ot
tre al
tstrain s
nA n
nR e
tE arth
tind i
nl ine
tfluid s
tdescrib ed
torig in
tstra ight
tdimension s
g reg
i ent
n el
o f
o ul
in eral
in ite
tc atac
or ding
tin te
tb alanc
np er
tpr ogressive
urfac e
tinc lu
tgeome tric
trota ted
vid ual
tAl so
âĪĴ \
treac tiv
tgre at
tpath s
oul omb
ts itu
tr usion
tb u
tm id
ig en
tic ally
tare as
tex tend
tma kes
nS tructural
tA t
tuni t
nor ien
torig inal
ndis placement
tfla tten
tfa il
nla yer
topp osite
o pe
re ss
in ter
tbe h
tcon tinental
tla w
tse g
nS e
tform ing
tpre f
timp lies
nW h
tdef ine
tgi ves
tvari ous
tvector s
tobj ects
tcontrol led
tdistribu tion
vo ir
th ere
tc ertain
ar s
ge ther
tres er
las ts
np ro
eld s
nw ith
ndi rec
tplot ted
tconf ining
a u
w ise
ta ff
tf lexural
en c
td Ã©colle
tb re
tre le
tThe re
nB ased
nI t
nG eology
tge t
tincre asing
if ied
tsepar ated
tfric tion
nTh is
tstratigra phic
b r
ta way
th and
ts er
tb ook
an ce
ec tly
id ge
tfol iations
il ic
nC on
ne iss
nÏ ķ
ula tions
tfield s
tE x
lic ation
tap pe
tregion al
ndiff eren
g ate
en e
tre as
ul ti
ns tructures
tas ymmetric
tsh allow
tA nd
ph erical
tpre existing
tpr im
tWh en
lis ion
tlike ly
cep t
4 4
a ms
h th
p ec
t ke
y na
ta ge
ts me
tf ootwall
or y
tp op
le tin
ing s
ul t
ul letin
me ability
ten ti
tpre dic
tpro f
tshow ing
tdisloc ations
hap ed
ju gate
erg y
ttranspor t
tindi vidual
d s
i x
n ce
s haped
w all
ta g
ta h
th yd
to il
tf urther
tc le
tc ause
tr he
ar ch
om mod
ol id
tto tal
oc ity
nF old
tv i
il ome
tgra vity
tel ong
nÎ ¸
tbas al
tup li
vi ous
tindic ates
ack s
if ication
tregim es
hap s
tbed ding
taddi tion
tinflu ence
tfollow ing
> \
b e
e per
n ra
u mp
ti me
ts l
or ticity
tp ol
tbe low
mp h
tfor ces
tcom plete
tres tric
il s
ien ce
10 0
tph ase
vid ence
tvari ations
trelative ly
tresp ect
app es
traction al
treve al
elds par
f er
l ographic
ti l
ti r
ts olution
or t
tre ma
is tent
tu de
ol ding
tde tachment
tan ti
tex pression
tas p
nf rom
tresul ting
ord inate
tsmall er
tdiapir ism
tve in
tdomin o
tou tc
arth qu
reg ular
tiden tical
tele ments
tbase ment
umm ary
tfail ure
treser voir
d om
o to
u plex
w n
ts ur
ts till
tdi pping
nc h
tA meric
ore d
av es
tk m
tus ing
vel ocity
ers on
nm ic
nI f
tuni axial
tvisc ous
ea tures
top en
hth on
tenti re
tvi ew
3 1
T he
i e
l d
l ines
ts ince
ic e
tan taneous
nF or
tS c
tB ulletin
nm echan
ari ly
ector s
tmic rof
tcompon ents
tsu pp
tmethod s
tpres ent
nte ctonic
trecrystalliz ation
tlo ading
tide al
a ta
a tures
g ges
n imp
ts tri
tth ough
al es
tre tching
he ther
im e
tS ome
od el
nP r
tper haps
tinter section
nin c
tsta tes
nre la
tqu ite
mper atures
tlim es
tdomin ated
treduc tion
ophys es
tcrus tal
tsitu ation
a ss
e ts
n form
r y
t tre
w h
te igen
tr ol
td one
tw ater
ic ult
tu ally
tde ta
ns ub
tcon cen
tma de
tsh ap
nc an
nS hear
tac tiv
tle ft
tpro vid
tk ilome
per imen
vel ope
tmechan ics
no ver
nG e
nL ine
tang ular
vi tation
trec ord
ond on
tcri tical
rop agation
tta kes
tinterpre tation
tmarg in
trequi res
tmean ing
texperimen ts
tmid dle
a th
a tory
c op
f erence
l ol
n y
t Z
t tra
tf eatures
ar k
tb uck
tw ays
tto gether
ec ting
tde vi
im ilar
tri es
ten velope
tpar ame
trela tion
tgra d
tG eolog
ax is
nÎ ±
tacc ording
inn ed
tdepth s
tdeform ing
tclass ic
texperimen tal
tun til
tbre ak
hthon ous
+ \
e m
n qu
p lane
te vidence
tr ac
tw ord
as ter
im um
tn appe
tan is
os tress
twi de
se qu
nT rans
nc o
ome tric
ten ergy
olog ic
treg ard
tbas ins
texp osed
ord er
nn ormal
ymme try
tsu gges
tste ep
tproduc e
tsubs imple
tunderstand ing
edi um
tCaledon ides
tstud y
ylind r
tappe ar
treas on
) :\
. ),\
b ility
l ength
n z
n ro
n pressure
r ight
t tex
ti tu
re lated
re ady
ts ou
ar b
tp o
li ke
tcan not
tla st
ff ic
tS train
ate ly
il led
nA s
tmod e
tmod ul
tpro v
tper meability
ula ted
nin ter
tcol lec
ran ular
tdescrib es
tkinematic s
tiden tif
ophys ics
tsequ ence
tbu il
tflatten ing
a ssive
i ted
tthe ory
tr ange
tr ight
tp osi
tm ulti
an ic
om er
ec ess
ns lip
ns alt
as in
tal low
im b
tn appes
twi d
ri or
ins t
nf racture
tC oulomb
nde pend
ttrans ition
tits elf
tdef in
tO ne
tuni ts
tap ophyses
taccumula te
tmylon ite
nTec ton
tsimp ly
bor atory
taga inst
tman tle
tques tions
ndirec tion
tsur round
tAmeric a
ylindr ical
9 0
l ess
l inn
m al
ti ff
th omogeneous
te arthqu
nd om
tf ib
td uplex
tof ten
ol ved
tdi kes
tpre ser
ni axial
ale ostress
nb y
oud in
tup ward
tad j
tdevelop ed
tdom ains
res p
tU tah
tcur ve
tcre nulation
ga tive
taccumula tes
tmeasure ments
mod ule
tperf ectly
tprop ag
tnor thern
inter land
tag greg
k ing
n ne
r on
r ation
t tri
w ell
ta to
ts our
en ces
tm ig
tm edium
ec ause
os ilic
tla boratory
ll osilic
tdis s
19 6
pp ed
tdiff icult
nA meric
tle ast
nD is
no b
nW e
tad v
tpor osity
val u
nbe tween
tgo od
tramp s
nwh ich
trem o
tbel ts
man ent
nzon e
tdÃ©colle ment
nTecton ophysics
c ess
h orizontal
y p
ta ined
on se
tf inite
or th
tp ole
tp etroleum
ns te
os tatic
tcon tact
tS e
tte mperatures
tdis tance
tpro ble
ni tude
tC on
nD i
tver s
tco ordinate
duc tion
ak es
nL ondon
matic ally
tph ases
tcol lision
led ge
tpartic le
tass um
val ues
tdiagra ms
tcur ved
tNor way
tins tance
tclose ly
tinterpre ted
tmeasure d
tcaus es
tperf ect
tappro ach
thard ening
tsetting s
tir regular
toutc rop
nAmeric an
b en
g l
n oc
o b
s hear
s tate
w o
te ctonic
al f
en eral
ar ing
tp rior
is tance
tcon tains
ver g
ver sion
tcom pression
tte ll
tac ts
nf ractures
ni vers
tcons truc
ttr ue
tP etroleum
tover lap
tover pressure
place ments
iz ation
ttrans pression
nÎ ¼
tbas in
the ter
lan ar
tobser ved
tspac ing
tsands tones
tev olution
tstu di
trequi red
tdec re
tstratigra phy
tproj ection
tproj ections
tcomb ination
tbel t
tthrus ting
tdiscontinu ities
hes ive
testim ate
tlimes tone
P a
s h
t ter
to ce
to red
ts pre
ar row
tto o
tor der
tra ther
tal ready
tfr on
tex press
tma pping
tmo tion
ff ith
twh y
ri ffith
tv is
tv ary
ism s
tF ossen
tM a
tk ink
tG e
tover la
tsta ges
thow ever
tpartic les
tass ump
tmaterial s
tresp onse
teas y
tshe ets
tprop agation
tlat tice
pec ial
trestric ted
tmodul us
m b
p ropagation
ti tion
re nt
tf ar
tf eldspar
ed iment
ac ent
ow s
ter n
tg neiss
ce ed
ra g
tse aling
ting u
tdis tingu
tgra vitation
ag es
tdirec tly
tric es
nw e
tE ven
tcl os
thing es
tinvol ve
tcrystal lographic
tou ter
lis hed
tev ents
npar tic
tsty le
tbalanc ing
treactiv ation
norien tation
tsupp ort
tshap es
tparame ters
nivers ity
3 2
Q u
c on
o ts
t tur
t velocity
v ant
y ed
z ed
ti bility
tf ree
tc ut
an tly
tre pe
ter nal
ns y
nF aults
nS c
nS ection
ir d
tle ad
trela te
tar c
tar r
tcons istent
tP ress
nb rittle
tj oin
nm ore
tR ock
tso ft
tgeome tries
trepres en
tfac tors
nex tension
tcen ter
tcrystal s
co pe
phy roc
tconn ection
ective ly
tyou ng
tval ue
nrock s
ttrac e
tcatac lastic
tseg ments
tupli ft
tkilome ters
tGeolog ists
taggreg ates
0 0
: ',
i la
i ther
o e
u ter
y llosilic
te very
er n
tp p
oc al
tg ran
tg lac
tal most
li er
nF olds
nF ossen
ore tical
nf aults
tF urther
tF linn
urfac es
od e
tW here
tcons train
tP late
tj ust
row th
tti m
ch ist
nh ave
tshor ten
tloc ated
tindic ated
tdiag onal
tmove ments
tdepend ing
tlim bs
tcre ate
tins tantaneous
tmylon ites
tobserv ation
tobj ect
tspec if
tcaus ed
und red
tser ies
tprim ary
E ds
b ric
f ault
j or
n ow
n rec
o iss
p r
te valu
or ld
tw hether
tp e
tre d
tde ep
oc iation
li th
tex ceed
ty ield
og y
me nd
ap er
ll us
tme ters
nth ick
ave length
tar row
tne t
tinter s
na x
ttyp ical
gra ined
tacc ommod
tim bric
res ting
tsepar ation
top ening
tta ke
tmag ma
tmicros cale
nTec tonic
trif ting
tappro xim
texpla in
tadd ed
treal istic
yna mic
tprof ile
be nd
wh at
cop ic
arb on
tassum ed
tPlate au
oiss on
d es
m ore
r ou
r us
ti ally
th app
ts la
ts tiff
te tc
tf av
tr u
tp ic
tm ed
tan tic
tma jor
nT here
nc re
nc es
tv orticity
tdis placements
ph er
nf old
tens ive
tes tima
nP h
tper manent
tinc om
tB oth
ands tone
nre g
ogen ic
tshor t
ric tional
am br
loc ation
tfac tor
tfac ies
tdescri p
tgener ate
tcirc les
tequ ation
npr incipal
taddi tional
nac c
tsty lol
tstar t
ffic ient
tdefin ition
tadj acent
tvers us
noc cur
ambr idge
% \
5 5
a ke
g ing
i ts
k en
p lastic
ta va
th or
th ost
th interland
th alf
th undred
to s
tth inning
tc hed
tin trusion
ar ge
tp aleostress
tis otropic
ss ociation
ou ng
ns ome
ns edimen
ns imple
tn ecess
tT ec
tcon jugate
ty p
ver age
se ismic
ff eren
tcom press
nc leavage
ome try
nf low
nthe tic
tinc tion
leav ages
tli ttle
nÎ ³
rac k
nn on
tamor ph
oph ysical
tmag matic
tmag nitude
tmylon itic
tcor resp
tspec ial
tstrong ly
tval ues
tsecond ary
ngra in
thel p
torigin ally
tpref erred
tato mic
9 7
i od
l li
m ber
n ar
n pre
o y
r ich
th rust
re st
ts pherical
te arly
in ology
tc he
tc our
ar p
tp ene
is es
ow er
tde g
tcon gl
tex isting
tex tensive
tma ps
tma trices
ere nces
nf oliation
tpr om
av i
tTh us
de formation
ub lication
tflow s
iz es
nÎ ½
tpor tra
200 4
trota tes
tO n
tU niversity
tcen time
are a
tsepar ate
tdescrib e
tlong er
npr ocess
tbend s
tthrus ts
tcomplete ly
tprovid es
tmode led
tprov ide
oudin age
tdiss olution
pher ic
tava ila
tcongl omer
f ractures
n own
v ron
re qu
ts ediment
in ch
tthe r
en tation
en tly
en ced
ar lier
is hear
is tric
uc cess
tn ature
tex h
tex tent
tstrain ed
tS pecial
nS ch
tres istance
las is
tro of
nth is
nth ere
igh tly
tF ield
od y
tab s
tcr ack
tG eological
tinc l
tsome what
tinter fac
tti ps
tD i
nÎ »
tph yllosilic
tcol um
ttens ion
tindic a
200 3
tunder lying
val ue
nsh own
tele v
tneed ed
tCaledon ian
ncom mon
tbeh avi
ndifferen t
ams ay
ninc re
tearthqu akes
texpress ed
tdistingu ish
4 6
R e
e g
g o
h and
m edi
n us
â ī
ta tive
to m
in a
nd isc
tf aster
tc oun
tc leavages
tr um
er o
tu al
ul taneous
ton ce
tfaul ted
tex ternal
ver tical
tma pped
nc han
ys es
tac ting
np or
trela tes
tpro b
tes tab
tC lass
tM echan
lu e
timp or
tne gative
tob tain
nal ong
nm odel
tmin imum
nre pres
nH ow
the tic
200 0
tO ther
nex tensional
198 7
tcur v
tcur ves
tlim ited
tnum erical
tconn ected
tpres ented
tev ent
npar allel
tpla ce
tknow ledge
nzon es
tinclu ding
nSe e
trele vant
tpop ulations
nimp ortant
tmig ration
tyoung er
ttim es
5 1
a in
n ing
o z
s es
v ectors
x tap
y ing
ti ndepend
te nc
te ither
nd uring
tf ine
tin ent
tre view
tl og
ter na
tcon c
tstre tched
me ter
me mber
tcom e
tS hear
tA ssociation
nA c
tH e
nm ineral
tD uring
inc i
gra in
tWh y
ges t
199 2
199 4
tanal yses
tU s
omp action
texper iment
are nt
tillus tration
line ar
tiniti ate
twed ges
otrop y
treflec t
treflec ts
tshe ared
tdistribu ted
tcalc ulated
trem ote
nel lip
tinte resting
nlayer s
tsme ar
tcle ar
telong ation
tsl ightly
mph ib
tasp ect
tmicrof ractures
sequ ence
twid th
toce anic
oe lastic
tFurther more
tbehavi or
P O
n tens
n two
n ad
o ted
w here
ts low
ts table
tc ar
tin tro
tre ach
la t
ing e
tl ens
ns trike
ns urfaces
tcon tex
tcon cept
tma the
nc line
tS an
tA nother
tres olved
nth rust
ne lastic
tF olds
tpr ac
tC ol
ag ed
nde p
nM ic
nJ oints
tover all
nre lated
tterm inology
nh igh
rac turing
tlar gest
tincre ased
yl li
tthrough out
ond s
tgeolog ist
nex p
tlim b
tplot ting
tresp ectively
ons truc
ese arch
tfla w
tclass ification
nte mperature
lo pe
tshe et
tfabric s
nEx tension
tlater al
tRe ading
tfigure s
taga in
tDe formation
texpl ored
tstar ts
taff ected
tAnd erson
ix ed
trhe ology
nmic ros
nrela tions
tdeta il
perimen ts
tsurround ing
tition ing
trepe ated
tshorten ed
tpic ture
inci ple
i k
i ated
n ph
n low
n ab
o ver
s imple
w ork
to per
ts a
ts amples
ts olid
in is
tf e
tf lex
or g
or ad
es tern
tw orld
tp ur
tp ut
tp osition
le ft
tre li
om mend
ol l
tra tive
tbe tter
form ing
li de
nF rom
id er
tmo ves
truc ture
me able
tI I
qu al
nS trike
and in
tch all
ten tial
np lane
nC ambridge
ne tic
igh bor
tpr inciple
tsim ultaneous
tk ind
tG riffith
tcomp lic
tcomp uter
tper iod
nb ound
nM c
nM o
di ent
nal so
tR esearch
tover lying
duc ed
ak s
tso f
tellip tical
tapp ly
tanal y
nk inematic
tuni form
nO r
nv olume
tcharacter ized
tlithos tatic
tstra ta
tdeform s
tpres ence
toffse ts
tdec omp
tdown ward
tima ges
tcriter ia
tinflu enced
trif ts
tsequ ences
tlink age
tbalanc ed
textend ed
nWh en
mph as
trema in
dom ains
tthough t
ime ter
tword s
tassump tion
tclos er
tavaila ble
tther mal
tphyllosilic ate
tindica tors
timpor tance
ommend ed
ighbor ing
tcomplic ated
F urther
S ummary
a tor
d in
f illed
g ine
g ranular
i ally
l og
u n
w est
y c
â Ĺ
ta verage
ta mphib
re te
to li
tth ird
tthe oretical
nd s
tc em
or tening
tb ody
tw avelength
tre se
he matic
is tos
ol ite
ou nc
tde eper
ns urface
ns tretching
tra p
uc le
oc us
li f
nF low
tdi lation
tex ist
og ni
tcom pe
nc alled
tS tress
nS ome
ir ly
tch o
eren tially
all s
las t
tpl u
nA l
tur ally
trela y
tF aults
rec t
ular ly
tgra ph
tG ra
tcomp ens
nM a
timp lications
tB y
thigh ly
ttrans tension
tsp here
nÎ ²
nh orizontal
tang les
tWh ile
trec ommended
199 0
199 3
vid ed
198 0
torogen y
ros tatic
tlength s
ylon ite
aracter istic
nK inematic
nu nd
rystalliz ation
tcalc ite
texpl ore
tques tion
tlat ter
nline ar
tinclu de
olid ated
tasp ects
tposi tive
tpreser ved
tproble m
pr in
tstylol ites
tcontex t
âĹ Ī
ounc ed
4 3
< \
? ',
C hapter
M od
b y
p ac
s ts
s well
u te
u nc
w eg
x tral
to wn
ts ch
ts ymmetry
ts lope
on ent
on ding
on ounced
te mperature
td en
tin version
ol s
orm ation
ns uch
ns ection
im al
os es
train ing
twe t
nc ol
nc rystal
nc ertain
tS alt
nS h
tA r
um b
um ation
nC lass
ien tly
nA r
nA ll
tpr ogra
tM ore
nR ec
tcons ists
tcons titu
per ture
nB e
tob vious
tN ew
nw ill
ang ular
ula te
11 5
par t
toccur ring
ax es
ogen e
ttrans formation
ttrans fer
velop ed
tsedimen tation
tloc ally
nl ess
ever al
lec tion
tdevelop s
200 6
tO nce
nk nown
tquartz ite
tdomin ate
tribu tion
35 7
tlook ing
treduc ed
tcor re
nEx tensional
tspec trum
tbend ing
tfa irly
trecrystalliz ed
tlevel s
nper pendicular
tpref erentially
enc y
enc il
ndifferen tial
tpredic t
tbuck ling
tanis otropic
tpo tential
tbuil d
tfib ers
tirregular ities
tstudi es
tfron t
tgravitation al
trepresen ting
phyroc lasts
nthick ness
timbric ation
testima ted
tcurv ature
tindepend ent
inis tral
orad o
istos ity
weg ian
5 3
7 4
a w
f erred
k inned
l ick
m id
o ff
r action
r up
s on
s tress
y pe
th ick
th west
ts us
ts ke
tth ink
te arlier
nd ip
tf ocus
tr on
en ed
ar t
tw ant
tm on
tre ngth
he ad
ation al
tis o
tl istric
tra di
tT o
os tly
tfr ag
tcon ven
tmo ving
nT hr
tcom es
nS y
nS and
ten ce
olog ical
ore h
nf olds
ma tical
tro ot
ne ff
tdifferen tly
tcr acks
nR o
ag ra
tcomp a
tP ublication
nM ar
timp ly
tB ecause
nw ell
ang ed
nG ra
ch ni
oud ins
velop ment
tloc ations
tz ero
tpor tion
tmic a
tmic ro
am ental
tdep osi
198 6
198 9
tvari ety
tlocal ized
texper ien
ttend s
osition al
tsubs id
tmicros cope
und amental
ttranspor ted
ttop ics
ncomp action
tdeterm ined
tdri ven
tinte rest
taff ect
texpression s
treservoir s
nmechan isms
trecord ed
tanis otropy
tallow s
tsour ce
tremo ved
tSe e
tarrow s
tdescrip tion
tamorph ism
tportra yed
go ing
oz o
ik off
tflex ure
âĹĪ ',
Mod ule
4 7
6 8
c alled
e y
e an
f aks
i tch
n le
n he
n angle
n app
n lith
n typ
r ough
s ections
Ã ¸
ti mage
ta ted
ts ound
te mphas
nd ata
tf am
tf requ
tc ub
tc are
tr ations
or ien
td ense
tin ner
ar iation
tp us
tp ull
tp inch
he ology
la w
la ps
tu ncertain
om al
ou ge
ig n
ig ned
tde v
ns et
tg as
tal loc
tn arrow
os en
os ion
el t
id ual
tS imilar
tse al
tac tual
nf ield
tres tored
il es
nC h
nC om
tpre vious
nP lastic
nD ata
nb ec
tinter val
tco ver
ttrans lation
15 4
tmineral ogy
tbas ic
tdef ects
ever thel
tplastic ally
isc osity
texp and
texp ected
nn ot
tthick er
twell s
tL et
ber g
198 8
tcirc ular
texper ience
ran ch
tiv ity
ons tant
nsh ale
tdra wn
tach ments
treac hed
tconn ect
tconn ecting
treduc e
tsc ales
tV er
tcomplex es
ull faks
tec ton
texpla ined
testim ates
tseg ment
yna m
trema ins
dom in
tgrad ually
nro tation
theter ogeneous
tspre ad
llus tration
tTec tonic
Re view
tcoun ter
tprob ably
tpur p
andin av
ator ic
oreh ole
everthel ess
. -
F ault
h ing
m i
m ental
n j
o id
s kinned
y ered
z e
ta ges
ta head
th ence
re as
tth ings
te lec
tf our
tf ill
tf it
tf ish
en tial
td er
td ig
tin tens
tm m
tm es
he l
ol iations
tis og
orm ally
tde tec
ns w
ns mall
ns tructural
ns yste
ns table
tra d
tal terna
ted ge
tn ame
tn am
li t
nF racture
tdi ps
tex tr
ty pe
ro b
tsh arp
tla yered
nT wo
tS ch
nS ummary
ate lli
tpar tly
tpar titioning
np ure
nC leavage
tur y
tpr onounced
nÏ ģ
tC om
tM ost
tM any
nR es
tH ere
tP oisson
de f
nM od
di tional
tne ighboring
nm in
11 1
nin dic
treg ular
tellip ses
ens chist
17 9
tloc ation
tph oto
texp ect
trec ogni
200 7
198 3
tgener ated
teff ective
nO n
oph ysis
tillus trates
ied el
tmark er
anc y
tNor wegian
tratigra phic
tlithos pheric
tproduc es
tgre ater
lo b
lo or
trequi re
nwh ile
ors es
tdeterm ine
tcontinuous ly
tY ork
tdiscontinu ity
hes ion
treactiv ated
nWh ile
tke y
perimen tal
tbuck le
tcollec ted
rus tal
tfav or
tdeg ree
medi ate
tlens es
tCol orado
trap id
tfrag ments
ozo ic
7 7
a mage
b ore
c m
c ton
e f
f old
f abric
i tal
i tions
i ers
i ved
l ot
l inal
n ins
u ge
u tral
z il
ts uccess
al so
al ach
tf ixed
tc yc
er m
or ing
en lines
tp os
tm ill
ul li
ns tructure
tal one
tn ucle
el low
ty our
ra zil
tmo ved
tla m
tla te
tS andstone
twh ose
qu es
nS imple
tte chni
ri ft
tac hed
tA ll
tA pp
tdis pla
tres t
nC oulomb
tpre c
tur b
tgra dient
tab ility
ad e
ag greg
ng eneral
nthe y
de ally
nM any
timp lying
di tion
tB ut
tinter mediate
ree k
tmechan ically
na ss
nm ove
tother s
nin formation
tif ication
tco ol
les ton
tti gh
tqu an
ib ility
nÎ Ķ
gra ins
tapp arent
nl ength
texp lan
trec onstruc
tpa ss
199 6
200 2
inn er
rystal line
teff ects
por ous
26 0
lock wise
tequ ations
tcre ates
tta ken
tste p
taccumula tion
nu pper
phy rob
tregion s
tconf us
atac lastic
tgo ing
oun tain
tbur ied
tcaus ing
tsignific antly
tcomb ined
tna turally
nac tive
ud leston
tcharacteristic s
nme tamorphic
ttw ins
nse par
twork s
tlaw s
tke ep
thyd roc
tcle arly
tpol es
tanti thetic
nrela tive
ttre ated
teigen values
nqu artz
tidentif y
tposi tions
tsour ces
toverla pping
tgneiss es
npartic ularly
tarr ange
tRock s
tgran itic
tspecif ically
tinters ect
thapp ens
tmed ia
tcompress ive
tcour se
tconglomer ate
testab lished
nHow ever
tchall eng
tsof tening
tiso lated
nThr ust
1 10
5 7
Q F
c ylindrical
e tamorphic
e ars
j ection
n term
o h
r ock
s te
t tu
ts ay
tth inner
on es
tf ul
tf inal
tf unc
tf undamental
tc ap
er t
en er
en tion
ar c
tb o
tp aper
tm ention
tre me
tre tur
is on
tis h
tis ostatic
tto m
ac anc
ter osion
ns c
ve red
form s
oc hthonous
as h
aul ting
tg ouge
ton to
im ary
tfr ame
el ves
twi der
Ġ' \
ra w
mp or
nc ri
nc irc
tac cur
tch osen
um erical
tme ant
nf lexural
nf olding
nf rictional
ans ion
las ite
nC ol
tgra de
tC PO
tM Pa
nR amsay
tcons ist
tcons isting
tthr ow
tcomp osed
nde f
tP r
tB asin
nI llustration
tflow ing
nE l
tge ts
tco vered
tqu ick
tsp ots
nh yd
tno te
tgrow s
tpa ir
tcl ock
199 9
tanal og
tL ine
nN ote
tcen tury
tvari es
iss ing
iss ure
tsepar ating
tap ophysis
nstrain ed
tste eper
tinterpre t
nu niaxial
tconsider ing
tconsider ably
tconf ined
treflec ted
cep ts
40 2
tima g
tlater ally
ttw inning
tAnd reas
tupli f
acks on
nch aracteristic
tSc andinav
tstri ations
trol led
tsugges ted
tpropag ating
nste ad
ttell s
theter ogene
tdecre ases
tvis ual
tGe ophysical
nSc hematic
tnecess arily
tpene trative
deformation al
tcentime ter
tincl usion
tinterfac es
nrelations hip
tcho ice
prin ting
imal ay
agra m
tisog ons
atelli te
acanc ies
5 4
7 0
I SA
a e
a inal
c k
f oliation
g ence
l in
l er
n formation
n time
o late
o ading
r u
t Qu
v is
v ine
ta u
ta perture
re at
re ssure
to l
ts pe
nd uctile
tf illed
tc lasts
er ous
or ph
tw ri
tp ub
is hed
tu l
tu nless
tor ies
tl oss
tde mon
tde xtral
ns cale
ns trength
tan omal
tT wo
tcon tacts
el s
twi den
tstre tch
ro ps
twe ight
tsh ad
tI ran
nc or
nS ub
tform ula
nf luid
19 60
pp osite
il le
il li
tdiff erences
nC o
nA nd
tes t
han ging
tar ra
nP ar
nP assive
tG reek
nB rittle
tver gence
de veloped
nb ut
cur rent
nm ost
nre verse
tco hesion
duc tile
ib e
tsp lit
nW al
nh omogeneous
ncon tractional
tsub di
tsub parallel
tdef ining
tph ylli
the ight
tacc ount
tindic ating
twell bore
tdisc rete
199 8
am mer
nO ne
tcondi tion
tiniti ally
teas ier
tchapter s
tcre ated
top tical
tdra w
tspac ed
23 7
tproduc ed
tgre enschist
nX Y
tconsider ations
tboudin aged
oun ts
oun tains
nwh en
tsy nthetic
ncons tant
uck ling
Ã©colle ment
ncomp onent
nel ong
tcatac lasis
tbu oy
tdÃ©colle ments
nCon tractional
tpop ulation
nra mp
tsl ick
treveal s
tideal ized
teigen vectors
nLine ations
tgrad ual
tregard less
tduplex es
tadv ance
verg ent
verg ence
toverpressure d
tspre ading
tarr anged
tjoin ting
nPh oto
fferen t
tcolum n
ntens ile
tmathe matical
tsa id
org an
tcem entation
lif ied
tcorre lation
tske tch
tcompa tibility
telec tron
tdig ital
nMod ified
aggreg ation
tmention ed
tclock wise
tdemon s
7 9
b lue
i ec
i tation
l imb
n en
n es
n im
n taxial
o tes
u ts
u me
u xtap
ts ens
nd ing
nd imensional
tf loor
tr ig
tr ise
tr idge
or ation
es is
tb ox
tw estern
tm ostly
le y
tu ncons
ter al
ns o
tra re
oc olate
tic k
tT rans
os ing
tcon tribu
tcon tinent
tex trusion
ty ears
id ges
zon e
se t
nc rust
tS ince
tse ams
nS te
ri ate
tv acancies
tch anging
tdis tinction
ten gine
ot t
tme as
tme tamorphism
19 5
nth rough
tpl ots
rec c
eld er
ni ts
tC h
nP e
nR ock
ile d
tH imalay
tcomp ared
ng rowth
ng elder
nthe ir
tinter ference
tN e
tN ational
tmin or
tco hesive
edimen tary
tE ach
tellip ticity
tup right
tsub horizontal
tsub seismic
tpressure s
isc ous
199 1
199 5
ters ection
22 4
ote ctonic
am berg
loc ations
tsyste matic
30 2
nN ew
198 4
tlith ologic
Â° .\
tJ oints
26 3
hr is
teven tually
tmark s
que e
rop riate
tste ady
tcore s
28 4
28 9
telastic ity
treduc es
nis otropic
tMo ine
treflec tors
34 5
tbed s
tpla ces
tsy ncline
nma y
tcrus hing
nan ti
tdri ll
tY oung
norien tations
trhe ological
tSc ience
nmechan ical
tactiv ated
tprovid ed
tdevi ations
nco axial
tregard ed
ttex t
tsou thern
tmulti ple
tsurround ings
tpropag ate
tproble ms
tstudi ed
tglac iers
texceed s
rou p
tantic line
nsedimen tary
tcorresp onding
tche vron
tOn ly
texh umation
telev ated
ndisc uss
tconc er
tfe ature
nMo hr
toli vine
tcompe tence
tcompens ated
tdeposi ted
texperien ced
tcub e
tmill imeter
tuplif ted
4 8
6 3
6 5
6 7
8 7
E M
G eneral
S train
a yer
b ri
b les
b ens
d is
e fficient
f ere
f ield
h am
j ect
j ord
k s
m ote
n at
n ve
n all
n one
n Qu
n vertical
o k
o very
p pend
p lanar
r aul
r own
w ater
y ond
ti g
ta tten
th ad
th ammer
re nce
ts umm
ts atellite
ts quee
tthe ms
nd es
nd ec
nd rag
al ance
tr up
er ing
or ly
td ynamic
ar g
ar r
tb ro
tb est
tb orehole
tp ul
tm ountain
tre ad
tre organ
tu nstable
ul f
ul lis
ac hed
ac tiv
ou th
ns ense
tg ro
tg round
tex ists
tex cept
ver ted
tas ymmetry
tfol iated
tla nd
tla va
nS tretching
tv ariation
tri pping
um ose
ten ter
nf ound
ma ti
np atter
np lanar
nA t
tF rom
alle y
tgra ben
tTh rust
tar ise
tM ic
tM ountains
nR heology
tG Pa
tG ullfaks
tP ro
tP ark
ard rop
red uc
nb ecause
nM ost
di p
di pping
tne ver
tB erg
tN evertheless
tR es
tref er
tref raction
no ff
no pposite
12 5
our ces
nH e
tE ur
tam ounts
ch ier
15 7
nh is
ncon tinu
tsub duction
tsub grains
tincre ment
tapp ropriate
tcol laps
lec ted
tmic as
tO r
nChapter s
nor ogenic
ylon ites
tweak er
tdomin ant
ttoward s
tcre ating
tproduc t
tclass ified
nTh ree
tsee ms
cep tibility
36 0
tRe g
197 6
nge ometry
ttrac es
tnor th
lac k
nper f
tpredic ted
tprof iles
nPr ogressive
ass ic
ass chier
tconcen tration
treason able
tsou thwest
nAs ymmetric
ndom in
nDis placement
nob lique
tconstruc ted
tsla ty
tincom petent
nacc ommod
noccur s
thundred s
rack s
nellip soid
tcar ri
tamphib olite
tden oted
talloc hthonous
talterna tive
alach ian
tcool ing
phyrob lasts
issure s
tScandinav ian
theterogene ities
ppend ix
raul ic
tatten tion
tthems elves
) /
8 1
8 5
G R
I n
M S
P S
] \
b ut
c om
c ture
f or
f olds
g al
l ose
n Ä
n ti
n ir
n ormal
n like
n hanging
o od
o ves
p ro
s ty
s ting
t tan
v an
w ith
x t
ti li
ti nde
ta part
th ole
re ographic
re nulation
to re
ts m
ts late
ts lic
ts ilic
ts ectors
ts inistral
tth inned
in ally
in ations
al if
tf as
tc oin
or ni
tb is
tp ast
tp ower
tp iec
an ad
le e
he vron
is otropic
la ce
ol ites
ac ts
ac ted
tde tachments
uc tili
as al
im es
tT ype
nF oliation
os phere
tcon cepts
tex treme
ty et
ra ted
ra mp
tmo tions
nT r
nT ikoff
tI ndi
nc lay
tS y
nS p
ap art
yer lee
tac ute
tv ol
pre tation
um es
tme mb
tres olution
tres ources
tro d
nth an
nth ree
np late
np assive
nA nother
ni form
tW ith
tab ly
nP ure
nP asschier
ab les
nD uring
tcomp ar
tcomp lications
tP a
tP ar
tper s
nM odel
ub ber
tne xt
tB razil
tob tained
nJ oint
tinter n
tinter fere
ive ly
nm any
toc hthonous
tR iedel
nin f
nin vol
nE arth
tsta tis
les t
ttrans m
nH ence
tqu al
nL ines
nL ith
tsp ring
18 0
press ible
tdef ines
gra ben
nl ocal
nl oading
texp ansion
ser v
ndi apir
ndi agram
oss ible
this tories
199 7
200 1
200 5
tL ar
tlith ology
tJ ournal
nO ver
por osity
ran e
umula tive
tresp ond
tsu fficient
nv ector
tmark ed
tnum b
nsh ortening
tou tside
tta ils
tAl though
nu p
tmag netic
tdiscuss ion
tlook ed
tcor n
tcor rect
nstress es
tsubs urface
tgo es
npr ogressive
rof ractures
ndiff usion
tcomb ine
ncons ider
cen tric
nas ymmetric
nma trix
nU niaxial
tcrus hed
trif uge
tsimp lest
nres p
thel ps
tlink ed
nline ation
topposite ly
tbeh ave
44 2
tsme ared
telong ated
nLine ar
ttra ps
tpo orly
tadv an
tremo val
tcompression al
tconstruc tion
tfron tal
tgravitation ally
tjoin ted
tspecif ic
tevalu ate
tpe b
taccommod ate
taccommod ated
nTectonic s
tmed ian
nreg ime
tnecess ary
fferen tial
nthere fore
telev ation
treli able
tdecomp osition
tprogra ms
mid t
tsubsid ence
ntyp ically
tSimilar ly
ynam ics
tpurp oses
tnam ed
ade mic
thydroc arbon
ttu nn
tretur n
tshad ows
ndiscuss ed
tBerg en
alif orni
uctili ty
tmemb rane
aliforni a
4 1
4 29
8 0
9 9
b rittle
d u
f lat
i tive
m en
m un
n formed
n rift
p osition
r or
s urface
w ed
ta nsw
th mic
th orses
ts um
te red
in ary
in ding
nd amage
al s
tf all
tf ull
tc ylindrical
tc umulative
td uctility
tin tra
ar net
tw ind
tw est
tm y
tm atter
tm ud
tm issing
le v
le asing
tre lies
he matically
is ing
la yer
tu nstrained
om echan
ol es
tto uch
ac tive
ter ogeneous
ter ia
tde l
tde aling
ns ig
tra ight
tra ndom
tbe yond
oc linal
as hed
ted ition
tn ormally
tT yp
nF olding
tcon sequence
tsh ales
se ud
nT yp
tI deally
tI nstead
nc aus
nc ases
tte cton
tri ations
tme ter
tres idual
tdiff er
nA pp
nA ppendix
tpro por
tF old
tTh ree
tC re
20 11
tab ular
nP oisson
nP ressure
pla ced
ttr ishear
ng z
nB oudinage
tper formed
de pend
nb oudins
nM echan
nM ineral
nM ode
di tions
nJ ackson
tinter action
nal ysis
olu te
tR a
tother wise
nE ven
ari thmic
nre ference
16 0
nL arge
tD is
tterm ination
tno tably
gra de
tapp lication
nl ines
vi er
tthick ening
tpor phyroclasts
tdes ign
tcl imb
200 8
tgeolog ically
trota tions
ndeformation s
tass ume
30 0
nex ample
ber ts
tU SA
tvari able
torogen s
lan es
land s
ful ly
tcur rent
tdip meter
tdescrib ing
tillus trate
nr igid
tvisc oelastic
ea th
tach ie
tcontinu ity
nare a
ndis location
tproduc tion
tfla t
nTh ese
atac lasis
nEx perimental
tmain tain
38 9
tpla ty
tpla tes
tV alley
tchang ed
tstrong er
tlo ad
tlo ose
nme an
texpl oration
non ly
texpla ins
ttre nd
nover pressure
nGe ometric
tmulti p
tearthqu ake
tfib er
ttri angular
nDis location
tapproach es
tectonic s
tvis ible
tassump tions
nwe ak
phyroc last
nax is
nax ial
tapproxim ately
tsla tes
nacc umula
tprom otes
tcentime ters
ncommon ly
tprac tice
nbound aries
nSand erson
nMar ine
orien ted
tpus h
tTectonic s
tmes os
hel on
nsyste ms
trad ial
def ined
lob al
nmove ment
ttigh t
tarrange ment
tol der
tpub lished
trup ture
nhis tory
tcarri ed
tintern ally
4 9
4 36
9 5
B S
B ox
b ed
c ing
c omp
d ri
d raw
e ed
e ps
f ric
f ord
g round
h yd
h omb
m o
n na
n nex
n reduc
p osed
s alt
t tal
t tang
t QF
w iss
x ford
z ation
Ã ¶
ta ce
ta mp
th ot
th orizon
th ack
ts tric
ts izes
te mp
te ad
al ok
tf issures
tc all
tc ylind
tr idges
er ten
er ial
or ic
or por
en ge
es ides
tb ranch
tb alance
tw aves
tp oin
tm ac
tm el
an te
le arly
tre ally
tre vers
is tivity
tu d
ed uc
ul tz
tis s
tto ol
ter ozoic
ns u
ns and
ns ame
ns ch
tg ent
tg lide
ton ian
os c
tdi ke
tcon tour
el lip
tex er
tex act
ty lol
ion al
ro tation
nc ase
tS o
tS trike
tS tructures
nS uch
nS ociety
tac tually
tA c
il ding
ous ly
nC onstant
ne ven
ne ath
tmod ified
tmod ern
tpro per
tF ormation
tpr oc
tes y
han ge
av ing
ni llus
tM od
nP er
nP etroleum
nD uctile
nD rag
tG PS
ttr y
nde tachment
ng i
tP h
tP or
tper turb
tver sion
nb ased
tob li
tsome thing
nw all
na m
tR amsay
tover c
nG riffith
12 8
ari ties
toccur red
tco ar
tli e
tli ter
ttrans ferred
nH udleston
edimen ts
nL is
tso on
tD o
nh ow
nh as
nh inge
ncon jugate
ncon tinent
ncon ditions
tmar ble
tno thing
nl ong
ric ity
ym b
nn ecess
oss ack
am ide
trota ting
tbound ed
30 7
nN on
nN ormal
nN orth
ink ing
tcrystal liz
nIn ter
tlocal ization
tlarge ly
ylon itic
nO xford
26 2
24 0
24 1
24 2
tellipsoid s
nv ari
nv iscosity
co tland
nsh ape
nsh ould
33 2
tins ide
tcontinu ed
mod e
tstra igh
tclass es
25 8
econd ary
tcontra sts
tpla ced
ontinu ous
tsy nform
197 9
tcalc ulate
tfollow ed
tAn y
nma g
tmicros tructures
ju xtap
ngra ins
ttw in
up pe
tec helon
tman ner
tstud ent
50 0
tgeometric ally
trele asing
tappe ars
tprim arily
tke eps
tsme aring
tpredic ts
nFold ed
tanti form
toutc rops
tstri ae
tdeta ils
nsub simple
tkilome ter
nLine ation
tdevi atoric
trac rystalline
nTrans pression
tcollec tion
tidentif ied
nste ady
toverla ps
tconstrain ed
nrec rystallization
tru de
thor st
nsedimen ts
tconglomer ates
tabs ent
tinterfac e
nchan ge
tMechan ics
nrepres ented
tenc y
tperiod s
nbound ary
tanaly zed
tdev iation
domin antly
tspread s
textr act
nRes toration
tcyc le
ncri tical
tspe ed
orph ology
uxtap osition
tuncons olidated
tmeas uring
otectonic s
tconcer ned
sty le
tcoin c
anad ian
serv ations
tcorn ers
men tary
depend ent
nnex t
tace ous
tgent le
- ,\
. ,\
2 10
2 13
4 2
4 20
4 35
6 9
8 2
C lay
E d
b ack
c ent
c ompaction
d ay
m in
m ical
n tw
n ou
n pe
n pres
n velocity
o vers
p en
r ous
t table
u th
u able
v as
w aves
y br
z ing
Ã ¼
ta il
th yp
re tion
re es
to ld
to nset
ts ides
te mer
in i
in duced
nd imension
nd Ã©collement
tf its
tc m
tc ou
tc arbon
tr ical
tr ology
td ou
td ry
es thammer
ar m
tb recc
tw ing
an ts
ic o
ic ke
tre placed
is k
la g
tu nknown
tu gal
tor tion
ns he
ns andstone
ns pac
ns lick
ns tratigraphic
as ic
tg u
tg lass
tn ess
nF luid
nF lexural
nF ormation
os tas
os pheric
tcon tent
tex tinction
tma xim
ge b
id ew
ro tectonics
tsh are
tcan op
tThe ir
nT o
tcom ple
tcom mun
tI mp
nc en
nc tive
nc ross
tS te
tS ub
twh o
ther mal
nf ib
19 3
tres training
tres tore
las ter
il arities
np op
np lot
nC ompaction
ien ts
nA x
ne gative
tpre dominantly
tF low
tpr incip
tsim ilarities
tTh en
ni t
tC alifornia
od es
20 1
20 3
20 4
ad es
tM e
tM ax
tM ineral
nD D
tcons tric
tcons olidated
pla te
per pendicular
tcomp are
amp s
ng o
tP ure
nB alanc
10 2
10 5
nb ed
nb ands
timp er
ub er
tne utral
tB ri
tB ased
tob late
mon ly
tN ormal
nm app
tR ange
tover printing
11 7
tmin ib
tel im
toccur rence
nre mote
16 5
iz ing
duc e
ak ing
nL ow
ch es
tso le
15 0
iti zation
oo th
any on
tbas is
ncon tra
tdef ect
tincre ments
tapp lications
the ast
tacc retion
tcol or
tcol ors
tplastic ity
tad ding
14 5
tdom ainal
tpor tions
tmic roc
200 9
22 3
trotation al
tunder neath
res ted
tinvol ving
tcen ters
tJ ust
tlocal ity
tlocal ize
tpure ly
tgener ates
teff ic
tweak en
nO b
nO nce
tobser ve
24 6
24 7
ogra de
ogra phy
tsu per
nv orticity
nDe velopment
tcharacter izes
tins tead
28 7
29 0
29 5
29 6
tinterpre tations
ndis locations
treac t
treac tive
ex tension
tinf inite
tMo ab
nbe fore
yd in
atac lasite
trong ly
tsubs trate
25 9
npr imary
40 8
rof ile
tcontra sting
npar t
36 2
tele ment
tsc atter
tsc hematically
ince ton
tcalc ulations
nY ield
tposs ib
topp osed
tband ing
ju nctive
und ant
nme ans
nme asure
tide ally
ttop ographic
nse ismic
tpassive ly
ttrac ed
tcontain ing
tback s
igen vectors
textend s
nCon tinental
tEx amples
tEx periments
treas ons
thyd rostatic
telong ate
tpol y
ie z
ntectonic s
nimp lications
nPr inceton
trol ling
tconcen trated
tactiv ity
nGe ophysical
tZ one
trac ted
twide ly
tsugges ts
ttex tures
tprov ince
ttri axial
tdecre ase
sh ore
toce an
tlead s
trepresen tative
ern icke
tglac ier
now ledge
tevalu ated
ncre asing
ncre nulation
tcour tesy
nprocess es
tabs olute
tincl ined
nus e
nus ed
tUs ing
tintro duced
nMic ros
nhigh er
tflaw s
nmicros cope
nab ove
oll ard
tII I
tsimultaneous ly
trese arch
nKinematic s
tsch istosity
ncrystal lographic
umb ent
tsus tain
nRo berts
nlith ostatic
tfam ous
nbec omes
tecton ite
tecton ites
nj oints
oid s
tintens e
tSch midt
tphoto s
nins tantaneous
ulli ons
tnucle ation
tquan ti
texplan ation
tfunc tion
ener ally
tbo ttom
nhyd rostatic
timag ed
ibe tan
tsubdi vided
nelong ation
tdemons trated
tsens ing
tdrill ing
ndes cri
activ ation
tgro oves
nperf ectly
tinde x
tcompar ison
tLar amide
tnumb ers
tpeb bles
tansw er
seud o
dri ven
ymb ols
ybr id
thyp oth
ostas y
) ;\
3 16
4 22
7 8
8 8
C on
E x
a h
a ts
a tural
a tom
b i
d ed
d own
d ding
d den
e th
f rictional
f jord
h ni
i ary
i tations
n id
n tri
n top
n very
r id
s tone
s imilar
t X
t train
u ters
u toff
v olution
z im
| \
Ã Ĺ
re nch
ts or
ts qu
ts tac
ts elf
ts idew
te vol
nd o
al istic
tf oss
tf ast
tf ocal
tf alls
tc e
tc res
tr ough
tin verted
ar ter
ar mon
tb ri
tb onds
tw eld
tm om
an tic
ic lastic
is ted
la ty
la tive
la teral
ul es
om olog
ol y
ol st
tto e
tor d
tl ock
tde tached
ns imilar
ns uccess
ure d
oc h
oc ean
ur assic
li d
li fic
li tude
us ive
nF ield
nF ractures
tdi vided
tcon tained
el la
el ow
tex c
tex cess
ra te
tshear s
tfor ward
nT ullis
nc reep
nc ataclastic
tS lip
tS and
tS imple
tse a
tse arch
twh ole
nS o
nS mall
nS tructures
nS uppe
tte mpor
tA MS
ll er
tch ocolate
ten velop
ot tish
tat trac
nf la
nf oreland
so trop
twhere as
np oint
np ropagation
np lanes
nC ri
ne ous
tle t
tle ading
ism ically
tF irst
av alc
tar g
tC o
tC ar
tC omp
20 2
20 10
tM ap
tM em
tM ode
nP or
tG ulf
nde v
nde velopment
ng ing
lu ence
tP er
ard less
tver tically
10 6
10 7
de al
nb ur
nM etamorphic
timp act
timp ossible
tB e
tB elt
tB esides
tob s
ip itation
tN o
tN ow
tN appe
nal ways
tslip p
nm ig
nm ark
tR ed
tR ec
tmin d
12 4
12 7
nE lastic
nre qui
nre lay
thigh est
ttrans form
nH igh
tE l
tsp a
tgen e
tam ong
nW ernicke
tso il
tD ome
ens ides
press ive
13 4
ncon f
ncon form
ncon trolled
tsub grain
tdef lection
gra bens
vi atoric
ttens ors
texp ands
ndi lation
nn um
tdom es
tpor oelastic
tpor phyroblasts
tcl us
22 5
22 6
30 3
30 5
30 6
ink ed
198 1
198 5
tcen trifuge
Â° ,\
Â° )\
nor ig
nor thogonal
tweak ness
por ted
tdomin ates
26 5
26 9
tresp ons
ons ider
tlong est
tsu dden
tiniti ated
tiniti ates
nshear ing
co hesive
tupper most
ttend ency
nsh or
tou tl
tach y
28 6
tAl ps
29 1
tcontinu e
tcontinu um
nto ward
23 6
treac tions
ex ico
tsee m
treflec ting
34 1
nEx periments
40 9
tdec ades
38 7
38 8
nV olume
tV ar
197 0
197 2
nma terial
nma ximum
nU tah
nac ross
tmicros copic
toblique ly
tval uable
ring er
tide a
ngra vity
37 1
ttw en
nres ul
nres toration
nan al
nan tic
ntrans pression
tdri ve
tadd s
tprogressive ly
tflatten ed
npro perties
tincreasing ly
tbook s
tpop ular
nra te
trestric t
nmechan ism
tlimes tones
wh ich
tdeta iled
tconcen tric
tconcen trations
tshap ed
nover burden
ttra ditional
tparame ter
texperimental ly
sequ ently
nco hesive
tsugges ting
nro tate
twid ens
tpreser ves
oudin aged
ttri angle
tadv anc
tCon tractional
shear s
ttranspression al
mb ers
tEven tually
ttur ns
ttur ned
tevery where
tapproxim ate
testima ting
tincom pressible
tintrusion s
tamorph osed
tcorresp ond
tdeg rees
tprom ote
nincre mental
testab lis
nrepres ent
nAc ademic
tprac tical
ndep th
ndep ositional
nab out
toper ations
oll mer
nund er
nund erstand
ncol lapse
nClass ic
tprogra m
tradi ometric
nhe terogeneous
temphas ized
tfrequ ency
nbec ome
tintens ity
nmin imum
ttechni que
ttechni ques
dition ally
tconfus ed
tchalleng ing
tful ly
tquick ly
tpair s
ru g
twri tten
nWal sh
tbuoy ancy
tslick enlines
nso ft
tcontribu te
nve ins
treorgan ization
tcollaps es
tReg ion
tsm ooth
nSp ringer
ttunn el
tdel ta
nsig nific
tpropor tional
BS D
draw al
ttal k
orpor ated
tmac ros
tiss ue
tliter ature
tmaxim a
geb ra
tprincip les
seudo tachy
thypoth esis
nid en
zim uth
ÃĹ \
armon ic
tbri ef
tmom ent
omolog ous
sotrop ic
avalc ante
. ).\
7 3
9 1
C T
C lass
D e
S alt
a tch
b la
b id
f low
f luid
f rom
i ra
i ke
j o
j ects
j ected
k ke
l omer
m ination
n tr
n tre
n order
p ure
r s
s p
s lo
s pac
t tabular
u ous
v on
v ari
w orth
y r
ti ary
ti liz
ta zimuth
th aving
re w
re one
ts w
ts eld
ts ector
ts tick
ts ymbols
tth ous
te p
in t
in ated
in ant
nd own
nd ens
tf il
tc lastic
tc ell
tc rop
tr ises
er ically
er ring
er man
or ite
or di
td ome
tin tr
tin verse
tb r
tb ul
tb lue
tp ack
tp ill
tm aster
tm illi
an ning
le g
le m
tre ly
tre member
is sion
la mination
tu des
ing er
om ing
ol i
ol iated
tis ostasy
tto ols
tto day
ss ier
ac eous
tor ient
ou ts
ou thern
ns tate
ns tud
as itic
tg one
tg roup
tal igned
tan tly
tan atom
tT er
tT ikoff
us e
us ually
nF ootwall
tcon vergence
tex am
tex cep
ty ellow
tma ss
train ed
ra tic
ro ove
tsh r
me thod
me mbers
ff usion
nc ur
nc hapter
nc ylindrical
tS ta
tS everal
tS cotland
nS lip
nS ymmetric
tte ardrop
tform ations
tac les
tA us
pre ad
tdis aggregation
um ing
ten ables
olog ists
olog ies
ong lomer
nf ac
nf inite
nf eldspar
19 0
ma x
nth ese
np ath
nC aledon
nC hris
nC renulation
nA nalysis
tpre m
fac e
tF olding
ni tudes
nÏ Ī
tar bi
tC anyon
tC avalcante
20 5
20 9
20 13
tW est
ad ratic
tM exico
nP ro
nP ollard
nR amberg
ag ros
ag netic
per ities
tcomp act
tcomp aring
tP lane
nB ur
nB asin
tper form
tper meable
tdirec t
red din
10 3
10 4
10 8
nb lock
nM e
nM ap
nM ore
tB rittle
ip roc
nw ork
na ff
nm uch
nI mage
nI sotropic
tR i
tR o
tref old
11 3
tfracture d
nin tersection
12 6
nE ngelder
tsta ted
nre le
16 1
16 7
tli es
row s
ttrans ected
nH omogeneous
nL aw
nL ayer
ell ing
tgen tly
nW ell
18 1
18 3
18 4
tD ip
ach ing
tterm ed
nÎ ¦
oo ke
nh ard
tup s
13 2
ncon n
tbrittle ly
tapp lic
the ated
nl oc
nl arge
14 1
14 7
apir ism
tmic aceous
cri teria
tO ver
30 9
tdep ositional
nex amples
ili ar
tdepend ent
198 2
tU nd
tcrystal line
val ent
tlith ification
istic ated
tsepar ates
tlim it
tlim itations
26 8
tequ ili
24 3
tcri tically
nr he
line ation
tnum erically
nsh ows
tta per
taccumula ted
taccumula ting
35 0
35 6
35 8
ndis tribution
tmag nitudes
tconn ects
tconsider able
tstra tification
telastic ally
tcor ner
27 7
nbe en
nTh in
34 7
34 8
tshe ath
tsig n
tobj ective
rof racturing
ndiff erence
tmain tained
tten ing
tproj ect
tproj ected
nV er
trelationship s
tdens er
tun ity
tneed s
197 3
197 7
ncons titu
tfollow s
nY oung
ud ec
tcoaxial ity
uck le
nge ome
nge ology
imp lified
tec log
ttrac ing
tdeterm ination
ncom pression
nfor ce
tstud ents
nAn y
norien ted
nlayer ing
inter nal
tbeh aves
nSe ismic
trele ase
tEx tension
tshallow er
tprim itive
tmicrof racturing
tstri ated
nPr incipal
nsub s
tactiv ation
tactiv ate
vitation al
tdevi ate
tbreak outs
em bla
ttex ture
tsou theast
ffic iently
tadj us
tdiss olved
nDi fferent
con trolled
tfree ly
ird les
tevery thing
tconstrain ts
nfold ed
thor se
lli ott
tpene trate
texh ib
tcrack ing
tcolum ns
medi ately
tative ly
ndisc ontinu
nAc tive
nmineral s
tUs ed
lat t
ylli tic
nlow er
tsolid s
tplu ton
tsch ists
ncol lision
nRec rystallization
tconstitu te
tsus ceptibility
tmon oc
neff ect
neff ective
nRo tation
tsubsid iary
ey ssier
tfrequ ently
tuncertain ty
nset ting
tVer tical
tder ived
tCom monly
trapid ly
fabric s
lot ting
tpos trift
ulli on
tApp alachian
texplan ations
ste ady
tframe work
taccur ate
nEl ong
tQu artz
tul tra
nAnd erson
tarra y
tarra ys
tdraw ing
tHimalay an
nQu artz
mati tic
npatter ns
tEur ope
ncontinu ous
tsilic iclastic
tfas test
tpiec es
tvol umes
tstatis tically
ttouch es
tCre taceous
tdesign ated
tmel ting
tPor tugal
juxtap osed
nbed ding
timper meable
tBri tish
nYield ing
iez ome
tattrac tive
toutl ined
tVar isc
testablis h
seudotachy ly
von ian
reone t
tseld om
ordi ller
tanatom y
tarbi tr
iproc al
, ',
4 10
4 18
4 21
4 24
4 33
4 31
5 6
6 1
8 3
8 6
8 9
F or
S F
S hear
a z
a tive
b o
b ound
c leavage
e ins
e qual
f ree
f ect
g onal
h at
h umation
i j
i el
i otectonics
l led
l usion
l umose
m ar
m ogra
n ap
n tend
p th
p he
p ot
p ancy
s uch
s urfaces
s edimentary
t t
u ism
v ir
v ents
w are
y kke
ti eth
ta ly
ta id
re en
re pancy
to ed
to lith
ts ummary
ts now
ts lide
in ition
tf inding
tc os
tc uts
tc utoff
en om
en tral
td ashed
tin h
tin p
tin tact
tin jection
tin vis
tin active
es es
ar a
ar ro
ar ger
ar ning
tb ar
tb it
tw are
tw orth
tp ile
tp ost
tp encil
tp itch
tp uts
tm as
tm orphology
ic es
tre e
tre ce
tre pro
he el
is tant
la tions
tu ncommon
tu tiliz
ol itic
ss ential
ac y
ou se
tl ight
ec tivity
ig g
ig er
ig ible
tde t
tde alt
ns me
ns ide
ns tage
tg liding
tg ranular
tg arnet
tg rid
tg irdles
ur ation
tal gebra
tic le
tT r
tT ibetan
us try
nF linn
nF oliations
tdi d
ce ler
ro tate
tmo b
se al
me k
me tamorphic
nT er
nT ype
nT erm
ine tic
twith drawal
tI s
tI den
nc l
nc lass
nc rustal
tS E
tS h
tS p
tS GR
nS urface
nS pherical
nS pecial
nS everal
nS implified
ome tamorphic
tte st
ir ror
tA fter
tA fric
tv ia
tv ice
ten vir
ph ones
ph asal
ore s
nf ootwall
nf oliations
nf aulting
ma g
np encil
tpl umose
nC ataclastic
ien tis
nA ydin
tle e
tle ave
ut ting
rec tly
tive ly
han nel
av a
av al
tC leavage
tC hris
tC learly
tC anadian
od s
od ed
tab rup
tab undant
tM etamorphic
ab arro
nD ip
nD ynamic
tH igh
tH udleston
ag en
pla y
tG neiss
tcomp uters
ng lac
nthe m
tP e
tP ale
nB oth
nB oudins
tver ge
10 9
10 29
ite cture
nb ack
nb oudinage
tda ting
timp ro
timp osed
pend ing
tB yerlee
nJ oh
ands tones
tsome where
nw ould
nw avelength
nw alls
nm ust
nm arg
toc k
olu tions
tR amberg
11 6
nG rowth
tmin ute
nE n
nE ach
tco efficient
duc ted
nH olds
nH ossack
tti l
phic ally
tqu ar
tE n
tE ngelder
nL et
ame ters
ch itecture
nW atter
nW ood
18 7
tD eath
nh interland
13 7
ncon tain
ncon tinental
tincre mental
gra ph
the aves
tacc oun
ric ation
tdevelop ing
yste matic
nn ing
tim mediately
tpor phyroclast
22 2
am bri
tO b
tL ines
tL ith
tL ondon
tL arge
nex pla
tunder going
nN e
tvolume tric
tJ oh
iss ibility
por t
tsepar ately
bu ilding
tdomin ating
tequ ally
tillus trations
ogra ms
tlong itu
tsu fficiently
teas t
tnum erous
nsh ow
tste ps
nDe formed
33 3
33 7
33 9
tcharacter ize
tins p
ga in
tratigra phy
tcontinu es
nu niform
tcompaction al
23 8
tproduc ing
tconsider ation
tcor related
27 0
27 3
tobserv able
nte mperatures
tpore s
lo ver
34 4
nEx ample
nEx pression
tgo ver
tcontrol s
40 5
rof racture
38 5
trans tension
nV orticity
tima ging
tun like
tV ollmer
tsy n
tcomb ining
tcomb inations
tRe view
tinflu ences
45 7
nma x
topp or
trecrystalliz e
nU s
ud ed
nZ one
nse en
nge ometric
tequal s
nan isotropic
ntrans fer
tdeterm ines
ncom par
ncom plex
tDe pending
plete ly
tdri ving
tdri lled
treve aled
ylind ricity
nRe g
nRe lay
nRe ference
nline ations
tcatac lasite
ress ion
tbeh ind
nWh at
npro ble
trele ased
nCon jugate
ene trative
44 4
pec ially
thyd ro
thyd raulic
acks tripping
tpol ished
tAmeric an
tview ed
tSc ottish
nPr ocess
cop ically
tdevi ates
tgrad ients
tbreak ing
nTrans fer
tsugges t
treason ably
tcollec t
tbuil ding
tbuil ds
tpreser ve
tpropag ates
tato ms
tSe ismic
nDi fferential
tvers a
gl igible
ob ar
ob bs
tconstruc t
tdecre asing
toverla in
tdistingu ished
con tractional
ttur bid
nsy ncline
tevalu ation
tpe trology
tapproxim ation
thapp en
tstiff ness
tfav ored
tantic lines
tdescrip tive
nsome times
tTec hni
nar ound
npre existing
tDi fferent
tom ylonite
nchan ges
tprob ability
nmodel s
tlog arithmic
tUs ually
nad ditional
treach es
tmathe matically
nexp ected
treli ef
nMc Clay
nOr ogenic
tdecomp osed
din ary
tamphib ole
tcem ented
tplu nging
tGra ben
nMa erten
nSh ortening
nAll ochthonous
tconstitu tive
tconven iently
nGra in
nle vel
ntyp es
tfam iliar
tcare ful
tprevious ly
tLet ters
domin ated
tpurp ose
oid al
tfit ted
tdetec ted
tdetec table
trecogni zed
trequire ment
tquan tif
treconstruc tion
tpass ed
tstep overs
nterm s
tfunc tions
ash pot
ncirc le
vis ion
twiden ing
illi ams
tphylli te
trare ly
tHimalay a
bri um
nall ochthonous
tig neous
tsquee zed
tbro ad
tbro ken
ndomin o
nÄ Ĺ
tslic e
nTr ishear
tqual ity
lev ated
tRa f
tachie ved
tmesos copic
homb ic
tstric tly
nsch istosity
tcontour s
tproper ty
nillus trated
tMod ern
tobli qu
nam ount
tcoar se
tcoinc ide
ttable t
temer ges
tcou ple
tcarbon ate
tcommun ication
tconstric tional
nBalanc ing
nmapp ed
tminib asin
taccretion ary
teffic iently
tpossib ly
tbacks tripping
ah l
tsqu are
tstac k
lific ation
tCar ol
tBe fore
tgene tically
nnum ber
tclus ter
norig inal
ttwen tieth
tadvanc ed
nsignific ant
tbrief ly
tprem ises
tPlane tary
trefold ed
tequili brium
seudotachyly te
mogra ve
phe aval
uism ans
ykke lid
enom en
tinvis ible
trece ived
tenvir on
nHolds worth
nWatter son
ambri an
tTechni ques
& \
) ]\
* \
. )\
0 30
2 14
3 17
3 30
3 21
4 19
4 13
4 23
4 27
7 5
9 4
9 8
B oudinage
D i
K en
L e
M ode
N ew
S c
T rans
a el
a ment
a il
a tly
b es
b ard
b ox
c s
c ording
c anic
c rustal
c oring
c lockwise
d isc
e mperature
e anic
f e
f aults
f olding
g ori
g ments
h igh
l ong
l oss
l inked
m is
m ig
m ble
n ta
n ag
n ary
n no
n out
n tly
n appe
n type
n vergence
n thermal
o ta
o og
o ir
o tun
p ine
p ect
p oints
p ling
p toli
r d
r al
r is
r ors
s trike
s econd
t tin
u z
u pper
v in
v ial
v able
w w
w ing
w ide
w art
y a
y e
y ps
y ellow
z ie
¥ \
Â ±
Ī \
ļ \
ł \
ti o
ti pp
ta erial
ta ware
th old
re ag
to ured
ts in
ts tand
ts ol
ts il
ts top
ts ix
ts chist
on ic
on ents
te resting
te ssential
in ity
nd ri
al though
tc ard
tr ich
tr ose
tr ising
er ate
en ting
td ow
td ashpot
es pread
ar le
tb ring
tp is
tp ale
tp ier
tp ump
tm is
tm ixed
tm irror
ic inity
tre p
tre ar
tre tri
tre ported
he et
la tional
la pping
tu di
ed ure
ol z
ol low
ol ith
ss on
tor ing
tor dinary
tl antic
ec king
ig uration
ter rors
ns on
ns ymmetric
ns ections
ns pherical
ns pec
ns econdary
ve y
tra ta
tra ting
tbe lem
as ion
as ins
tg lobal
tg yps
tal s
tal ter
ted ges
tn od
li ft
us h
us ceptibility
os omes
tdi e
tdi vergent
tcon tribution
tcon toured
el vin
tex tracted
tas ce
tas perities
tma pp
tma king
id th
id ence
id ening
ro terozoic
tsh if
tstress ed
nT ur
nT ens
nT able
nT reag
tI taly
tS outh
nS lick
nS trongly
tte sts
tform ally
ri er
ir dle
tA re
tA gain
tA tlantic
ate st
tv oids
tv icinity
tdis tortion
tat tached
ph isticated
nf e
nf min
nf max
tpar agen
19 1
19 50
tation ary
ma trix
tres ol
tres ting
tro duction
nth ough
nth ose
np osi
np ower
nC ow
nC ur
nC rustal
ien ces
ne arly
ne arlier
nThe y
tle ar
tle ak
tle cture
tur ned
tmod erate
tpro late
tF ran
tF ractures
tF lexural
tF rench
tpr one
av is
av ir
tgra ptoli
ni f
tC ur
tC ontinu
tC omb
tC arbon
tC onsider
20 6
tW al
tW ell
tW hether
tW estern
ad ox
tM or
tM ar
nP os
nP aleostress
nR a
nR iedel
nR educ
gh ness
tmodel ling
tH ooke
ag onal
tk g
tcons is
tG reat
tcomp osition
tcomp osite
nde form
nde velop
ng reat
lu ding
tP assive
nB er
nB uckling
nB ott
nB yerlee
ard ing
tdirec ted
ase ment
de pth
nb re
nM or
op es
op lastic
timp ressive
timp ression
di rec
tinc orporated
mon t
tinter act
ip i
tN umerical
nw ww
nal ready
tj uxtaposition
nm an
nm ap
nm od
nm ulti
nI deally
nI ncreasing
nI deal
toc ks
ula ting
tref ers
no ke
tover view
tover lay
tover prin
nG ullfaks
nin to
nin tra
12 9
tge osc
our ce
nre f
nre ser
nre ferred
nre alistic
16 8
tthere by
ttrans itions
nH anc
nH inge
nH uber
nH erring
ines is
tE ast
tE qual
tE BSD
ib ers
ib son
ame ter
ch ists
nW illiams
tso phisticated
18 2
18 5
15 5
15 8
tterm inate
nÎ ĵ
17 1
tnormal ized
tshor test
tup on
ncon cen
ncon traction
ncon centric
ves tig
tph ys
tno ted
tapp lying
the at
the ating
the matically
nl ook
nl ink
nl arger
tacc omp
ever se
tWh ich
lec t
trec overy
ndi pping
tim ate
tsmall est
tgrow ing
tthick ens
tdisc repancy
trati os
tcla ys
tdes truc
ters on
22 7
tparallel ism
if y
if erous
tO slo
tsyste matically
tass embla
tL ow
ind ow
nk now
tsection al
tuni que
tdep osition
nex periments
tunder ground
ili ties
nN o
nN or
nN evertheless
tdepend ence
res istivity
ink s
tU K
val bard
tlith ologies
tgener ation
iss olution
tweak ens
tquartz ites
26 1
tequ i
toff shore
tresp onds
hr on
nr ight
tiniti ation
tribu ted
tnew ly
teven ly
teas tern
top ens
tkinematic ally
âĪ ļ\
tins tant
ga mon
28 3
lis tric
nare as
nu ndeformed
nu nloading
phy llosilic
tregion ally
tdiscuss ing
ex tensional
tconf iguration
alc ulated
tlinear ly
treflec tion
ater nary
40 6
npar titioning
ndiff icult
36 8
tmain ly
tpla y
nV ari
tima gine
tdens ities
tsc aled
nwh y
tsy rup
tsy ntaxial
nla teral
197 4
ncons istent
cen ter
tposs ibility
it ted
nU nd
nU niform
tforce ful
nme thod
tide as
ttop ography
nse e
tAs ymmetric
nge ologic
nres ult
nres istance
ntrans lation
tK avir
vo id
tdeterm inant
texpl oring
tstar ted
39 2
tdiscontinu ous
treal ized
nAn ti
nRe leasing
ineral ic
tinte rested
tinclu des
tsitu ations
npro duction
npro jection
nwith in
ndirec tions
ndirec tly
au tochthonous
tbre ached
nCon traction
neiss ic
44 9
tag ree
nra ther
tsl opes
tir on
arthqu akes
regular ities
nmic rofractures
nform ing
ttre nds
teigen value
nsub seismic
nsub grain
nGe ometry
trecord s
ny ield
tbreak s
nco efficient
tstudy ing
tappear ance
arb ons
ninter nal
ninter pretation
tbuil t
twid espread
nfracture d
ndepend s
tdefin itions
tfib rous
resp onding
taggreg ate
nne w
nne utral
196 7
196 8
tcollision al
arrow s
tvis ually
ttur n
trepe ats
nsy nform
nsy nthetic
tRock y
tgran ites
ttim ing
texceed ed
mend inger
aper ture
timbric ated
tru n
tpic tures
tincom plete
plastic ity
typ ically
tcorresp onds
nSch ultz
nincre asing
âī ¥\
âī Ī\
âī ł\
npor ous
npor osity
tMechan ical
tMechan isms
tlog s
ntens or
tslow er
tcar ry
tintro duc
nmicros copic
toper ate
tfe ed
tchall enge
tkind s
nMc Ken
tanaly ze
trese mb
trese mble
tgraph s
tcompens ation
thick ness
tradi us
tconven ient
napp ro
napp lied
Ã¸ r
orien tation
tVer mont
ynam ically
tcounter part
nj oint
nsmall er
tnam es
def ects
nindic ates
erm ian
tlam ination
tlam ina
tdispla yed
tprec ise
tprec ipitation
nass ump
treconstruc t
nsepar ation
nsepar ated
tarrange ments
tchalleng es
tful filled
tLine ations
timag inary
lin ic
tanomal ies
nSub simple
nCo ble
ibe ira
tbuoy ant
nramp s
tengine ers
nPe tit
nRock s
nanti form
tsumm ing
npatter n
tRes toration
noff set
tEur as
nÄ ĵ
nti p
nlike ly
imes tone
textreme ly
tIndi an
ubber t
ninvol ved
tqual i
ndiapir s
tadvan tage
tintra granular
twind ow
omechan ical
omechan ically
trandom ly
tTyp ically
nTyp ical
ncaus es
tDis placement
tloose ly
comp are
mo val
thack les
alok inetic
tcylind er
tpoin ted
trevers ed
ellip soid
texer c
tproc eed
nPer gamon
ngi ven
nLis ter
nnecess arily
tstraigh ter
nou tcrop
ndimension s
tbrecc ia
tMineral s
ncontra st
nmeasure ments
nuse ful
tsor ting
tfoss ils
tcres ts
tord ers
och oric
tSand er
tenvelop ing
nfla ttening
tMem oir
tobs tacles
tEl lip
tspa tial
nconform ities
trespons ible
rug ations
tthous ands
ndens ity
tmilli ons
oli va
texcep tion
onglomer ates
tups ide
tapplic able
nconstitu tive
texhib it
iezome ter
tVarisc an
tarbitr ary
mar ine
tinh er
tinp ut
celer ation
tmob ile
mek ite
ientis ts
taccoun ted
tJoh n
tgover ned
tunlike ly
nproble m
tRaf ael
tobliqu ity
tCarol ina
enomen on
New tonian
ail ure
loss ary
mis phere
oog le
uz z
tretri e
tbelem ni
tgyps um
tnod al
tmapp able
nTreag us
tgraptoli tes
tCarbon iferous
nHanc ock
nMcKen zie
) ?\
) /\
0 60
2 15
2 30
3 24
4 60
5 2
6 2
6 17
7 1
9 2
C leavage
D is
F old
F oliation
G ra
I S
J oin
P b
S P
S ection
T hr
V er
a i
a ff
b ro
b ased
c in
c ommod
c onstant
c rystalline
c hange
d inal
d ish
d oz
e tte
e ismic
f ill
f Ã¼
f oliated
f iel
g an
g rowth
g din
i o
i ous
i op
j oints
k nown
l en
l ook
l osing
m ap
m ark
m ostly
n q
n mon
n any
n imb
n angular
n QF
n phyllosilic
o ise
p op
p oint
p ared
p arent
r ong
r ose
s al
s ize
s pherical
s tage
s ediment
u tl
u tive
u tually
v ector
v olume
y oming
¤ \
Ã ¥
Ĩ \
ti te
ta hed
ta void
th en
th amp
th ors
th rus
th omologous
to ps
to nsh
to olites
ts ure
ts tored
ts tationary
tth ing
on ner
te in
te en
in ates
nd ynamic
al most
tf ive
tc ig
tc ot
tc old
tr ule
tr ograde
er ve
or se
en tu
en ergy
td ough
td rop
td rops
tin e
tin ents
tin tracrystalline
tin trude
es ert
es ota
tb ent
tb las
tb ag
tb lack
tw ish
tp ad
tp ublication
tp laster
tp uzz
tm ent
tm ents
tm elt
tm ullions
tm utually
an lines
le ment
le arning
ic a
tre action
tre tain
tre work
tre bound
tre orientation
he mical
is ed
is ch
la b
la tes
tu neven
ing es
ul y
ul us
ul ose
om mi
om ineralic
tis m
tis land
tis oclinal
ac ock
ac ting
ac tions
ac tly
ou rier
ou ette
tl n
tl ot
ec utive
ig ger
ig uous
ter ion
ter ran
ter ror
ter oded
tde al
ns p
ns tre
ns ens
ns everal
ns triations
ns tylol
ns andstones
ns usceptibility
oc ene
as on
tg rown
tg irdle
tal ike
tal gori
tn ice
tan ces
tT ri
tT ens
tT ullis
us p
nF irst
nF urther
nF ry
os ure
os oph
tcon vergent
tcon tinents
tex tra
tex trude
tex actly
ver ization
tas ediments
og er
og ress
ra wn
twe bs
tsh ip
tfor ced
se ts
me ters
tla ck
pe ated
nT eyssier
ine ering
tI V
tI ts
nc rack
nc hevron
tS W
tS mall
tS pherical
tS tretching
tS valbard
tse ismically
qu ations
nS imilar
nS noke
and ro
ri e
ri ll
ri els
tA P
tv an
pre c
ten ters
olog ically
ph ysical
all ing
tme te
nf abric
nf urther
nf act
nf racturing
nf luence
tpar ab
tpar tition
tpar asitic
19 51
pp sal
ess or
ess andro
las ites
tro de
il ing
il br
il osoph
np os
np osition
np itch
np oly
nC re
nC ra
nC omp
nC lay
nC ataclasis
nA d
ne as
ne vidence
ne qual
ne igenvectors
ne levated
nThe ory
tpre pared
tle d
tle aves
ound ary
tur ation
trela x
tF red
tF luid
tF racture
tF oliations
tF aulting
tF inally
tpr ism
tsim ulation
tgra bens
tgra phically
nÏ Ģ
nÏ ī
tar rest
tar ises
tar chitecture
tC an
tC rystal
tC lay
tC ordiller
tC entral
20 7
20 8
ad a
tM c
tM inn
tM ommi
nP en
nP oint
nP lane
nP latt
ab riels
nD isc
nD uplex
nD avis
nR i
nR amps
tH orizontal
tH omogeneous
tH esthammer
tcons ecutive
tus es
tG rowth
tG lobal
tG erman
tG len
tcomp acted
ttr uly
amp litude
nde forming
ng ular
ng round
ng ranular
ng ener
lu mp
tP lastic
tP lu
tP aper
nB ulletin
nB razil
nB asic
tper cent
nb u
nb ul
nb ox
nb uckling
nb asal
nb asement
nM al
nM ylonite
nM ylonites
op roterozoic
timp ure
ub ey
di lation
tne g
tB asic
tB elow
tB reddin
ip ient
ip lines
tN iger
tN ava
nw ere
nw et
nw ater
na verage
nm ylonite
nI SA
toc c
tR ich
tR igid
tR heology
tR oger
tref erences
no te
tover thrust
tover look
11 4
nG eolog
nin di
nin iti
nin trusion
nin version
nin tracrystalline
nE ff
nE ng
nE volution
nE lliott
tsta tic
tlow ers
nre activation
16 6
tco here
tco vers
tplane t
ttrans forms
nH esthammer
nH olst
nH udec
nH ubbert
tE lastic
ib er
nL S
nL e
ch fiel
tD uctile
ach ie
ach iop
nÎ ´
nÎ µ
tind ustry
nh app
nh orses
nh ybrid
17 8
tshor ter
tshor tens
13 1
ncon cept
tsub g
tsub ject
tdef lected
tno ting
ew is
tresul ted
tapp lies
the matical
nl im
vi ations
tacc entu
tcol ored
tWh ite
ric e
ric tion
tz irc
isc ent
thorizontal ly
texp osure
lec tions
trec ent
trec umbent
ide al
tdom ain
tthick ened
ack les
tdes igned
tcl osed
22 9
if ting
vid ually
tL a
tL ower
tL ayer
nk ink
30 8
tfound ation
tunder go
nN umerical
nN atural
tlith ified
tJ oint
tJ ackson
tJ urassic
tJ otun
nor ogen
tweak ening
are ous
nO ther
26 4
26 6
24 5
24 8
nr idge
nv isc
tiniti ating
tcre ation
âĪ Ĩ\
app ing
tste m
tste reographic
tste reonet
isting u
nDe f
nDe viatoric
33 6
taccumula tions
28 5
tAl ber
tAl pine
tAl essandro
29 4
35 9
tinterpre ting
nto t
nto gether
ndis placements
23 9
tsimilar ly
mod ules
tgre atest
nX Z
ill s
tfla ttens
tclass ical
27 1
27 2
27 8
tev ap
nbe nding
lo itation
34 3
34 6
nEx amples
25 3
tcontrol ling
40 7
tdec imeter
npar ameters
tspec ified
ndiff erences
36 4
36 7
tmain tains
38 0
38 1
38 2
oun ter
tbed rock
tpla ys
tsc ience
tun ately
tV olume
tsy ntectonic
tsy ndepositional
tfa int
nla w
tstrong est
197 8
ncons id
ncons tric
45 9
tband ed
nU niversity
nac tiv
edi terran
ud es
37 0
37 2
tsty les
nse qu
thard er
ull doz
imp osed
nres tored
nres training
lay ered
ntrans form
ntrans ected
ncom petent
tDe tachment
tDe vonian
tsymmetric ally
39 1
39 4
nfor ced
treve aling
nRe view
nper meability
treactiv ate
textend ing
nSe arle
ars tification
taff ects
tThere fore
tser rated
tser ious
tEx perimental
ene tic
be aring
nra tes
tpol ar
tpol ym
ils on
trema ining
tanti taxial
tanti forms
nmic a
tmicrof racture
tsupp or
ninc om
teigen vector
tZ agros
nTrans form
nco ordinate
nro of
ttex tbook
tsou th
ninter pre
ninter face
tidentif ication
ndepend ing
nne ed
196 2
nob ject
nob servations
valu able
tSe vier
tCon tinental
tassum es
ob b
verg ing
tkink ing
tGe ometric
npartic le
npartic les
tgran ite
tinters ecting
rou w
thapp ened
tfav ors
tru nning
tantic lockwise
nPh ysical
nacc ording
tstylol itic
thor hombic
npre dic
tche ck
tche mical
textensive ly
tprom oted
tportra y
tavaila bility
tDi fferential
46 1
46 2
âī ¤\
ina i
nchan nel
npor phyroclasts
tClass ic
tOther s
tOther wise
ain t
terna tively
nellip se
tintro duction
treach ing
ndep osi
nMic a
nMic rotectonics
nph ysical
tsa turation
qual ity
nMo ine
nOr thogonal
tdownward s
ucle ation
nAl so
tBy gdin
tden ote
tAr ches
tAr rows
umb ers
nBe nds
nBe nding
tcorre late
mid dle
ndip meter
tTo gether
tconven tion
nSand er
tdeposi ts
tpus hed
tinterval s
tcounter acts
tmes h
hel f
trad a
talterna ting
tSch ultz
tphoto graph
trecogni ze
tfavor able
tfavor ably
nins tance
tsuccess fully
tcyc les
tlam ella
tApp lied
nass ociated
tconfus ing
thydroc arbons
tfundamental s
tbo at
terosion al
ash t
taccur acy
tPr ogressive
tinclusion s
tanomal ous
nfluid s
nAnd ers
nPar ticle
tphylli tic
nen ough
nSte ady
tengine ering
tCh ile
nPe acock
tNe oproterozoic
dis placement
nve in
ndec re
tpul led
tread ily
tPro terozoic
naccommod ate
naccommod ated
van tage
tslic es
tbis ect
tpiec e
tvol canic
tpers istent
ninf lu
ninvol ves
ndiapir ism
tadvan tages
wed en
twind ows
tTyp ical
nApp alachian
nMineral s
tmultip lied
naccumula te
nna tural
nreduc tion
nreduc ed
ttang ent
tamp lification
thack le
alok inesis
tpoin ting
tproc edure
toverc ome
nLis le
nnecess ary
nInter pretation
nvari ous
nmag nitude
told est
tdou ble
nslick enlines
tcanop y
tcanop ies
tcomple mentary
nplot ted
tMax imum
ngo la
telim inated
ndescri bes
fjord en
ntri angle
ttrain s
tlock ed
nsuccess ively
ttempor al
tCo axial
tComp are
nconf ining
nshor ten
nresul ts
nanal ysis
nantic line
ndepth s
ntr ishear
rs lev
spac e
tfil m
tbr achiop
tTer tiary
npath s
nChris tmas
tCanyon lands
nblock s
nMe ans
naff ected
nhard ening
nrhe ologic
ngeome tries
ndiscontinu ities
nsetting s
bo ttom
tutiliz e
nTer ra
tIden tical
tAfric an
tabrup t
nJoh nson
tLith osphere
toppor tunity
nUs ing
tturbid ites
tenviron ment
Â± \
tpis ton
tasce nd
tparagen eses
nCow ard
ipi tated
nman tle
nreser voir
nlink age
taccomp an
nappro xim
tlamina e
tinher ited
Join ting
rose ismic
utl er
tahed ral
tonsh ore
teen th
tcig ar
tpad dle
tpuzz le
talgori th
ppsal a
ilbr onner
tMinn esota
tMommi o
abriels en
tNava jo
toverlook ed
editerran ean
ulldoz er
tlamella e
tbrachiop ods
( ~
( <\
) )\
2 11
2 12
4 11
5 9
6 4
6 20
9 3
9 6
A l
F olds
K inematic
L ine
P rofile
R o
S tress
T h
T ri
U K
V olume
Y oung
a Ã
a tibility
a tment
b ot
b ors
b ably
b iguous
c ore
c atter
c ons
c lass
c ambridge
c utting
d ated
d am
e ys
e arthquakes
f ts
f ting
f tening
f irst
f ootwall
g i
g u
g ed
g enerally
g reen
g Ã¥
h n
h y
h ib
i re
i as
i ot
i ans
i able
i lation
i king
j ections
j acent
k m
k y
k in
k er
k ed
k rou
l ind
m u
m ing
m und
m ylonite
m outh
m oidal
m gÃ¥
n tra
n ri
n op
n our
n ant
n ected
n allow
n ulations
n til
n value
n ormally
n tabular
n aperture
n ideal
p ill
p ective
p it
p ass
r asion
s u
s tructures
s tones
s elf
s tiff
s Ã¼
s ystematic
t tas
u f
u ture
u las
u ps
u nch
u niaxial
u ille
u ghness
v ation
v ans
v ale
v iscosity
v iscous
v ada
w in
w idening
y me
z es
z ero
§ u
« \
Ã §u
ti an
ti ble
ta ting
th alt
th ands
th ook
th olds
th uge
th rown
th ybrid
re l
re y
re pres
re vers
re member
to ve
to uring
to res
to matically
to oids
ts ort
ts tability
ts inking
ts tocks
ts tops
on t
on om
te t
te ver
te mb
te mpor
te ye
in o
in ites
in iscent
nd one
nd ry
nd issolution
nd rawn
al th
al bot
tf ans
tf lu
tf lan
tf jord
tc ra
tc ount
tc alls
tc last
tr ou
tr im
tr ang
tr Ã¶
er ick
er ies
td y
td ol
td ynamically
tin olite
tin valuable
ar ps
tb are
tb order
tb ulldozer
tw ave
tw ard
tw arm
tw ants
tw heel
tw rong
tm ol
tm ere
an z
an mer
le ttin
ic ul
tre ne
tre ading
tre oriented
is er
is matic
is tence
la se
la ting
la ced
tu ri
tu nrelated
tu nloading
tu nrealistic
tu nknow
tu nfractured
tu nconformities
ed ge
ul verization
om ino
ol ling
ol lover
tto r
tto ughness
ac Le
tor able
ou by
ou krou
tl ist
tl unch
ter ated
ter dam
tde pression
tde als
ns ur
ns im
ns yl
ns till
ns olution
ns ingle
ns liding
ns trong
ns ince
ns elf
ns inistral
ns tick
ns traight
uc osomes
tbe ar
oc hron
as atch
aul ted
tg ap
tg ain
ton line
ur able
ur ities
ur vey
tic a
im ations
tn ine
li e
li des
tan imations
tT ur
tT ex
nF er
nF le
nF abric
nF rictional
nF ailure
os ities
tdi ameter
ce land
tcon duc
tcon du
el ly
ver pit
tas then
ion s
og arithmic
id dle
ra pped
ra ditionally
ra Ã§u
ro tated
twe b
twe alth
tmo tiv
tby pass
se vier
me tamorphosed
tla s
tla vas
tstrain ing
pe tency
nT wiss
nT emperature
nT rouw
ine ers
nc ore
nc ould
nc omb
nc limb
nc racks
tS yste
tS traight
tS wiss
tS oliva
tS urvey
tse tup
tse lection
twh ite
qu is
nS an
nS me
nS tratigraphic
nS tylol
nS ibson
lip pe
and ing
ap ed
tform er
ri te
ri entation
tac ted
tac ous
tac tinolite
tA ss
tA na
tA nalysis
tA tlas
tri al
tch er
tch es
tch ance
tdis tinc
tdis appe
um ent
um ont
ten tries
ten tered
ph i
all enge
tme et
tme tasediments
nf rac
nf ind
nf irst
nf eatures
nf aster
nf ocal
nf requ
nf lat
nf ollow
nf riction
oin ted
19 30
so ftening
tres ist
tres istivity
tres istant
tro om
tro ad
nth in
nth en
il ot
il ds
il verpit
np ore
np oints
np ole
np aper
tdiff raction
tdiff use
tdiff icul
low er
nC or
nC os
nC ross
nC ylindrical
nC PO
nC hevron
nC learly
nC anadian
nC hannel
nC obb
nA ms
nA perture
nA dding
ne aling
ne very
igh ts
igh bors
nThe oretical
tpre ss
tpre ced
tpre tectonic
tpre vents
ound ed
tmod ification
tF oliation
tF ry
tF ibers
tpr isms
tpr ismatic
tes c
tes pecially
tIn ter
han ian
av y
tTh at
ni pe
tC ap
tC hapter
tC ompaction
tC ambrian
od ynamics
tW arm
tW yoming
tab rasion
ad i
tM on
tM es
tM uch
tM odel
tM ises
tM agnetic
nP re
nP ull
nP lanar
nP oly
nP rice
nD es
nR amp
nR ies
nR ole
nR everse
nR ifting
ile y
tH is
tH uber
tH obbs
tk arstification
tcons er
tcons tantly
tG ive
tG oogle
per meability
tcomp any
tcomp ass
tcomp acts
ttr ying
nde term
nde xtral
nde veloped
ng re
lu nge
tP ressure
tP lotting
tP ermian
nB r
nB y
nB re
nB ould
nB ranch
nB oudinaged
nB utler
de formed
nb asin
nb ranch
nb oudinaged
nM in
tda ys
op iezometer
timp urities
ub ert
di agonal
tne twork
tne tworks
tne gligible
tinc ipient
tB r
tB ack
tB oudinage
tB lack
tB oundary
tob eys
mon d
tinter lock
tN on
tN ot
tN ord
tN atural
nw as
nw eld
nw hether
nw idth
nw edge
tj uxtap
tj elly
na u
nI s
nI ns
nI nstead
nI nfluence
toc tahedral
ula tory
ula uf
tR en
tR ose
tR amps
tR ykkelid
ary ya
11 2
nG r
nG ulf
nG lossary
tmin es
nin es
tel se
nE rslev
tif ic
tge ographic
ttle ton
nre leasing
16 4
tco ex
ttrans current
ttrans posed
ttrans parent
nH a
nH yd
nH uismans
ori es
tqu adratic
edimen tation
tE ng
tE arly
ib bs
nL ong
tam biguous
nW ith
nW orld
nW ilson
ttectonic ally
18 6
tD a
tD el
tD esert
tD asht
15 3
15 9
nh al
17 0
rac es
tund ers
tbas alt
press ed
13 3
ncon c
ncon tains
ncon vergent
inc re
tsub ordinate
tsub jected
tsub ducted
tsub marine
tdo i
tph enomenon
tno ise
ew ey
tapp ara
the ave
the misphere
14 0
14 2
14 4
14 6
14 8
lec ting
lec tive
trec ording
trec tangular
trec ently
trec iprocal
nn appes
nn umerical
tdom ing
tthick est
ymme trical
apir s
cri p
ters ections
tgeolog ical
tparallel s
if ic
tO c
tanal ogy
tass igned
tL u
tL oc
tL ab
tL ake
tL ewis
tbound ing
tconsid ers
tfac es
nex per
nex isting
nex trusion
nN ors
nN abarro
ove ment
tU niaxial
tU pheaval
tU ppsala
nIn tersection
tlith ological
tvari ables
ros ion
tgener ating
iss ers
tcirc um
tweak ened
nO ur
tend s
tWe t
tWe ak
tillus trating
ogra ph
nv is
nv aries
nv ariation
nv iscous
tthickness es
ea umont
anc ake
nsh arp
tou tline
tou tcome
tour s
33 5
tins ights
tach aryya
28 8
qui valent
tAl leg
29 2
29 7
tcontinu ally
nK ink
nK nowledge
nK nipe
nto tal
ndis tinction
ndis junctive
olds tein
hip ton
tblock y
tsimilar ity
tgre w
tgre en
tgre atly
ex cept
tinf erred
treduc ing
tcor rectly
tclass ify
27 5
27 6
tconf usion
nte cton
nte ardrop
tductile ly
nTh us
nTh ick
cep table
tsubs ide
tsubs titu
34 2
25 1
npr ograms
40 3
40 4
erstand ing
tdec ide
36 1
36 5
36 6
38 3
38 6
trans pression
nV iscous
nV eins
tima ted
tsc aling
tdistribu tions
tV ol
trigid ly
nla ter
tdimension less
tsand w
tRe member
tRe lative
trem ark
trem nant
trem iniscent
it ting
tknow s
ains t
man n
ngra dient
37 3
37 9
ttw isting
ttw ice
ttw inned
ttop ic
ncomp onents
tsimp ler
nge ologists
nres idual
nan nealing
twork ers
ntrans tension
ntrans current
ntrans port
tK inematic
tK ink
tK elvin
tdeterm ining
tDe f
non ym
tdri ves
tadd ress
39 3
39 7
treal ize
tindi vidually
tinte gra
nper manent
nper iod
nper meable
tfail s
nWh y
treser ve
npro bably
npro jections
nwith out
taff ecting
tstratigraphic ally
thand le
ndifferen tly
tAnd es
hth ons
ings hear
tenti ally
tag o
thyd rofracturing
trhe ologic
arch ini
ttotal ly
vious ly
nra ndom
100 0
nch o
nch allenge
nmic rotectonics
tview s
tstri king
tSome times
nform s
wh ite
nover lap
ath yme
ttra ils
ttra pped
ttra ditionally
tGeolog isk
nqu ick
trac ting
sequ ent
sequ ences
nTrans current
tsteep est
nro tated
titu des
tmodul es
tidentif ying
tmulti layer
tmulti layered
tdefin able
ndom ains
nne ighboring
ron tal
tmig mati
nob ser
tremo ving
tCon sequently
nDi ffusion
noc eanic
ob ile
tMa ke
tMa erten
tMa thematically
tfar ther
tclos ure
npartic ular
tcut ting
nSc ience
tarc s
tarc tica
tRock ies
00 1
yllosilic ate
now ing
tpe ak
tdeep est
tyield s
nax es
nax ially
taccommod ation
tmagma tism
rou ps
nreg ional
nsedimen tation
tcompress ed
thelp ful
nar r
npre c
npre vious
nSch istosity
nSch olz
nSch ubert
tphyllosilic ates
tcolum nar
nincre ases
nincre ased
âī «\
tcoun ting
nad dition
nad jacent
tslow ly
tintro duce
tprac tically
nexp l
nexp osed
tAnderson ian
nph ase
nph yllitic
work ers
toper ative
tput ting
tsof tware
nOr ogen
nvolume tric
lif y
tplu g
nAl though
nMa trix
nClass ification
nAll mendinger
nBe fore
tmon i
tmon omineralic
nSy nthetic
nSy ntaxial
tcompa tible
nGra vity
tmicro resistivity
tmicro defects
texperien ces
nle ast
nlith osphere
tuncertain ties
tdev ice
tdev ices
talloc hthons
tnarrow er
nCh aracteristic
nCom mon
tcover ing
tcounter act
tdetec t
nsyste m
tsharp ly
tCom petent
nindic ate
nindic ating
tregular ity
fold ed
tsuccess ively
alach ians
tpos torogenic
tnucle ate
tdispla ced
tdispla cing
ttigh ter
tstep over
phyrob last
tconfus e
nsepar ate
nrelative ly
treme ly
nsc aling
ncri terion
ncirc ular
ncirc les
taccur ately
nCol lision
nCol lettin
tCPO s
ndef ined
nEl lip
nEl sevier
tanalog s
tLine ar
tvisual ized
tpenetrative ly
tau tochthonous
tau tomatically
tspe aking
twri te
tstretch es
ille fjorden
nCo axial
nWal lace
tsubdi vision
tphylli tes
tsketch es
tuncons trained
tTrans pression
nSte reographic
nSte wart
tengine er
tmeas urable
195 9
recc ia
tNe vada
nanti thetic
tconcer ns
dis location
arr is
treorgan ize
tgro ove
tground water
tMic ro
trefer ring
tcollaps ing
tmicas chist
tmicas chists
nperf ect
)/ (\
com pressive
lose ly
van ia
tfas cin
tbis ecting
tIndi a
tSy nthetic
ninf luence
tstatis tical
ttransm issibility
nLith ostatic
nLith ospheric
nlocal ized
nup lift
nconsider ably
ttunn els
nTyp es
ttecton ometamorphic
tFold ed
nMechan ical
tachie ve
tload ed
tmultip lication
tmesos cale
eed er
ttang ential
tamp litude
temp ir
tcylind ricity
nsu per
ngi ves
tPh oto
tperturb ed
tperturb ation
tobli terated
toverc oring
tcoar ser
tcrystalliz e
tcrystalliz ation
tsynform al
tantiform al
tspreads heet
npe troleum
npres ented
tdou b
tImp ortant
nfib er
npop ulation
npop ulations
nAx ial
tMe asure
tMax well
tmicroc rack
tmicroc racks
nOb servations
tsuper imposed
tpoly gonal
nMicros copic
tquanti ties
Ex tension
tsidew ays
ndo i
tce ment
ttempor arily
nCri teria
nbur ial
nbur ied
nmig ration
nmig matitic
nrequi re
nrequi red
nresul ting
ttunnel ing
tmacros copic
fluid s
vari ants
yr mekite
tsw itch
tintr uded
tbul k
tpill ows
nstud y
tgroup ed
texam ination
nCaledon ian
nCaledon ides
nBur g
nBur chfiel
tRo tation
nrele vant
nconn ection
tOver pressure
tUnd er
nVer tical
teclog ite
nsubs idence
ncollision al
tmonoc linic
nElong ated
For ward
hat tacharyya
ij m
lusion s
nap ophyses
nsme ar
nclass ic
tSp ain
nDip meter
tPale ozoic
ttil ted
tquar ry
tEn trada
tinsp ection
nReg ional
obar ometry
nag ainst
teresting ly
tcard s
tpump ed
tudi es
nspec trum
tshif ted
nTens ile
nposi tive
tFran ce
tContinu ed
tWal lace
tconsis tency
nBer lin
nmod ulus
nintra granular
tgeosc ientists
nconcen tration
tclays tone
tassembla ges
tequi valent
tresemb les
nassump tion
tquali tatively
tproceed s
tbelemni tes
nimb rication
oise uille
thamp ered
orse tail
tnice ly
trode form
tFred erick
nDisc rete
lump ing
tPlu ijm
tocc up
nhapp ens
tzirc on
tLa tin
istingu ish
tAlber ta
nconsid ered
nactiv ation
nneed ed
ndeposi ted
nAnders en
taccompan ied
talgorith ms
aÃ Ń
hn ically
mgÃ¥ rd
ttas k
repres ented
inites imal
trou tine
trang es
trÃ¶ mgÃ¥rd
tdol om
tbare ly
tmere ly
trene wed
tunknow ns
acLe od
oukrou ne
nsyl vania
nCobb old
nAms terdam
nBould er
tinterlock ing
tcoex ist
tappara tus
nNors k
tAlleg hanian
tremark s
nCollettin i
tfascin ating
! \
% ,\
% .\
% )\
( >\
- )
- ',
/ (
/ (\
0 1
1 20
1 200
1 204
2 33
3 19
3 10
3 15
3 22
3 23
4 26
4 25
4 45
4 39
5 8
5 35
5 97
6 15
6 38
6 47
7 2
7 6
7 21
8 00
8 51
9 15
9 24
A R
A c
B rittle
C PO
C aff
D ip
E l
G e
H N
I ma
J B
J oints
M I
M ic
M ap
N on
O r
P ar
P assive
R es
R ec
R ight
S lip
S EM
S tep
S SF
S eismic
W hat
[ (\
a tu
a res
a fter
a turally
a terson
b a
b ar
b all
b ble
b uckling
b elow
c a
c al
c an
c ence
c irc
c lose
c ontinuous
c ured
c luding
d ins
d ial
d ashed
e in
e mp
e ting
e ep
e ffic
f la
f racture
f ectly
f eldspar
g y
g en
g ro
g all
g ree
g ill
g inning
g ration
g lide
g roove
h a
h ow
h ill
h omogeneous
h ste
h ood
i ar
i ro
i lip
i ting
i ph
i pp
i red
i tne
i tly
i ft
j ec
j tal
j oint
k u
k ins
k ilome
k rift
l us
l igh
l ight
l osed
l ination
l imp
l arge
l son
l orite
m ed
m ically
m ill
m ineral
m entation
m arg
m oric
m issibility
m obile
n Q
n ts
n ver
n ther
n pp
n tension
n ase
n tang
n eng
n ight
n vol
n traction
n enc
n arrow
n juxtap
n tness
o v
o la
o ol
o ple
o jtal
p l
p ed
p age
p ath
p assive
r ys
r igid
r regularities
s tr
s or
s tand
s id
s ub
s ch
s mall
s olution
s trong
s lope
s traight
s tances
t tac
t tv
t tar
t vel
u ide
u ilding
v ent
v ection
v ang
v ance
w et
y ield
z able
z nir
| ,\
¦ r
Ã ²
Ã ¦r
ti ty
ti tial
ta ir
ta per
ta ils
ta kin
th in
th at
th ree
th our
th inning
th its
th oles
th int
th ouse
re ne
re verse
re enschist
re tt
to g
to od
to mic
to phi
ts pla
ts tone
ts ink
ts tir
ts olved
ts olutions
tth ins
tth umb
on ke
on ni
on ny
te ar
te ase
in th
in ted
in nmark
in tersections
nd a
nd ome
nd uplex
nd ahl
al la
al ity
al ina
al ae
tf l
tf ore
tf lin
tf inally
tf uture
tc a
tc av
tc ater
tc umbers
tr act
tr ows
tr ubber
tr homb
tr isk
er a
er le
er gh
er voir
tion ally
or st
or atory
or inth
en ter
en oc
en tations
en tially
en eath
td ate
td ates
td educ
tin ward
tin ser
tin vestig
es tions
es tward
ar ound
ar st
ar tph
ar rie
tb od
tb rough
tb eneath
tw al
tw ar
tw ise
tw elds
tp ec
tp ap
tp age
tp igg
tp ilot
tm im
tm ix
tm ullion
tm ush
an line
le ag
le vel
le vant
ic ture
ic tic
ic ian
tre w
tre in
tre tains
tre arr
he im
he ld
he ets
is ter
is ite
is ecting
is tribution
la in
la ture
tu nfolded
tu naffected
ing en
ed t
ul ff
ul ites
om enc
om orph
ol t
ol ic
ol ans
ol yc
orm ous
ss e
ss krift
ac ity
ac cur
tor ange
tor gan
ou ges
ou thwest
ou pling
tl ost
tl isted
ec k
ec hste
ow l
ow an
ns um
ns tatic
ns itu
ns imp
ns tiff
ns chist
ns laty
ns outhern
ns ource
ve ins
tra yed
uc e
uc hed
tbe ll
tbe ars
tbe au
tbe ginning
oc line
oc ities
oc lase
as tom
aul tFold
tg limp
tg ouges
ton ell
ton going
ur a
ur p
ur y
tal ign
tic es
tic les
im ag
im ps
ted if
li ver
li ff
li est
li hood
tan ts
tan tial
tan astom
tT or
tT id
tT od
tT eyssier
tT raditionally
us ts
us ual
us znir
nF our
nF inally
tdi es
tfr inge
tcon version
tcon forms
tcon verted
el ocity
tex trap
twi re
tas ide
ge ologists
ge ku
id a
id d
ra d
ra y
ra in
ra nd
ro om
tdeformation al
ock ed
tmo bility
tstress meters
tfor cing
me asure
me ida
tla ser
tla nds
tla titudes
pe ak
nT od
nT ab
nT ang
nT app
nT albot
twith stand
tI ncreasing
tI celand
nc our
nc are
nc lockwise
nc ataclasis
nc ylindricity
nc onglomerates
nc hemical
tS tand
tS ol
tS teff
tS ons
tS tate
tS urface
tS omer
tS tructure
tS lick
tS edimentary
tS triations
tS ediments
tS SF
tS inai
tse ism
tse mi
tse lected
nS E
nS ta
nS ol
nS tate
nS inistral
nS trength
nS edimentary
nS GR
nS cotland
nS econdary
nS tipp
nS weden
nS ilverpit
nS hipton
nS trÃ¶mgÃ¥rd
nS imps
tte sting
tform ulated
tform ulas
tac celeration
ir th
tA d
tA m
tA ydin
tA dding
tri ver
ll on
tch am
tch ert
tch lorite
pre ading
tdis ad
tdis turb
tdis junctive
um ed
ten ed
ten vision
ten ormous
tfrac tal
ph oto
tme t
tme ta
nf ar
nf av
nf am
nf inal
nf undamental
nf law
nf loor
nf oliated
tpar autochthonous
19 34
19 00
ma ins
ma de
ma ximum
tro des
tro oted
tro physical
nth us
nth row
nth rown
il ve
np o
np ale
np ub
np ull
np laster
np rofile
np lumose
np enetrative
np ush
np urp
nC rystal
nC hap
nC alc
nC omb
nC reep
nC alifornia
nC hange
nC ontinuous
nC onsider
nC leg
nC ordiller
ke y
ke tching
ien na
nA re
nA nn
nA fter
nA nge
nA ssociation
nA nisotropic
nA ngular
ne ach
igh tness
tpre ven
tpre requ
tle ucosomes
trela ting
tpro tom
fac ies
tF ar
tF orm
tF eldspar
tF racturing
tF ourier
tF innmark
rec ambrian
tIn formation
tIn tern
han ce
av ily
av ie
two od
tTh in
tTh ick
tTh row
ni ted
tar ting
tC ross
tC alc
tC oun
tC ambridge
tC hevron
tC ataclasis
tC onglomerates
tC SP
tC orinth
od in
20 12
tW ing
tW ales
tW asatch
tW iley
tab normally
ad r
ad ran
tM arg
tM ylonites
nP ress
nP ark
nP ublication
nP encil
nP lotting
nP lumose
nP enetrative
nP seudotachylyte
nP oiseuille
nP aterson
ab bro
nD ynamics
nD ahl
nD ewey
nR igid
nR aw
nR ykkelid
nR ubey
gh t
tH all
tH ans
tH anging
tH yd
tH inge
tH ossack
tH olst
tH udec
tH uismans
ale igh
ag er
tcons tants
tG re
tG ranular
tG roup
tG IS
per manent
tcomp ly
tsurfac ing
ttr action
ttr ack
ttr acks
ttr unc
ttr igger
nde x
nde ep
nde aling
nde tachments
nde viatoric
nde lamination
ng row
ng lide
ng enerally
ng roove
ng neissic
lu de
lu ntness
nthe oretical
tP oint
tP encil
tP recambrian
nB ecause
nB orehole
nB uckle
nB ackstripping
nB eaumont
nB hattacharyya
ard ed
tper cen
tper forming
tper iph
red ic
10 1
10 37
tax ially
de tachment
de tached
nb ro
nb and
nb elt
nb uckle
nM i
nM on
nM ax
nM agnetic
nM ullion
nM editerranean
op y
timp ose
timp lic
timp lied
tne ither
tne ighbors
cur s
tinc ons
tB as
tB illefjorden
tB uilding
tB ergh
nJ ol
nJ am
nJ ones
nJ uxtaposition
tsome how
tinter granular
tinter limb
tinter actions
ip lanar
tN ame
tN appes
tN abarro
ree mer
ree man
nw ing
nw ays
nw indow
nw rapped
nal though
na way
nm o
nm ud
nm edium
nm ylonitic
nI ma
nI den
nI ncre
ula tes
tR he
tR oy
tR ibeira
tflow er
term ination
no per
tover turned
11 8
11 23
nG ranular
nG eneral
nG neissic
nG abrielsen
nG ibbs
nG oldstein
nG odin
aus ted
tmin ds
nin te
nin verse
nin dependent
par ing
par ation
12 31
treg ularly
nE ur
nE din
nE quations
tsta tions
tif ied
tlow est
tge ophysical
nre li
nre ad
nre st
nre fer
nre pro
nre active
nre ason
tco ast
tco ales
tco ols
tli fe
tbec ame
duc ation
tthere after
ttrans ect
ttrans lated
ttrans tensional
nH anging
nH alf
nH oll
nH andin
nH obbs
nH arding
nH sÃ¼
nH anmer
nH arris
nH olt
ak on
tE lliott
tE rosion
tE ducation
ib r
ib s
ib asin
nL ocal
nL istric
nL oading
tsp an
ch n
ch en
nW at
nW et
nW hether
nW ojtal
tso ils
tellip tic
18 9
tD isc
tD ep
tD ata
tD raw
tD Ã©collement
tD EM
ens ter
ange ment
15 65
iti zed
velop ing
nÎ ·
nh ole
nh armonic
nh alokinetic
nh inges
nh ackles
17 2
17 4
17 69
17 82
rac ted
rac tals
tshor tly
tund ulose
tup thrown
13 6
13 8
ncon tact
ncon dition
tgeome trical
tsub pop
tsub class
tsub sequent
tcontr ary
tcontr acts
tno tation
gra phic
tapp s
tapp are
the aling
nl imb
nl istric
nl imestone
nl ogarithmic
tcol leag
ric hed
tz er
isc he
isc oelastic
texp onent
texp loitation
14 3
14 9
lec tron
ndi kes
ndi agra
ord inary
nn appe
nn arrow
nn ecking
tim mobile
tindic ation
tindic ations
tdom ed
den se
tdisc overy
tdisc iplines
ond heim
ense ly
tcl oud
tmic roseismic
ue gu
tdiag enetic
cri bed
tpartic ulate
loc al
tO u
tO ur
tO pen
irc led
tass im
vid es
tL S
tL ater
tstate ments
lic t
lic ity
nk ilome
nk nowledge
30 4
tfac ts
tuni vers
nex pression
nex ceed
nex ternal
nex humation
nex pressed
nex tremely
nN W
nN appe
nN Ã¸
nN arr
tprocess ed
res olution
res trial
ove red
tU nlike
tgi ving
tcrystal l
nIn formation
nIn version
nIn troduction
nof ten
tvari ed
tJ an
tJ onny
nor thorhombic
iss ors
ies t
lan et
ylon itization
teff ectively
tweak est
are as
por tional
ran es
ran ite
tseismic ity
26 7
tequ ant
tend ed
nr ingshear
nv an
nv ectors
tvisc osities
co tte
teas iest
tNor thern
nsh ort
nsh aped
tou tput
tta pe
tta il
tdra matically
nDe tachment
nDe tachments
nDe termination
33 1
tcore d
tins tability
tplate au
tAl to
tAl mograve
tAl ternatively
tAl meida
nK ra
nK imb
nK night
nK usznir
nu nit
ndis aggregation
tmeasure ment
verse ly
treac ts
tconn ectivity
tmarg inal
ex pla
tinf lection
tlike lihood
tstra nds
tmylon itized
nis ostatic
nis ochoric
tfla kes
tcor rec
tcor rug
rystalliz ing
27 4
tpres cribed
nbe nd
nte ll
nte chni
yd ay
nBox es
atac lasites
ia o
tsig na
25 0
table t
npr onounced
rof essor
tdec ays
tdec ade
tdec lination
tmean ings
npar ts
tspec ially
36 3
trans lation
nV iking
nV ienna
nV iscoelastic
tele mentary
tsc ra
tsc rew
tsc anning
tsc arps
tsc issors
tun achie
tun usual
nwh at
bur ial
bur gh
tV al
tV iscous
Ã© m
tsand box
tneed les
tRe activation
ncons truc
ncons ists
tcross ed
tcalc ulation
tcalc ulating
tcalc areous
tcomplex ity
tcomplex ities
nas pect
round ed
tAn ti
45 0
45 1
45 8
nma in
tbel ong
tprop osed
nU p
nU pheaval
nac tual
ud mund
ud gill
tval id
nZ agros
nZ ulauf
und er
tsecond s
tsecond arily
trif ted
nme ter
nme tamorphism
nme tamorphosed
alanc ing
ngra d
ngra ined
ngra vitational
37 8
60 8
nx y
nse ts
nse al
nse arch
nse gments
ncomp ens
ncomp osition
ncomp uter
ncomp atibility
tsequ entially
tsimp lified
tsimp licity
nge omechanically
tthrus ted
nres istant
coaxial ity
nan ts
other mal
twork ing
ntrans formation
ntrans ition
ntrans position
tK nowledge
tec centric
tec onom
ner osion
ned ge
ncom pletely
tDe ad
tstar ting
tfew er
tman ual
39 0
39 5
tnor thwest
nfor ces
nfor tunately
tY ou
tlink ing
tlat tices
va tures
va tive
testim ation
50 3
treal m
treal ity
nAn tic
nRe lative
nRe moval
tEarth qu
tindi rectly
of tware
tinclu ded
igen values
inter pre
inter tectonic
tseg mentation
nSe vier
tcertain ly
treser ved
npro duc
npro late
npro tolith
elds path
enc ils
tget ting
tser ves
tser pen
nCon ven
nCon centric
tEx tensional
ulti ple
tasymmetric ally
44 3
44 6
44 8
tpredic tion
tprof ess
thyd rofractures
tcle an
trhe im
trhe ologically
nra dial
trestric tions
tanti listric
arthqu ake
nch osen
nch ocolate
nFor ces
tSc hematic
tmicrof olds
tsupp ly
tstri kes
ninc orporated
ass uming
ttre nding
trol es
trol ler
trol lover
nsub surface
tactiv ates
nover all
nover lying
nover printing
nGe iser
nGe odynamics
tangular ity
cop y
ny oung
tZ e
tZ ones
ttra p
ttra vel
nqu ite
nqu arter
nqu estions
trac ataclasite
tregard ing
ttex tbooks
arb y
tpo tentially
ninter action
ninter val
ninter ference
ninter granular
tcollec ting
tidentif iable
tallow ing
ndom ainal
resp onds
nne ar
nne ver
nne gligible
ttri lob
tmig rate
196 1
196 3
196 4
196 6
196 9
nDis tribution
nDis aggregation
nob late
nob jects
nste ep
tCon traction
tCon cepts
tCon touring
tCon versely
nDi apirism
nDi apirs
tapproach ing
tirregular ity
ob late
tdecre ased
sh ape
sh allow
tter restrial
tter ranes
tvary ing
tMa terial
tgneiss ic
rag ments
tclos ing
npartic ulate
Qu arrie
con nected
ttur ning
nsy nkinematic
nsy ntaxial
nSc andinav
tyoung ing
tyoung est
00 0
tgran ulites
tglac ial
tinstantaneous ly
undred s
nrec onstruc
nrec umbent
nrec iprocal
tred dish
tred istribution
lith ostatic
nthick ening
tinters ections
topening s
tapproxim ated
rou sse
tsla bs
tstiff er
tstiff est
tru ding
tmajor ity
nPh yllitic
nPh yllosilicate
nreg ardless
nreg ions
nreg arded
tdescrip tions
tstylol ite
thor pe
nsome thing
nsome what
tcompress ing
nar c
nar rest
oy ancy
tther mod
texh austed
nSch midt
tabs ence
tDi rect
ttension al
tindica tor
Re lated
tcoun try
npor phyroblasts
npor trayed
tMechan ically
nrepres ents
tcurv iplanar
nparallel ism
tindepend ently
tenc ou
nAc cording
tHe ard
nellip tical
nellip ticity
nad vantage
tslow est
nmicros cale
nmicros tructures
nph ases
nph oto
over pressure
toper ating
tfe el
tworld wide
treli ability
nMc Caff
tanaly tical
tanaly zing
mphas ize
ogni zed
tcompe tition
nSome times
tcho ose
tplu nge
nAl ways
nAl most
nAl mograve
tGra ins
tGra ham
nMa terial
nMa thematical
texplore s
tden otes
nSh ale
tAr ch
tAr cs
tconstitu ent
tNew tonian
ttransformation s
aw thorpe
tconven tions
neff ects
nMar rett
nGra ham
ncompaction al
47 6
68 4
nlith ification
Ã¸ y
temphas ize
temphas izes
temphas izing
tfam ily
tcub ic
nfield s
nCh ilds
nCh oukroune
nCom pressive
nCom petency
nPlastic ity
154 9
berg en
nrotation al
telec trodes
tfill ing
tder i
nsw ers
nsyste matic
textr usive
textr uded
nRes idual
nindic ated
trecogni tion
trecogni zable
lob ally
tsuccess ion
tsuccess ive
tprec ipitated
treconstruc ted
tpass es
tchalleng ed
nterm inology
rock s
tcap ture
tcap acity
nsc rew
ndef ine
ndef inition
tPr incipal
tPr imary
tquick er
nhyd raulic
nhyd rofractures
ncharacteristic s
tScandinav ia
theterogene ity
tvisual ize
tQu aternary
twri ting
tpub lications
tul timate
tanomal y
ncor responding
ncor rugations
ncor responds
nCo hesive
nPar allel
tsplit ting
nWal ker
nelong ate
tslick ensides
nen ergy
nim por
nim ages
trig s
tTrans form
tcontribu tes
tCh ina
nQu aternary
tsumm ari
tsumm aries
tsquee ze
tsquee zing
ndec omp
tpul se
tpul ling
tmountain ous
tread j
activ ated
tenter ing
tMic a
tPro ject
noff shore
nopposite ly
nHe ard
nHe terogeneous
nHe ilbronner
tOr ogen
tReg ardless
ndomin ant
)/ (
for ce
nir regular
nir revers
tinde ed
tsm artph
tbis ected
lace ment
imes tones
tIndi vidual
tPar adox
tpers pective
nModel s
ttransm it
ttransm ission
ttransm itted
nLith ology
nlocal ization
nOver lap
nOver printing
nOver coring
tnumb ered
nprogressive ly
nconsider ation
nresp ect
nresp ectively
tpeb ble
ncaus ing
ncaus ed
ttecton ites
tCre us
nMechan ically
nMechan isms
nmean ing
nweak ness
nweak ening
naccumula tion
95 9
bed s
mo ved
nna ture
Ã¶ r
temp laced
trevers al
nsu gges
texer ted
rotation al
tAc cording
nPer fect
tversion s
tcrystalliz ed
nvari able
tstraigh tforward
tsynform s
tcoinc id
ntw in
npres ence
vas ive
temer ge
ndimension less
tcou pling
tbrecc ias
nshe et
nshe ared
nshe ath
nspac e
nspac ing
nspac ed
nslick ensides
tgu ide
tgu ides
nFluid s
tcommun ity
tImp lies
ncen trifuge
nfib ers
nfib rous
nAx en
tconstric tion
ngo ing
nBalanc ed
nmapp ing
tminib asins
telim inate
tsole ly
ncontra sts
tsuper position
tinfinite ly
tpossib ilities
ttopographic ally
tbacks catter
nMicros cale
nMicros tructures
tintense ly
tquanti ty
ndescri bed
Con jugate
ntop ics
similar ity
tsor ted
tsidew all
tevol ving
ndo es
tfoss il
trough ness
texc iting
texc lus
nSo ft
nCri tical
tlet ters
targ on
targ ue
tMem ber
nPor phyroclast
tPer haps
tPer fect
tobs cured
tNo va
tslipp ing
tslipp ed
tslipp age
nmark er
nmark ers
tRec all
tweakness es
nmaterial s
nunder lying
tmacros copically
niden tical
niden tically
De formation
De tachment
ntr ue
ntre ated
sp lit
yr vang
ndown building
tcell s
tintr usive
tpack ed
tpack age
tpill ow
tmass es
tshr ink
tshr inking
ncur ved
tSta toil
tSta tfjord
nfac ing
nfac tors
tRi ft
nrele ase
nLayer s
nWell man
nloc ations
tUnd erstanding
ngeome trical
teclog itization
ncompression al
tadjus tments
nAnderson ian
trepro duced
trepro duce
igg s
tTr ishear
mag nitude
nglac iotectonics
nback ground
timpro ve
timpro ved
nmarg ins
ttil ting
tquar ters
tOb viously
nexpla in
tlongitu des
tlongitu dinal
tReview s
ncompar ison
nReg ardless
nProcess es
obar ometric
tquantif y
Di apirism
Sc ience
mig rated
nta ken
nappe ar
tipp led
tstand ard
ndri ving
tdow nthrown
trep ose
talter ation
nTur cotte
nSlick enlines
nfe el
nCur rent
tlear n
tlear ned
tlecture rs
tMor ales
nReduc tion
direc tion
direc ted
nmulti p
nIdeal ized
toverprin ted
tphys ically
tdestruc tion
tdestruc tive
nNor wegian
nVari ous
nsee ms
nAnti thetic
tagree ment
nsynform al
tintroduc ing
tfeed er
Ã¸r nes
nantiform al
tEuras ian
tEuras ia
texerc ises
tEllip se
tretrie ve
Dis placement
Thr ust
Ver lag
commod ation
fill ing
fÃ¼ geku
nphyllosilic ates
thrus ts
trework ed
trebound s
isch er
tuneven ly
nsens u
nstylol itic
tTri assic
tTens ors
nFurther more
twebs ite
tmete or
tparab olic
tpartition ed
ilosoph ical
npoly phasal
nCre taceous
trelax ation
tCordiller a
nPen nsylvania
nbul k
nindi vidual
niniti al
nintrusion s
tElastic ity
nLe ft
tsubg roup
taccentu ated
norogen s
nvisc oplastic
tevap orite
nlaw s
nconstric tional
nsequ ences
nReview s
tpolym ictic
nincom pressible
ninterpre ted
ndecre ase
ninflu enced
mu tative
pill ar
temb races
tflu vial
tcra tonic
tdy ne
tborder line
tmol ten
ttor n
nsur round
nsim ultaneous
ochron ology
tgap s
tnine teenth
nFle tcher
tcondu its
raÃ§u aÃŃ
tweb page
tmotiv ating
ncomb ination
tSyste m
quis ition
nSme aring
tacous tic
tdistinc t
tdisappe ars
nfrequ ency
nfollow ing
nCos gro
tpress ur
tpreced es
tesc ape
adi ometric
nBr un
tjuxtap osed
nhal ite
tunders tood
nconc er
tLab oratory
tcircum stances
nvis ible
tgreen ish
ntecton ometamorphic
athyme tric
narr anged
tPhoto graphic
troutine ly
HN F
atu rated
dins en
effic ients
ilip p
itne y
kilome ter
moric an
nver tically
nther m
nase ismic
njuxtap osition
ov ician
rys ts
str om
sor ted
ttac onic
ttv edt
ttar ge
tvel ocities
taper tures
tstir ring
onke e
onni er
tear liest
alae ostress
tflin ty
tcater pillar
tcumbers ome
enoc rysts
tdeduc ed
tbod ies
tbrough t
tpec ul
tpap ers
tpigg y
tmush room
omenc lature
olans ky
olyc linal
echste in
aultFold Forward
tglimp se
tonell ini
imag inary
tedif ice
tTid sskrift
tTod ay
measure d
tlands lides
nTod d
nTapp onnier
tSteff en
tSomer set
nSimps on
tenvision ed
npub lished
nCleg g
nAnn ual
nAnge lier
tprerequ isite
twood en
adran ts
tpercen tage
tperiph eral
timplic itly
nEdin burgh
tappare ntly
tcolleag ues
ndiagra ms
uegu en
nkilome ters
nNÃ¸ ttvedt
nKimb all
ntechni que
tunachie vable
udmund sson
teccentric ity
eldspath ic
nMcCaff rey
nirrevers ible
texclus ively
fÃ¼geku nde
nCosgro ve
% ),\
( >
( (\
( âĪĴ
) ',
* )\
/ /
0 10
0 18
1 19
1 196
1 201
4 28
4 34
5 19
5 17
6 6
6 19
6 18
6 21
6 55
6 341
7 11
7 00
7 55
7 53
7 69
8 4
8 31
8 90
8 43
8 48
9 25
9 37
9 39
: //
> ,\
> .\
? )\
A L
A P
A r
A s
A pp
A ppendix
A MS
A ngola
B uch
B uckling
C o
C om
C ol
C rystal
C over
C onstant
C renulation
C SP
D om
D uctile
D EM
E C
E O
E BSD
F low
F lexural
F it
F ossen
F ron
G C
G G
G L
G Y
G raw
H ill
I I
I llustration
J uxtaposition
J urassic
L O
L ow
L ab
L ines
M o
M echan
M ineral
M odel
N E
N O
N appe
N orth
N umerical
N HNF
O b
P h
P Ã
P or
P lastic
P encil
P EC
R M
R U
R b
R ock
R igid
R AL
S B
S E
S G
S T
S W
S h
S o
S r
S te
S ome
S ub
S trike
S tructural
S ections
S imple
S tretching
S everal
S GR
S laty
S outhern
T e
T r
T ec
T yp
T EM
U S
U tah
U niaxial
U RAL
V ein
W ith
W hy
[ (
[ \
] .\
a f
a ic
a is
a ure
a ma
a ib
a ments
a ined
a que
a ird
a erial
a tite
a mond
b ly
b and
b ular
b ands
b ers
b ach
b oth
b ook
b ove
b lock
b ia
b asin
b bles
c or
c ock
c ap
c il
c ross
c am
c ontinu
c reep
c col
c lay
c lasts
c ored
c rack
c log
c ataclastic
c renulation
c ores
c oded
c ylindricity
d al
d ge
d ock
d uring
d ata
d ry
d ark
d rag
d amage
d ah
d ustry
d ovician
e e
e k
e z
e ar
e ge
e qu
e lastic
e ves
e qui
e ndev
e lement
f j
f ol
f ly
f ound
f ection
f ers
f lexural
f ossen
f ron
f erences
f lection
f aulting
f aulted
g and
g ard
g am
g one
g lac
g son
g reat
h os
h ard
h ak
h ind
h of
h oe
h inge
h oles
h armonic
i tas
i ri
i ven
i ew
i table
i pher
i ously
j b
j er
j ave
j ector
j ack
j ules
j ella
j Ã¸r
k as
k ill
k of
k tos
k mann
k jer
l n
l ig
l os
l ined
l istic
l ightly
l imestone
m iss
m ory
m ylonites
m ylonitic
m anding
n ic
n ec
n tal
n tex
n ion
n ock
n ine
n here
n ten
n tur
n amp
n red
n leav
n old
n tou
n view
n trac
n ulated
n values
n left
n last
n tradi
n aggreg
n ectivity
n ava
n amplitude
n achie
n ordinary
o yer
o ot
o yd
o lated
o pposite
p o
p t
p ic
p os
p pe
p low
p ite
p ects
p fer
p ie
p ansion
p lunge
r re
r ise
r olith
r mekite
r ury
s y
s en
s ted
s and
s tri
s han
s ample
s ame
s ense
s ymmetric
s liding
s imp
s tretching
s ymmetry
s tructure
s inistral
s trength
s tratigraphic
s triations
s olute
s trata
s helf
s aturated
t Q
t tp
t ting
t tall
t tice
u i
u ti
u ing
u ty
u ng
u de
u val
u ndeformed
u fficient
u tron
u gal
u use
v ence
v ide
v ille
w orld
w indow
w anz
w estward
x y
y rene
z or
z tec
z ner
} \
¡ du
¢ \
£ o
¦ \
© \
Â ©\
Ã £o
â Ħ
ti ation
ti ter
ti tes
ta v
ta er
ta ri
ta tes
ta top
ta iled
th s
th me
th all
th yste
th ind
th one
th it
th armonic
th az
th alokinesis
re ed
re lation
re levant
re mphasize
to gether
to log
to olitic
to olith
ts le
ts ent
ts tim
ts ites
ts cope
ts atelli
ts lid
ts play
ts tock
ts lumping
ts tippled
on o
on ed
on ly
on ally
on na
on ential
te ases
te ncomp
in f
in ent
in ess
in ia
in version
in itions
in fÃ¼
in point
tthe ories
nd en
nd ig
nd ue
nd ynamically
nd istinguish
al an
al and
al ars
al igned
tf an
tf ed
tf ur
tf ea
tf arth
tf lo
tf und
tf ix
tf ellow
tf ash
tf jella
tf reed
tc ere
tc ess
tc lu
tc leav
tc am
tc lue
tc odes
tc usp
tc liff
tr an
tr id
tr ound
tr usive
tr udes
er c
er ge
er ves
er mal
er ived
er ha
or n
or ated
or ough
or ange
or thern
or ogenic
or hombic
en ari
en ant
en ith
en tative
en mark
en nines
en hof
en kmann
td oc
td ock
td ated
td ynamics
tin here
tin no
tin trig
tin variants
tin truding
es tor
es ter
es ted
es os
es ite
es taway
es ozoic
es izing
es pie
ar ts
ar tre
ar tle
ar les
ar ble
ar ner
ar ante
ar rel
tb le
tb ig
tb us
tb ad
tb if
tb aff
tb io
tb igger
tb irth
tw ra
tw inned
tw right
tw rench
tp in
tp ave
tp aus
tp inning
tp iles
tp iezome
tp iezometer
tp encils
tp alaeostress
tm ental
tm orph
tm ountains
an o
an ta
an ing
an as
an ite
an eous
an nel
an isotropic
an ella
an osomes
le ar
le ments
le ading
le ep
le mentary
le ason
le ppe
ic ted
ic ate
ic hed
ic ists
ic ist
tre nd
tre tar
tre cur
tre appe
tre use
tre trograde
tre lict
he ologic
he mend
he ck
is a
is ion
is ke
is otropy
is odes
la ve
la ys
la zner
tu nn
tu nfolding
tu ndeform
ing dom
ing ham
ed ar
ed ian
ed ance
ul er
ul ly
ul sion
ul ging
ul io
ol ing
ol ub
ol ian
ol lement
tis tical
tis ochoric
tto ns
tto uched
orm ed
ac e
ac ros
ac tors
ac onic
ac commod
ac ific
tor g
tor thorhombic
ou tis
ou nte
ou tcrop
ou bly
tl igh
ig in
ig nm
ig ration
tde li
tde par
tde lamination
ns low
ns ke
ns ound
ns tar
ns ample
ns ize
ns amples
ns ole
ns econd
ns phere
ns ymmetry
ns well
ns ley
ns outh
ns trongly
ns pread
ns play
ns tratigraphy
ns tudi
ns trata
ns lab
ns eries
ns outhwest
ns preading
ns lightly
at n
ve x
ve in
ve al
tra ke
tra plate
tra mylonite
uc ial
tbe ta
tbe ach
tbe aring
tbe lie
form al
oc ch
oc eanic
oc linic
as ti
as ally
as ian
tg ot
tg ave
tg lo
tg un
tg roups
tg lobally
ur c
ur ton
ur ham
tal be
tal ignm
tic ularly
tic ulate
im ed
im arily
im ica
ted uc
ted itions
tn odes
tn omenclature
li ts
li te
li ono
tan hyd
tT im
tT ib
tT ry
tT wiss
tT emperature
tT iber
tT ightness
tT SG
tT aconic
us ing
us trated
us oidal
us tments
us trheim
nF aulting
nF inding
nF iber
nF Ã¦r
nF ractals
nF ischer
nF ormed
os kins
os aic
tdi la
tdi ver
tdi lational
tdi amond
ce l
ce ll
ce ment
ce ful
ce anic
tfr inges
tcon ver
tcon cep
tcon ducted
tcon tempor
tcon sequences
tcon vection
tcon vex
el ts
el gi
el tzer
tex tures
tex ert
tex foliation
tex istence
tex tracting
tex emp
tex cell
tas ph
tas et
tas ets
tas eismic
tas leep
tstre am
tma ture
tma tch
tma ssive
tma fic
ge ometry
og n
og an
og ue
og liono
id den
id ote
id imensional
id ental
ra ys
ra tes
ro x
ro y
ro of
ro aching
ro phones
ro resistivity
ro tating
tsh ield
tsh ared
tsh ru
mp ir
mp lacement
truc tive
truc tors
âĢ ¦\
se a
se th
se berg
se mi
se min
se Fit
tcan cel
me ta
me aning
tla b
tla mp
tla ke
pe at
pe troleum
pe tence
nT ra
nT ri
nT ub
nT ibetan
tcom ments
tcom ings
ine ar
ine ma
tI a
tI b
tI ns
tI ma
tI deal
nc y
nc oin
nc lastic
nc ause
nc alc
nc lasts
nc hthon
nc lines
nc rus
nc leavages
nc ataclasite
nc alculated
nc ounter
nc losely
nc lear
tS I
tS ection
tS edimen
tS et
tS tatic
tS olid
tS tratigraphic
tS EM
tS tylol
tS tord
tS ystematic
tS ibson
tS weden
tS eries
tS tudies
tS alina
tS lave
tse ven
tse tups
tse lective
tzon al
qu ir
qu artz
nS w
nS ections
nS ea
nS ingle
nS liding
nS econd
nS ince
nS trac
nS andstone
nS pac
nS tick
nS ok
nS triations
nS ediments
nS laty
nS tock
nS tratigraphy
nS heet
nS oliva
nS aint
nS edimentation
nS AR
nS idd
nS tarting
nS kjer
nS ogn
lip s
and om
and oned
and erha
ap an
ap ais
ap arts
tte nt
tte aring
tte chn
tte sted
tform ulation
ri tical
ri tten
ri entations
tac qui
tac ademic
tac ceptable
tac ama
ir k
ir ma
ir med
tA x
tA nde
tA ng
tA mphib
tA pen
tA ngular
tA ngola
tA bove
tA ztec
tv on
tv ent
tv ess
tv alle
tri b
tri an
ther lands
ll is
tch ie
tch ain
tch annel
pre ferred
tdis reg
tdis rup
tdis tances
tdis semin
um ented
um ference
um nar
ten tly
ten hance
ten riched
eren tial
tfrac tals
tat tain
tat tributed
ong ate
ph ase
ph ers
ph asally
tme tal
tme tamorphosed
tme mory
nf ore
nf ree
nf our
nf it
nf ish
nf ring
nf illed
nf its
nf ocus
nf unc
nf issure
nf rontal
nf eeder
tpar tial
tpar tially
19 2
19 24
19 53
pp or
ma in
ma tch
tres toring
tres torable
tens e
tens ure
tens ile
tro ds
nth rus
nth esis
nth esizing
il tration
il va
il inear
np D
np k
np ack
np aleostress
np inch
np lace
np atch
np seudotachylyte
np lates
np ulverization
np lunge
np ancake
np lanet
np olyclinal
tdiff ers
tpl umes
nC ase
nC oo
nC irc
nC ons
nC lo
nC oe
nC limb
nC lose
nC anyon
nC arter
nC entral
nC hron
nC hemical
nC ouette
ien ced
nA m
nA nal
nA round
nA br
nA MS
nA fric
nA chen
nA nswers
nA raÃ§uaÃŃ
nA ustrheim
ne w
ne nd
ne ver
ne quation
ne valu
ne volution
ne vents
ne arthquakes
ne quivalent
ne vent
ne igenvalues
ne arthquake
ne lements
tpre curs
tpre paration
tle tter
tur ning
ism ogenic
trela ys
ut ter
tmod es
tmod est
tmod ify
tpro ven
tpro tolith
tF oss
tF inal
tF reeman
tF aultFoldForward
tpr ogress
rec rystallizing
tIn troduction
tIn terestingly
han ges
av ed
av co
av ier
tsim ulations
tsim ulated
tTh ose
tTh ink
tTh rus
nÏ Ħ
tar ri
tar rested
tar tific
tC C
tC O
tC ore
tC ard
tC are
tC ons
tC onstant
tC hannel
tC alculated
tC ouette
tC usp
tC losely
tC GG
od ding
od gson
20 16
20 15
20 14
20 26
tW ide
tW ill
tW orld
tW ulff
tab ili
tab lished
tab andoned
ad s
ad ily
ad ows
tcr ude
tcr ucial
tM at
tM ag
tM ay
tM ill
tM ylonite
tM Ã¸
tM ountain
tM ylonitic
tM apping
tM editerranean
tM iddle
tM ovement
tM archini
tM acLeod
tM yrvang
nP S
nP ore
nP ale
nP late
nP res
nP rior
nP inch
nP lanes
nP rofile
nP olansky
nP eltzer
ab out
ab ove
nD l
nD o
nD x
nD an
nD ec
nD ome
nD ie
nD amage
nD Ã©collement
nD eath
nD omino
nD ensely
nD rury
nD ogliono
nR ight
nR ob
nR ibeira
nR ouby
nR owan
nR aleigh
nR andom
nR odding
gh er
gh tness
tH a
tH or
tH ol
tH ard
tH interland
tH alf
tH arding
ale ide
ag enetic
tk itch
tk arst
torien ting
tcons ens
tcons pic
pla nds
tG es
tG ord
tG reen
tG abrielsen
tG EO
per y
per iment
per meable
tcomp lication
tcomp ositional
tcomp acting
tcomp ilation
tsurfac ed
ttr ough
textension s
amp ling
nde eper
nde forms
nde als
nde viations
nde gree
nde tailed
ng liding
ng neiss
ng ouge
ng arnet
lu ed
lu ded
nthe tically
tP en
tP ol
tP os
tP ub
tP res
tP aleostress
tP lanar
tP inch
tP ollard
tP latt
tP icture
tP redic
tP rofessor
tP yrene
tP acific
nB ut
nB ell
nB ons
nB erg
nB uck
nB lack
nB reddin
nB ai
nB iot
nB jÃ¸r
nB oyer
nB artle
ard s
ard inia
tper m
tper son
tper vasive
tric tly
10 10
10 25
10 51
10 48
ase mann
de position
nb oth
nb ook
nb ody
nb alance
nb ackstripping
nb asins
nb reccia
nb isecting
nb luntness
nb arrel
nM an
nM ul
nM ag
nM allow
nM ars
nM ain
nM orphology
nM anz
nM archini
nM acLeod
nM erle
nM esozoic
nM igration
nM urton
tda y
timp lication
ub ian
ub ility
di o
di kes
di agram
di ffusion
tne arly
tne otectonic
tne utron
cur ved
tinc orpor
tB ur
tB ad
tB est
tB ru
tB iot
tB ingen
tB alancing
tB aird
tB oyd
nJ ae
nJ urassic
tsome one
tinter cept
tinter mi
tinter acted
tinter play
tinter change
ip ment
tN W
tN ormally
tN aturally
tN estor
tN ubian
ive t
nw ay
nw ide
nw ord
nw ant
nw idening
nal s
nal most
tj us
na a
na erial
na tomic
ang les
nm ode
nm issing
nm ylonites
nm oves
nm ullion
nm iddle
nm yrmekite
nm ylonitization
nm esos
nm arble
nm edian
nI mp
nI mper
nI ran
nI mber
nI nSAR
tR ob
tR its
tR ubber
tR everse
tR ubey
tR ibs
tR Ã¸rnes
tR adiometric
tflow ed
tref olding
tref racted
term edi
no bs
tover g
tover simp
11 21
11 39
11 81
ven ient
nG ill
nG liding
nG lass
nG neiss
nG reat
nG enerally
nG oogle
nG reenschist
nG awthorpe
nG ueguen
nG udmundsson
nG hos
nG uti
nG lazner
nG apais
tmin ing
tmin im
tmin us
nin ner
nin teresting
nin vestig
nin variants
nin dustry
nin trudes
tfield work
tthan ks
par ts
par ison
12 1
12 2
12 26
nE ros
nE igenvectors
nE vans
nE quivalent
nE infÃ¼
nE llis
tif ying
tlow ered
tge odes
tge ochronology
our g
nre lation
nre view
nre ached
nre placed
nre trograde
nre peated
nre trodeform
nre mains
nre moved
nre veal
nre quir
ax ially
16 2
16 00
tco al
tco ars
tco efficients
tco esite
tco axially
tli er
tbec oming
ick s
thigh s
duc ting
tthere in
ttrans formed
ttrans ects
ttrans ient
ttrans ecting
ttrans granular
ttrans position
ttrans lations
ttrans lates
ttrans fers
nH er
nH ans
nH ard
nH orizontal
nH imalay
nH omologous
nH ooke
nH ouse
nH orsetail
tti de
tti ling
tqu arter
tqu adr
tE dition
tE igenvectors
tE ocene
tE vans
ib ly
ib ber
nL i
nL an
nL if
nL ink
nL lo
nL ater
nL ars
nL ower
nL inks
nL aure
tshow ed
tsp in
tsp orad
tsp alling
tsp lits
ch apter
nW here
nW all
nW ales
nW estern
nW heel
nW estaway
nW ibber
tD ec
tD id
tD ark
tD ynamics
tD rill
tD omino
tD onna
ens es
ens ive
15 6
15 20
15 12
15 35
15 64
iti al
iti vity
tterm inates
oo ley
tmineral ized
ay ward
nh and
nh ence
nh orizon
nh alf
nh omologous
nh alokinesis
nh orsetail
nh orst
nh undreds
nh ttp
17 3
17 7
17 41
tund ulations
tup well
tup dated
13 0
ncon tribu
ncon trol
inc es
tsub set
tsub sequently
tsub disc
tsub sets
tsub areas
tsub aerial
tsub ducting
tdef lect
tcontr act
tcontr acting
tdo ts
tdo ing
tph ilosoph
tph enocrysts
tno tes
gra dient
gra du
the ad
the mati
the avy
the avily
nl inked
nl ocked
nl imestones
vi k
vi ole
tWh itney
fore land
tz e
tz enith
texp ense
texp onential
texp ulsion
twhen ever
14 97
14 68
14 83
tain ing
lec ts
trec all
trec tangle
trec tangles
ndi a
ndi vided
ndi lational
ord ed
nn ow
nn orth
nn ucleation
tim ates
led gments
ocess es
tthick en
nand ez
tpa inted
tpor phyroblast
ack le
tdisc on
tdisc over
tcla imed
tdes erve
tdes pite
tdes erves
vol ved
tmic rolith
tany way
cri tical
22 1
22 8
ote cton
if ically
if ying
if ested
am bro
tO tto
tO il
tO uter
tO rientation
tass ess
tass oci
tass istance
tass ociation
tass isted
vid ent
tL ess
tL aw
tL ike
tL ister
tstate ment
lic able
nk lippe
nk inema
tfac e
tfound ed
tuni ties
nex tra
nex am
nex perimental
nex foliation
nex hib
nex erc
tunder lain
tunder gone
tunder gradu
ili bia
nN E
nN ow
nN ur
nN ecking
nN ucleation
nN eck
tprocess ing
res is
res olved
ber ately
tU se
tU nstable
tU nited
tU nion
tU plands
tcen trif
tcen tered
tcen turi
tFor tunately
nIn verse
nIn terestingly
nIn traplate
Â° ).\
tJ u
tJ im
tJ ean
tJ ura
tJ apan
tlocal ities
tgener ously
iss iss
iss ling
tweak ly
tlower most
are r
nO u
nO ff
nO ut
nO uter
nO slo
nO rientation
nO lson
nO liver
nO dinsen
nO ceanic
nO rientations
ran ites
tcur l
tcur re
tcur vatures
tsepar ations
oph oto
oph ones
oph isticated
aracter ized
tequ idimensional
tequ ipment
tend points
tWe b
tWe il
24 9
tap atite
tresp ective
tstrength s
tstrength ening
tral ia
hr ung
nr u
nr ange
nr ise
nr up
nr oll
nr idges
nr olling
nr ounded
tsu p
tsu itable
nstrain s
nstrain ing
line ations
nv on
nv ary
tribu tions
nshear s
tvisc oplastic
uss els
tcre nulations
abric s
nsh adows
tgeneral ized
tou tputs
twas te
tta king
tste pping
tste adily
tdra matic
nDe ep
nDe eper
nDe forming
nDe tail
nDe lamination
nDe vonian
33 4
tins ight
tins olub
tins tructors
torig ins
tspac es
tAl Ã©m
29 9
35 1
35 3
35 4
35 5
pressure d
nK im
nK ara
nK elvin
nK vale
nK nowing
nK reemer
nK arner
nu nknown
nu nits
nu nconform
nu ntil
nu nmetamorphosed
ndis tance
ndis tortion
23 1
23 2
nX iao
ise ly
ex posed
tinf ill
tinf lating
tinf initesimal
tinf irma
tinf iltration
tlook s
tstra nd
tmylon itization
treduc tions
hap es
nis otropy
nis oclinal
tfla ts
tfla ps
tcor rugations
rystalliz ed
tuseful ness
tconf idence
tpres ents
tpres enting
tMo ores
tMo jave
nbe h
nbe ing
nbe ach
nbe nds
tpath ways
nte ar
nte mpor
nte eth
nte ktos
nTh erm
nTh ermal
tsee ks
nstress ed
treflec tions
lo ts
lo vers
lo bs
tsubs tantial
34 0
34 9
tshe eting
tsig moidal
nEx humation
nEx tracting
nEx periment
25 2
mic a
mic ro
npr ograde
40 0
section al
rof iles
tdec k
npar asitic
npar autochthonous
36 9
tiden tically
tstratigra phers
trans formation
trans ected
tpla gi
tproj ecting
nV ol
nV erg
nV ariation
nV iscosity
nV ollmer
nV issers
nV elocity
nV endev
ontinu ities
tdens est
tsc he
tsc hematic
tsc anline
tsc enari
tun metamorphosed
tun twinned
tun roof
nwh ite
nwh ole
bur g
tV iscosity
tV eins
tV issers
tV iew
tV enant
omb ia
Ã© rre
tsy nkinematic
tsy nsedimentary
tsy norogenic
tsy nrift
tsy nclines
tsy nthetically
tsignific ance
nla boratory
nla tter
nla ttice
tsand y
tRe lated
tRe leasing
tRe alistic
tRe moval
tRe turning
197 5
ncons ist
ncons trained
tcomplex ly
cen tral
cen trations
cen tered
nY Z
nY ork
nas pects
trem nants
tAn tarctica
tperf orated
45 6
col or
col ored
nma ss
nma de
nma kes
nma king
nma trices
osi tions
osi tive
osi tories
trecrystalliz ing
nU se
nU pper
nU nsw
nU neven
nU nfortunately
nac tually
nac ademic
nac celeration
tknow ing
tmicros tructural
tmicros copy
nTec hnically
tcrus h
roc arbon
ttranspor tation
itu ations
itu dinal
man ently
ngra ph
ngra ben
ngra du
tappro ached
37 7
60 0
nx x
ttw ist
ttw isted
ttop most
nse aling
nse mi
nse als
nse ismically
ncomp ared
ncomp lications
ncomp acted
ncomp ositions
tsequ ential
tsimp lific
tsimp listic
nge ographic
thard en
imp lying
tnear by
nres olutions
nres torable
nan other
nan omal
nan isotropy
nzon al
tactive ly
ntrans itions
ntrans ported
ntrans missibility
tK nowing
tK eep
tK ilve
tK Ã¶r
tK wanz
tK leppe
tK ingdom
up ward
ncom plete
nplastic ity
tDe ep
tDe eper
tDe viations
torthogonal ity
tcontain er
umm ing
tman ually
tman ifested
nStress es
nfor ward
nother wise
tY P
tY ule
tY ellow
tY onkee
lac ing
tlink s
tback ward
tback ground
nAn omal
nAn tarctica
nAn tonellini
nRe lation
nRe mote
nRe lations
nline ament
nline aments
of eldspathic
tcatac lasites
nper turb
ope z
ress er
nSe ts
nSe mi
nSe ismically
nSe gall
tpref er
tpref erence
tvarious ly
npro duce
npro tomylonite
npro portional
nwith drawal
ndirec ted
au ght
tbre ad
tbre aching
br ation
br ides
thand led
thand held
tser ial
nCon trol
tEx pression
tEx trusion
tEx ternal
tEx humation
ulti p
tAnd Ã²
44 7
tke pt
tsme ars
tpredic tions
tprof essor
nce ment
thyd rofracture
tcle arer
tvi ol
telong ations
tbasal tic
be tween
be hind
nra ke
nra tio
tsl ight
tpol ari
trestric tion
tanti ally
tsur ve
tsur pr
tsur vey
nch atter
nmic rofracture
tviscous ly
topen ed
tSc iences
tmicrof olding
tmicrof ragments
tsupp lementary
nimp ly
nimp lies
tstri ation
ime ters
ime fron
nPr imary
nPr ograde
nPr ogress
ninc lusion
ninc lined
nrela tes
ttre at
ttre atment
trol l
nsub parallel
nsub grains
tconcen trate
ncan not
nover lay
nover laps
nover lapping
nover turned
nGe omechanical
nGe omechanically
vitation ally
tmeaning ful
lol ites
ny ou
ny our
ny ears
tZ echstein
ttra jector
tbuck led
tGeolog ic
tGeolog isch
tbreak down
em entation
nqu an
nqu ist
nqu adratic
nqu ality
nqu adrants
aster n
nTrans ition
nTrans ected
nTrans lation
nTrans position
nTrans posed
nco ar
nco ver
nco hesion
tsteep en
tsteep ly
tsteep ening
ylindr ically
nro dding
npressure s
tStrain ed
nAs ia
nAs ymmetrical
tmodul i
tprov inces
ninter limb
imb ourg
thomogeneous ly
ndom inate
nne gative
nne otectonics
ttri vial
tato m
tmig rated
tmig matitic
nDis junctive
nob tained
orth orhombic
nste eper
nste reonet
tCon f
nDi lation
nDi rect
nDi agram
ob ate
ob athymetric
ttell ing
tconstruc tions
sh ale
texpress es
texpress ing
tMa in
tMa trices
tMa tul
tGe ophysics
tGe ometry
tGe fÃ¼gekunde
mb rication
tclos es
tclos est
tinvolve ment
con tra
con centrations
nsy rup
nsy nrift
nsy ndepositional
nsy nonym
nSc ottish
nSc anlines
trepresen tation
tcenter points
00 419
00 2026
ila ble
oe tze
tglac iotectonics
tspecif y
now ledgments
nrec overy
nrec ognized
nrec orded
pr incipal
pr imary
tevalu ating
tpe aks
tpe ople
tpe trophysical
tred undant
tdeep ly
tyield ing
tinters ects
tinters ected
tinters titial
timbric ate
timbric ations
bend ing
bend am
des tructive
tsla b
tantic linal
ncre ate
nPh ilipp
tBoth ner
nreg ular
nreg imes
noccur ring
noccur rence
55 5
its bergen
tos cil
tTec hnically
typ es
typ ical
tcompress ibility
nflow ing
thelp ed
97 3
97 8
lli ot
nar cs
nar rays
npre rift
oy antly
tche mically
tpene trates
tprom inent
tportra ying
nprocess ed
nSch mid
nSch Ã¶
nthere by
tabs or
tabs tract
tDi apirism
tbehavi ors
nincre ment
nincre ase
tdistinguish es
tdistinguish able
eg he
nus ing
nus ually
tom ission
tom itted
ndisc rete
nchan ged
tClass ification
timpor tantly
tobtain able
nmodel ing
nrepres entation
nrepres enting
tcurv ilinear
nparallel ograms
tenc lose
tenc losing
tenc ounter
terna ting
tconc ave
tconc ert
tconc lusions
nAc k
tHe ad
tHe ilbronner
tHe brides
tHe imefron
nmineral ogy
nad d
nad ds
nad ded
tslow s
tcar ved
tcar ving
tcontex ts
tmathe matic
tSan to
nelastic ity
tCol lision
nMic rof
nhigh ly
nhigh ligh
nexp onent
nexp ansion
nexp loitation
onstruc tion
trepeated ly
nph enomenon
nab rup
over able
over lying
over coring
toper ation
tpur ity
tpur su
tput ty
tposition ing
tperiod ically
nMc L
nMc Quarrie
nMc Graw
nMo ab
nMo ores
nkinematic s
tuniform ly
nOr dovician
nOr igin
tdecomp ose
ator ies
un avco
tamphib olitic
toli an
twavelength s
tcompe tency
tStress es
tcho ices
nAl ternatively
tGra in
tGra ph
tGra vitational
nMa ir
nMa trices
nMa thematically
nund ulose
âĹĪ \
tsch ool
nsection al
ncol lected
ncrystal s
nSh im
nSh ape
nSh ort
nSh arp
tAr morican
umb ered
nAr mi
nAr ches
nAr chitecture
nAll en
nRec ent
nRec hes
nRec tangular
nRec overy
nRec onstruction
tconstitu ting
nBe ing
nBe tween
thick ening
tsus tained
tske w
tske tching
tmon oclinal
tiso late
tradi ally
tradi ating
tfrag ment
nThr usts
nSy ntectonic
nSy nform
nSy ncline
nSy nkinematic
nSy ndepositional
nSand box
neff ectively
nRo tated
nMar tin
nwell bore
nGra y
tmicro tectonics
tmicro phones
texperien cing
68 3
68 6
nhe ated
nhe ave
nhe aves
napp arent
napp licable
nlith ospheric
temphas is
tfrequ ent
tcub es
tcare fully
orien tations
tpus hing
tpull s
tpinch ing
talloc hthon
tseal s
nfield work
nCh ocolate
nCh iar
nCom pression
nCom petent
nCom monly
texpand ed
tVer y
tVer lag
domin o
tcounter acted
nj ointed
tfill s
tisog on
trad ar
tname ly
nFracture d
textr udes
tCom mon
tCom plex
nRes training
nMod es
nmin or
nmin ute
nmin ibasin
nOn ly
tkey bo
tfavor ite
77 7
tpos ttectonic
tmill imeters
tnucle ated
tAll mendinger
tApp alachians
tdispla y
tdispla ying
tprec ision
nass embla
nass umed
nmove ments
nlength s
treconstruc ting
tstep wise
nquartz ite
oh est
ste p
ste pping
ttu bular
tsay ing
tful fill
tfundamental ly
tcap tions
tpaper back
tretur ns
tretur ned
tisostatic ally
nsc hematically
mpor tance
ncri tically
ncirc umference
nCol orado
nCol ombia
ndef ects
tPr ocesses
tanalog ue
tuplif ts
tvisual ization
54 9
tau thor
tau thors
tau gen
tol ogy
tul tracataclasite
tanomal ously
tshad ow
ncor rect
ncor relation
nSub seismic
nSub grains
nPar ameters
tdraw ings
nelong ated
tslick olites
nPhoto s
telectron ic
tdemons trates
tdemons tration
nen veloping
nes pecially
nes timate
nes timated
nes tablished
nim ag
tsens itive
tsens itivity
tbox es
tTrans fer
tTrans actions
195 6
195 8
nthrough out
nits elf
nPe terson
nPe bble
nRock y
tNe ttleton
tsystematic s
nNew tonian
nanti taxial
ncoaxial ity
63 19
87 5
nall o
ndes ign
trup tures
arr anged
tpul ses
tread ers
reduc ed
tRes tored
tRes training
tRes ervoir
noff sets
ncontinu um
ncontinu ously
tOr ogenic
tReg imes
tnorth westward
ndomin ated
naccommod ation
nellipsoid s
tcarri es
talternative ly
com mutative
nti ps
nti ghtness
nir regularities
sty lolites
van tages
with out
tsilic one
anad a
nTr ondheim
tSy nrift
tWith in
tWith out
tcompar able
tPa or
tPar ticle
tPar ticles
tPar aib
tpers onal
nModel ing
ninf initesimal
ninvol ve
serv ation
tLar ger
nOver lapping
nup ward
nup right
tdiscussion s
nconsider ations
nconsider able
nresp ective
nresp onse
tadvan ces
80 5
tintra plate
tmy rmekite
tmud stone
tmud stones
layer s
layer ing
tdel im
seud omorph
nTyp ically
ttecton othermal
nApp lied
tpropor tions
nMechan ics
tRa zor
tDis location
tDis locations
tdesign ation
tdesign ations
tmaintain ing
noverpressure d
naccumula tes
draw s
fric tion
hyd rostatic
hyd rofracturing
hyd rophones
ttal c
tamp lified
thot ter
thorizon s
tstric t
tstric to
temp lo
tmac rofracture
tmel anosomes
tud ents
educ tion
tiss ues
nsch ists
ellip ticity
texer ts
tAc tual
tproper ly
nillus trate
nillus trates
tMod elling
tPh ilosophical
nam ounts
toverc ored
tliter ally
tDo es
tDo elling
nhow ever
nlong er
nvari ations
tstraigh tened
nmag ma
nmag matic
nmag netic
tspreads heets
ntw ins
ntw inning
npres erve
ttable ts
tail ing
tcarbon ates
lag i
tgu ns
tgu arante
tcomple ted
ncen time
ncen tury
tSte ep
tSte ady
tSte reographic
tSub grain
tSub simple
npop ular
nplot ting
nCompaction al
nAx ially
tMe er
timper fection
telim inates
teffic ient
nOb lique
nOb jects
tpoly phasal
tquanti tatively
78 6
Con tractional
ats kill
ntri angular
volution ized
tsqu ares
tstac king
tsidew alls
tevol ved
tevol ves
tce ases
tce ased
tcres cent
trough ly
och imica
tsearch ing
nSmall er
tenvelop es
tMap s
nPor phyroclasts
nPor tugal
nHigh land
tspa tially
tgene tic
nconf ined
nnum erous
tporoelastic ity
nshor tcut
ttwen ty
nanal ogy
nantic lockwise
tbooks helf
tadvanc ing
nunderstand ing
tradiometric ally
tproportional ity
CT URAL
flow ing
ntre nd
ntre atment
sp iri
spac ing
tthous and
tep isodes
tep idote
ndown ward
tfil ms
tbr icks
tbul bs
tmilli on
nstud ent
tgroup ing
tTer ry
texcep tions
tshr inks
ncur ves
nchapter s
tAus tin
tAus trian
tAus tralia
onglomer ate
nfac ies
nChris tian
nPro perties
nPro tolith
nMe asure
nwork ing
tRi ver
tRo tated
tRo berts
nLayer ing
elling ham
nconn ect
tapplic ability
nloc ation
nloc ally
nrhe o
nVer y
nVer lag
nconstitu te
nsubs trate
tadjus ted
tadjus ting
texhib ited
ndiscontinu ity
tmonoc line
tmonoc lines
nElong ation
nElong ate
tultra mylonite
tVarisc ides
tarbitr arily
ij ing
nap ophysis
ntend s
taid ed
tsnow plow
tbar rel
tutiliz ed
nsme aring
tTr udgill
nTer tiary
ncl ined
nclass ification
tSh ale
tSh ort
tSh ortening
tSp itsbergen
tAfric a
tChris tmas
tChris tian
tabrup tly
tHigh lands
nglac iers
tPe ter
tPe tit
tPe trology
tPale ogene
nmarg in
nmarg inal
nWood s
nWood ward
nWood cock
nexpla ins
nexpla ined
nNe utral
nNe ttleton
nshow ing
tinsp ected
toppor tunities
ncompar ing
ncomplex es
thydro phones
thydro geologists
tquantif ied
tstack ed
tenviron ments
Trans port
disc ontinuous
high ly
mig matitic
nag ain
ris tol
ttin y
ye ar
tsin usoidal
tsol ve
tsol ubility
tsil t
tsil tstone
ndri ve
tpale o
tpier ce
tpier ced
tpier cing
tpump ing
tmis match
trep ositories
nTens or
nSlick ensides
tAre a
tresol ve
tresol ving
tresol vable
nposi tions
tleak y
tlecture r
tCur ved
tContinu um
tComb ining
tComb inations
tWell man
tMor ley
tMar l
nPos ttectonic
nRa ft
tconsis tently
ndevelop s
nbre aks
nbre ached
nMor ley
nMor ris
nmod ern
nmulti ple
toverprin ts
tgeosc ience
nref lection
nref lect
nconcen trations
tphys ics
tassembla ge
nNor way
tequi pped
nVari ations
nUnd er
nUnd ulatory
nmethod s
tfeed back
tresemb ling
tprecise ly
nassump tions
tquali tative
texerc ise
tEllip ses
tretrie ved
tbelemni te
Gra vitational
Ver itas
gan izing
mark ed
nmon ocline
nphyllosilic ate
volume tric
thors ts
thrus ting
tblas ting
tblas tomylonite
nsp alling
nstre tch
nstre tched
tTens ile
twebs ites
nSimilar ly
tvan ish
prec ipitation
tmete oric
tparab ola
npos trift
npoly gonal
nCra ter
nComp any
nAd ditional
nAd vance
neas ily
neas ier
tFluid s
tCrystal s
tCordiller an
tMc Clay
nPen nock
nRi ves
ngener ated
nbu oyancy
nMal tman
nMal avie
tneg lect
tRich ard
nGeolog ic
nEff ects
nEff ective
nEng land
nEng ineering
tcohere nt
tcohere ncy
nlim bs
nlim ited
tundergo es
nDef inition
nconstric tion
tsuppor ts
nincom petent
npredic ted
npredic table
tphotograph s
napproxim ate
napproxim ately
Line ations
Ro tation
Ro tated
Th is
Th ree
Tri assic
cons trained
ntra vel
nri bs
nri fting
tove res
tove remphasize
tever yday
tflan king
turi ty
tunrealistic ally
nstrong er
tTur ning
tTur key
tTex as
tTex tures
nFer nandez
tconduc tivity
tasthen osphere
tasthen ospheric
nStylol ites
tAss uming
tAna tolian
nfrac tal
nfrac king
tdifficul ty
tdifficul ties
tInter pretation
tMes a
tModel ing
nPre tectonic
nPoly phasal
nDes crip
tconser ved
tconser vation
nBre ak
nMin or
tBr ussels
tNord fjord
nau tochthonous
nIns tantaneous
tRose ndahl
nGr iggs
nGr asemann
telse where
nHa ines
nHa akon
nHyd raulic
tEng land
nWith jack
tDel ta
tDel icate
incre asing
tLu iz
tLoc ally
tLewis ian
nexper iences
nexper ienced
ograph ical
tours elves
nlater ally
tsandw ich
tsandw iched
tDef inition
nonym ous
taddress ed
tintegra ted
nperiod ic
ncho ose
nquick ly
tmigmati te
tmigmati tes
nobser ved
nprec ipitated
nexpl ore
nOrogen y
tmoni tored
nEllip seFit
tMicro Ima
tempir ical
tempir ically
nsuper plasticity
tdoub led
tMeasure ments
nrequire ment
tswitch es
tquarry ing
toccup y
tdolom ite
Ac tive
Dip meter
El roy
Or ogenic
Par adox
Res training
Rec rystallization
circ ular
fla ttening
gy dio
ipp i
jec tites
mill imeter
marg in
ntang ent
neng ineering
nvol umes
nenc ounte
pl oration
sid ed
sub duction
tophi olitic
tspla ying
alla gher
tfl our
tfore ver
tcav ities
tinser ting
tinvestig ated
twal king
tmim ic
trew rite
trein force
trearr angement
nsitu ation
nsimp lify
nstiff ness
tbeau tif
tanastom osing
textrap olated
rand tl
nTab ular
nTang ent
tStand ing
tSol enhof
nSta tistical
nSol ving
tAm ong
tcham ber
tdisad vantage
nfav ors
nfam ous
nflaw s
npale opiezometer
npurp ose
nChap man
nCordiller a
nAre a
tpreven ting
tprotom ylonitic
tIntern ational
tCalc ite
tCoun ties
tMarg ins
nPark er
nDahl strom
nRaw nsley
tHyd raulic
ttrunc ation
ngrow ing
nbro ken
nMi tra
nMax well
tincons istent
nJol ivet
nmo tions
nIma gine
nIncre mental
tRoy al
ninte rested
nEur asian
nreli able
tcoales cence
ibr ations
nWat ts
tDep th
tDraw ing
tsubpop ulations
tassim ilation
tunivers al
tcrystall ography
expla ined
tcorrug ated
tsigna ture
tVal ues
nconstruc ted
tAnti thetic
nmain tained
ngrad ual
nsearch ing
ncompens ated
nAntic rack
tEarthqu akes
tserpen tin
nConven tional
nyoung er
tZe aland
ttrilob ite
nScandinav ian
tthermod ynamic
tencou rag
Ã¸y land
tderi ves
nimpor tantly
ndecomp osed
treadj ustments
tsmartph ones
nsugges t
tcoincid ent
split ting
nsurround ings
nsimultaneous ly
nconcer ned
ntherm obarometry
ttarge t
tpecul i
018 444
Buch ner
Com plex
Crystal lographic
LO GY
Mo hr
Model ing
NO PEC
Ph ysical
PÃ ¡du
RU CTURAL
ST RUCTURAL
Tec tonic
cor responding
cross ed
continu ity
ccol ith
dal en
dah o
ege an
equ ant
fj ell
fol ial
gam ullions
ipher ing
kof isk
ntal k
ntex ture
namp hib
nleav ing
ntou ghness
naggreg ates
nava ilable
pos tkinematic
stri ation
âĦ ¢\
titer ative
tari thme
thyste resis
thind er
thone y
thaz ards
toolith s
tsatelli tes
tencomp ass
nden oted
ndig ital
alan ces
tfarth est
tfund ament
tfash ion
tfreed om
tcere al
tcess ation
tclu es
tcleav ed
tcam era
tdoc umented
tinhere ntly
tinno vative
tintrig uing
artre ll
tbif urc
tbio tite
tpiezome ters
tmorph ologic
treappe ar
hemend a
acros copically
accommod ated
tligh ter
tdeli berately
nske wed
nspread s
nstudi ed
tbelie ve
occh i
tglo be
talbe it
talignm ents
tanhyd rite
tTib et
tTiber ina
nFÃ¦r seth
tconcep tual
elgi um
texemp lified
tasph alt
tstream ers
tshru nk
nTub ular
tIma ges
tSedimen tolog
nStrac han
nSpac ed
nSok outis
nSkjer naa
anderha eghe
tAnde an
tApen nines
tvess el
tvalle ys
tchie fly
tdisrup t
nfring e
nfunc tions
npack age
npatch es
nCase y
nCoo per
nClo os
nCanyon lands
nChron ologic
nAfric an
nAchen bach
tprecurs ory
tCard ozo
tCGG Veritas
nRob in
tkitch en
tconsens us
tconspic uous
tGord on
tGreen land
tGEO LOGY
tPub lications
nBlack well
nBartle y
nMallow s
nMars hak
nManz occhi
tBru no
nJae ger
tintermi ttent
tinterchange ably
nword s
nImper meable
tRits ke
termedi ate
nobs tacles
nGill espie
nGhos h
nGuti Ã©rre
ninvestig ation
nEros ional
nEinfÃ¼ hrung
tgeodes y
nrequir ing
tcoars est
nHouse man
nLif e
nLlo yd
nLars en
tsporad ically
nWheel er
nWibber ley
tupwell ing
tsubdisc iplines
themati te
viole t
tmicrolith ons
tassoci ations
tundergradu ate
tcentrif ugal
tcenturi es
ississ ippi
nrup ture
tinsolub le
nKara to
tplagi oclase
nVerg ence
nVendev ille
tscenari o
nUnsw orth
ngradu ation
tsimplific ations
tKÃ¶r per
tKwanz a
nRelations hip
tsurpr ising
ttrajector ies
tGeologisch en
tMatul la
nsynonym ously
00419 4
toscil late
nSchÃ¶ pfer
tHeimefron tfjella
nhighligh ted
nabrup tly
tpursu it
nArmi jo
tkeybo ard
tParaib a
seudomorph s
tguarante e
spiri to
nMalavie ille
tMicroIma ger
nencounte red
tSolenhof en
PÃ¡du a
tarithme tic
nGutiÃ©rre z
