{"<s>":0,"<pad>":1,"</s>":2,"<unk>":3,"<mask>":4,"!":5,"\"":6,"#":7,"$":8,"%":9,"&":10,"'":11,"(":12,")":13,"*":14,"+":15,",":16,"-":17,".":18,"/":19,"0":20,"1":21,"2":22,"3":23,"4":24,"5":25,"6":26,"7":27,"8":28,"9":29,":":30,";":31,"<":32,"=":33,">":34,"?":35,"@":36,"A":37,"B":38,"C":39,"D":40,"E":41,"F":42,"G":43,"H":44,"I":45,"J":46,"K":47,"L":48,"M":49,"N":50,"O":51,"P":52,"Q":53,"R":54,"S":55,"T":56,"U":57,"V":58,"W":59,"X":60,"Y":61,"Z":62,"[":63,"\\":64,"]":65,"^":66,"_":67,"`":68,"a":69,"b":70,"c":71,"d":72,"e":73,"f":74,"g":75,"h":76,"i":77,"j":78,"k":79,"l":80,"m":81,"n":82,"o":83,"p":84,"q":85,"r":86,"s":87,"t":88,"u":89,"v":90,"w":91,"x":92,"y":93,"z":94,"{":95,"|":96,"}":97,"~":98,"¡":99,"¢":100,"£":101,"¤":102,"¥":103,"¦":104,"§":105,"¨":106,"©":107,"ª":108,"«":109,"¬":110,"®":111,"¯":112,"°":113,"±":114,"²":115,"³":116,"´":117,"µ":118,"¶":119,"·":120,"¸":121,"¹":122,"º":123,"»":124,"¼":125,"½":126,"¾":127,"¿":128,"À":129,"Á":130,"Â":131,"Ã":132,"Ä":133,"Å":134,"Æ":135,"Ç":136,"È":137,"É":138,"Ê":139,"Ë":140,"Ì":141,"Í":142,"Î":143,"Ï":144,"Ð":145,"Ñ":146,"Ò":147,"Ó":148,"Ô":149,"Õ":150,"Ö":151,"×":152,"Ø":153,"Ù":154,"Ú":155,"Û":156,"Ü":157,"Ý":158,"Þ":159,"ß":160,"à":161,"á":162,"â":163,"ã":164,"ä":165,"å":166,"æ":167,"ç":168,"è":169,"é":170,"ê":171,"ë":172,"ì":173,"í":174,"î":175,"ï":176,"ð":177,"ñ":178,"ò":179,"ó":180,"ô":181,"õ":182,"ö":183,"÷":184,"ø":185,"ù":186,"ú":187,"û":188,"ü":189,"ý":190,"þ":191,"ÿ":192,"Ā":193,"ā":194,"Ă":195,"ă":196,"Ą":197,"ą":198,"Ć":199,"ć":200,"Ĉ":201,"ĉ":202,"Ċ":203,"ċ":204,"Č":205,"č":206,"Ď":207,"ď":208,"Đ":209,"đ":210,"Ē":211,"ē":212,"Ĕ":213,"ĕ":214,"Ė":215,"ė":216,"Ę":217,"ę":218,"Ě":219,"ě":220,"Ĝ":221,"ĝ":222,"Ğ":223,"ğ":224,"Ġ":225,"ġ":226,"Ģ":227,"ģ":228,"Ĥ":229,"ĥ":230,"Ħ":231,"ħ":232,"Ĩ":233,"ĩ":234,"Ī":235,"ī":236,"Ĭ":237,"ĭ":238,"Į":239,"į":240,"İ":241,"ı":242,"Ĳ":243,"ĳ":244,"Ĵ":245,"ĵ":246,"Ķ":247,"ķ":248,"ĸ":249,"Ĺ":250,"ĺ":251,"Ļ":252,"ļ":253,"Ľ":254,"ľ":255,"Ŀ":256,"ŀ":257,"Ł":258,"ł":259,"Ń":260,"ti":261,"ta":262,"th":263,"re":264,"to":265,"ts":266,"tth":267,"on":268,"te":269,"in":270,"tthe":271,",\\":272,".\\":273,"nd":274,"al":275,"tf":276,"tc":277,"tr":278,"er":279,"tion":280,"or":281,"en":282,"td":283,"tin":284,"tof":285,"es":286,"ar":287,"tb":288,"tw":289,"tp":290,"tm":291,"tand":292,"an":293,"le":294,"ic":295,"tre":296,"he":297,"is":298,"la":299,"tu":300,"ing":301,"ed":302,"ation":303,"ul":304,"om":305,"ol":306,"tis":307,"tto":308,"orm":309,"ss":310,"ac":311,"tor":312,"ou":313,"tl":314,"ec":315,"ow":316,"ig":317,"ter":318,"tde":319,"ns":320,"at":321,"ly":322,"ve":323,"tra":324,"uc":325,"ure":326,"tbe":327,"form":328,"oc":329,"as":330,"aul":331,"tg":332,"ton":333,"ur":334,"tal":335,"ture":336,"tic":337,"im":338,"ted":339,"tn":340,"tthat":341,"tare":342,"li":343,"tfaul":344,"tan":345,"tT":346,")\\":347,"us":348,"formation":349,"nF":350,"os":351,"tdi":352,"hear":353,"ce":354,"tfr":355,"tcon":356,"igure":357,"el":358,"tex":359,"ty":360,"twi":361,"ver":362,"tas":363,"tstre":364,"tma":365,"train":366,"ion":367,"',":368,"Ġ'":369,"ge":370,"og":371,"id":372,"ra":373,"tshear":374,":\\":375,"ent":376,"zon":377,"ro":378,"twe":379,"tdeformation":380,"ock":381,"tmo":382,"tby":383,"tsh":384,"mp":385,"tstress":386,"nFigure":387,"truc":388,"tures":389,"tfol":390,"tfor":391,"âĢ":392,"se":393,"tcan":394,"me":395,"tla":396,"tstrain":397,"pe":398,"tThe":399,"nT":400,"ff":401,"tcom":402,"ine":403,"twith":404,"tI":405,"nc":406,"tS":407,"tfault":408,"tse":409,"ys":410,"tzon":411,".',":412,"trock":413,"twh":414,"ere":415,"(\\":416,").\\":417,"qu":418,"nS":419,"lip":420,"ting":421,"and":422,"ally":423,"ome":424,"here":425,"ap":426,"tte":427,"tfold":428,"yer":429,"tform":430,"ri":431,"tstruc":432,"tac":433,"ir":434,"tA":435,"tions":436,"ate":437,"tv":438,"tri":439,"ther":440,"ll":441,"tfaults":442,"tch":443,"tlayer":444,"pre":445,"ĵ\\":446,"âĢĵ\\":447,"tdis":448,"um":449,"ten":450,"olog":451,"ment":452,"tfrom":453,"eren":454,"ot":455,"tfrac":456,"tat":457,"ong":458,"ph":459,"ins":460,"all":461,"ore":462,"tme":463,"nf":464,"oin":465,"ial":466,"tpar":467,"19":468,"so":469,"pp":470,"tation":471,"ans":472,"ess":473,"ma":474,"tres":475,"uch":476,"las":477,"ple":478,"tens":479,"tro":480,"nth":481,"twhere":482,"il":483,"ity":484,"np":485,"ust":486,"tdiff":487,"tpl":488,"ous":489,"low":490,"nC":491,"ke":492,"ien":493,"ations":494,"nA":495,"tzone":496,"imen":497,"ne":498,"igh":499,"tstructures":500,"alt":501,"nThe":502,"tpre":503,"tle":504,"ound":505,"tthis":506,"tur":507,"tension":508,"ated":509,"ism":510,"own":511,"trela":512,"eolog":513,"ut":514,"tmod":515,"tpro":516,"fac":517,"tF":518,"alle":519,"tpr":520,"ave":521,"rec":522,"lastic":523,"tive":524,"tes":525,"uring":526,"tmay":527,"tIn":528,"ich":529,"han":530,"av":531,"tsim":532,"ical":533,"two":534,"eld":535,"urfac":536,"tween":537,"ular":538,"tgra":539,"tTh":540,"ni":541,"tline":542,"nÏ":543,"tar":544,"tdifferen":545,"tC":546,"od":547,"20":548,"tW":549,"tab":550,"trocks":551,"ad":552,"tcr":553,"tbetween":554,"age":555,"tM":556,"nP":557,"tplan":558,"ab":559,"tduring":560,"nD":561,"nR":562,"gh":563,"tsalt":564,"tmodel":565,"ile":566,"tH":567,"ale":568,"echan":569,"tit":570,"ag":571,"tk":572,"eral":573,"talso":574,"torien":575,"tcons":576,"thave":577,"tmore":578,"tus":579,"twhich":580,"pla":581,"tG":582,"tthr":583,"tnot":584,"per":585,"tone":586,"tcomp":587,"ield":588,"tsurfac":589,"ents":590,"tical":591,"tsuch":592,"ttr":593,"textension":594,"amp":595,"nde":596,"ng":597,"lu":598,"ough":599,"nÏĥ":600,"tlayers":601,"vel":602,"nthe":603,"tP":604,"nB":605,"ard":606,"tper":607,"tver":608,"tdirec":609,"red":610,"tric":611,"10":612,"ection":613,"tax":614,"tonic":615,"ase":616,"tzones":617,"de":618,"),\\":619,"ite":620,"nb":621,"nM":622,"tda":623,"tfolds":624,"tural":625,"op":626,"ttwo":627,"timp":628,"ub":629,"di":630,"pend":631,"tne":632,"talong":633,"ence":634,"cur":635,"tinc":636,"tB":637,"tob":638,"nJ":639,"mon":640,"twill":641,"ands":642,"tsome":643,"tinter":644,"ip":645,"tN":646,"ree":647,"ive":648,"nw":649,"nal":650,"tj":651,"action":652,"tmechan":653,"tty":654,"na":655,"tbut":656,"ers":657,"ang":658,"tslip":659,"ect":660,"nm":661,"tant":662,"tThis":663,"ost":664,"ctonic":665,"nI":666,"toc":667,"ula":668,"olu":669,"leav":670,"tfractures":671,"tR":672,"Figure":673,"oint":674,"tflow":675,"ary":676,"ssure":677,"tref":678,"term":679,"no":680,"ding":681,"tother":682,"iation":683,"tover":684,"11":685,"ven":686,"place":687,"nG":688,"aus":689,"tfracture":690,"tmin":691,"nin":692,"tfield":693,"tthan":694,"tsurface":695,"par":696,"tel":697,"12":698,"treg":699,"nE":700,"ari":701,"tsimple":702,"tdifferent":703,"tsta":704,"tif":705,"tlow":706,"formed":707,"tge":708,"oints":709,"ttle":710,"our":711,"tdata":712,"toccur":713,"leavage":714,"nre":715,"ax":716,"ormal":717,"16":718,"tco":719,"tli":720,"ases":721,"les":722,"tbec":723,"ick":724,"apter":725,"out":726,"thigh":727,"tshown":728,"iz":729,"tdirection":730,"duc":731,"placement":732,"row":733,"tly":734,"tthere":735,"tplane":736,"ample":737,"ogen":738,"ttrans":739,"nH":740,"cale":741,"tthey":742,"tcommon":743,"allel":744,"tti":745,"ystal":746,"phic":747,"ori":748,"tqu":749,"st":750,"edimen":751,"rittle":752,"ines":753,"torientation":754,"ak":755,"tE":756,"thas":757,"ib":758,"nL":759,"matic":760,"tits":761,"ell":762,"orizon":763,"tinto":764,"tshow":765,"=\\":766,"tsp":767,"uld":768,"tgen":769,"ame":770,"ved":771,"tam":772,"ose":773,"eology":774,"ch":775,"oud":776,"nW":777,"ments":778,"tso":779,"ttectonic":780,"pres":781,"orizontal":782,"tellip":783,"18":784,"sion":785,"tD":786,"ens":787,"ange":788,"twall":789,"15":790,"tcleavage":791,"ach":792,"iti":793,"tterm":794,"velop":795,"nÎ":796,"tind":797,"oo":798,"tmineral":799,"ined":800,"any":801,"ault":802,"ay":803,"ft":804,"nh":805,"17":806,"alled":807,"rac":808,"tnormal":809,"tshor":810,"tund":811,"axial":812,"tbas":813,"tup":814,"slip":815,"press":816,"ically":817,"tlar":818,"tmechanism":819,"ross":820,"13":821,"ttyp":822,"?\\":823,"tang":824,"trike":825,"ncon":826,"ause":827,"ms":828,"tsedimen":829,"tloc":830,"tgeome":831,"inc":832,"tmar":833,"luid":834,"tsub":835,"tdef":836,"tress":837,"old":838,"tincre":839,"ortant":840,"trepres":841,"mall":842,"ves":843,"tcontr":844,"tpressure":845,"ature":846,"tdo":847,"tph":848,"tno":849,"ew":850,"gra":851,"yl":852,"try":853,"tdisplacement":854,"tused":855,"tfoliation":856,"tresul":857,"tbrittle":858,"tapp":859,"the":860,"eng":861,"ward":862,"texample":863,"tmost":864,"tcrust":865,"nl":866,"vi":867,"tacc":868,"ever":869,"tcol":870,"tory":871,"tbands":872,"tboud":873,"tplastic":874,"late":875,"tWh":876,"fore":877,"ric":878,"tcalled":879,"twhile":880,"ates":881,"tening":882,"tmeans":883,"ym":884,"tz":885,"tad":886,"isc":887,"imension":888,"atter":889,"ttens":890,"thorizontal":891,"ges":892,"ector":893,"-\\":894,"texp":895,"trelated":896,"twhen":897,"14":898,"ser":899,"tain":900,"lec":901,"tthrough":902,"tdevelop":903,"tgrain":904,"thow":905,"trec":906,"ide":907,"mper":908,"tructural":909,"tdeformed":910,"timportant":911,"incip":912,"ength":913,"ndi":914,"yste":915,"ord":916,"tinu":917,"ttheir":918,"tfluid":919,"ight":920,"nn":921,"tim":922,"ismic":923,"olume":924,"tindic":925,"tsmall":926,"tdom":927,"led":928,"ocess":929,"tgrow":930,"den":931,"tthick":932,"ymme":933,"nand":934,"twell":935,"tpa":936,"tuse":937,"nt":938,"tpart":939,"incipal":940,"oss":941,"tpor":942,"tchange":943,"tabout":944,"ournal":945,"ack":946,"tdisc":947,"ps":948,"ssive":949,"apir":950,"tmany":951,"trati":952,"tkn":953,"hapter":954,"ition":955,"ond":956,"tcla":957,"tpoint":958,"this":959,"tdes":960,"tlines":961,"tvertical":962,"ense":963,"ant":964,"vol":965,"tcl":966,"tmic":967,"tformed":968,"ue":969,"tnon":970,"tany":971,"tdiag":972,"199":973,"cri":974,"tthen":975,"ters":976,"oth":977,"terial":978,"200":979,"tjoints":980,"ness":981,"tpartic":982,"22":983,"ape":984,"ote":985,"tgeolog":986,"tparallel":987,"nJournal":988,"till":989,"tstrike":990,"tmove":991,"trix":992,"if":993,"tarea":994,"am":995,"tthree":996,"trota":997,"trotation":998,"tary":999,"tsame":1000,"tonly":1001,"tent":1002,"tamor":1003,"loc":1004,"tO":1005,"tanal":1006,"irc":1007,"tshortening":1008,"eous":1009,"tcases":1010,"icular":1011,"pendicular":1012,"tsyste":1013,"ndeformation":1014,"tass":1015,"tthrust":1016,"ook":1017,"vid":1018,"tial":1019,"taxes":1020,"tL":1021,"ind":1022,"tbound":1023,"Ġ'',":1024,"inematic":1025,"tconsid":1026,"tcase":1027,"tstate":1028,"lic":1029,"nk":1030,"tsection":1031,"tching":1032,"30":1033,"tfac":1034,"tfound":1035,"tional":1036,"artz":1037,"tdiapir":1038,"tmaterial":1039,"tregim":1040,"tuni":1041,"tangle":1042,"tdep":1043,"trate":1044,"nex":1045,"tpatter":1046,"hed":1047,"usion":1048,"tunder":1049,"ili":1050,"tHow":1051,"tIf":1052,"nN":1053,"tprocess":1054,"pression":1055,"thing":1056,"tdepend":1057,"tshape":1058,"tformation":1059,"mperature":1060,"res":1061,"ink":1062,"tinvol":1063,"able":1064,"21":1065,"ber":1066,"tbeen":1067,"tvery":1068,"thistory":1069,"198":1070,"nChapter":1071,"tcommonly":1072,"tmechanisms":1073,"tdescri":1074,"tmatrix":1075,"tstructure":1076,"tvolume":1077,"ove":1078,"tU":1079,"tcen":1080,"erred":1081,"tinformation":1082,"tless":1083,"erence":1084,"tFor":1085,"ian":1086,"ists":1087,"tgi":1088,"tbecause":1089,"inn":1090,"tIt":1091,"tprincipal":1092,"tcrystal":1093,"tGeology":1094,"nIn":1095,"nof":1096,"ymmetric":1097,"val":1098,"oci":1099,"textensional":1100,"tlith":1101,"Â°":1102,"tvari":1103,"ces":1104,"tJ":1105,"tlocal":1106,"tgeometry":1107,"nor":1108,"Ļ\\":1109,"torogen":1110,"ections":1111,"âĢĻ\\":1112,"ros":1113,"tpure":1114,"tlength":1115,"tgener":1116,"tamorphic":1117,"iss":1118,"soid":1119,"tlarge":1120,"tdiagra":1121,"tsense":1122,"ngth":1123,"kes":1124,"tcirc":1125,"ects":1126,"ies":1127,"lan":1128,"tfolding":1129,"ylon":1130,"rystal":1131,"pper":1132,"tperpendicular":1133,"teff":1134,"tweak":1135,"ysis":1136,"omp":1137,"tset":1138,"ilar":1139,"ith":1140,"tve":1141,"texper":1142,"tlower":1143,"tile":1144,"teach":1145,"olution":1146,"are":1147,"nO":1148,"por":1149,"ran":1150,"land":1151,"tacross":1152,"tvector":1153,"tobser":1154,"ful":1155,"ox":1156,"tthese":1157,"tcur":1158,"trelative":1159,"ttime":1160,"ays":1161,"istic":1162,"tdip":1163,"tsepar":1164,"tseismic":1165,"tminerals":1166,"oph":1167,"pping":1168,"tlim":1169,"bu":1170,"tiv":1171,"arac":1172,"lap":1173,"tance":1174,"tquartz":1175,"tdomin":1176,"aracter":1177,"26":1178,"lock":1179,"ties":1180,"tequ":1181,"osity":1182,"tstructural":1183,"tcompon":1184,"ility":1185,"tend":1186,"toff":1187,"tboth":1188,"ttype":1189,"tsedimentary":1190,"tdepth":1191,"ites":1192,"thod":1193,"est":1194,"ics":1195,"umula":1196,"tplot":1197,"tWe":1198,"ize":1199,"tcontraction":1200,"24":1201,"tStructural":1202,"tdescrib":1203,"tap":1204,"tresp":1205,"plex":1206,"tillus":1207,"tscale":1208,"tcri":1209,"osed":1210,"tstrength":1211,"taxis":1212,"angle":1213,"tellipsoid":1214,"imensional":1215,"xim":1216,"ons":1217,"tral":1218,"ogra":1219,"hr":1220,"nr":1221,"tations":1222,"one":1223,"tlong":1224,"ttoward":1225,"uctile":1226,"tstresses":1227,").',":1228,"tsu":1229,"nstrain":1230,"tcondi":1231,"line":1232,"nv":1233,"tiniti":1234,"tmust":1235,"tribu":1236,"tnew":1237,"tresult":1238,"ied":1239,"onal":1240,"teven":1241,"tgrains":1242,"tmark":1243,"mer":1244,"nshear":1245,"tvisc":1246,"tthickness":1247,"tHowever":1248,"co":1249,"ea":1250,"teas":1251,"inal":1252,"asure":1253,"tall":1254,"tchapter":1255,"tregime":1256,"uss":1257,"tcre":1258,"ese":1259,"ysical":1260,"ible":1261,"tboudins":1262,"top":1263,"tupper":1264,"ected":1265,"que":1266,"ttend":1267,"trole":1268,"trelations":1269,"abric":1270,"tkinematic":1271,"tknown":1272,"tnum":1273,"tstretching":1274,"tlineation":1275,"taround":1276,"tjoint":1277,"âĪ":1278,"anc":1279,"app":1280,"tmethod":1281,"tNor":1282,"ttherefore":1283,"ities":1284,"ased":1285,"rop":1286,"irst":1287,"nsh":1288,"liz":1289,"tgeneral":1290,"ating":1291,"tou":1292,"twas":1293,"imple":1294,"ading":1295,"taxial":1296,"toccurs":1297,"scale":1298,"tta":1299,"ual":1300,"tour":1301,"tste":1302,"tdra":1303,"arth":1304,"tseen":1305,"tWhat":1306,"tdiagram":1307,"ually":1308,"ork":1309,"ental":1310,"ented":1311,"ist":1312,"isting":1313,"tfric":1314,"ttemperature":1315,"tdisloc":1316,"ology":1317,"nDe":1318,"anging":1319,"dimensional":1320,"tSuch":1321,"tHence":1322,"33":1323,"et":1324,"tcharacter":1325,"tgrowth":1326,"tparticular":1327,"tanalysis":1328,"tcore":1329,"tins":1330,"torig":1331,"tach":1332,"tsurfaces":1333,"tspac":1334,"ractures":1335,"tclose":1336,"tconditions":1337,"ga":1338,"tabove":1339,"taccumula":1340,"tratigra":1341,"ble":1342,"tplate":1343,"amples":1344,"ttypically":1345,"28":1346,"lis":1347,"ening":1348,"qui":1349,"tAl":1350,"29":1351,"35":1352,"ep":1353,"lex":1354,"toration":1355,"urther":1356,"tcontinu":1357,"pressure":1358,"mage":1359,"tlineations":1360,"treference":1361,"âĪĴ":1362,"nK":1363,"ľ\\":1364,"Ŀ\\":1365,"tsands":1366,"omes":1367,"âĢľ\\":1368,"âĢĿ\\":1369,"tinterpre":1370,"nare":1371,"treferred":1372,"ttypes":1373,"nu":1374,"nto":1375,"ndis":1376,"ount":1377,"tmag":1378,"tmetamorphic":1379,"trop":1380,"tmodels":1381,"perties":1382,"tcompaction":1383,"olds":1384,"tlithos":1385,"23":1386,"hip":1387,"tblock":1388,"twithin":1389,"tsets":1390,"ered":1391,"tmeasure":1392,"tproduc":1393,"ized":1394,"ould":1395,"verse":1396,"phy":1397,"tsimilar":1398,"tregion":1399,"tdiscuss":1400,"mod":1401,"treac":1402,"tgre":1403,"tconn":1404,"fter":1405,"nX":1406,"reg":1407,"ise":1408,"igid":1409,"tmarg":1410,"tconsider":1411,"ex":1412,"ole":1413,"tinf":1414,"ingle":1415,"tlook":1416,"tlike":1417,"tgiven":1418,"fic":1419,"ill":1420,"tstra":1421,"tside":1422,"telastic":1423,"tmylon":1424,"treduc":1425,"veral":1426,"tseveral":1427,"hap":1428,"nis":1429,"tfla":1430,"tcor":1431,"osition":1432,"tboudin":1433,"ttensile":1434,"rystalliz":1435,"twed":1436,"tdeform":1437,"liding":1438,"tuseful":1439,"tclass":1440,"torogenic":1441,"27":1442,"otrop":1443,"tfirst":1444,"tconf":1445,"tpres":1446,"twould":1447,"SA":1448,"ety":1449,"tout":1450,"tthus":1451,"tev":1452,"alc":1453,"asing":1454,"tMo":1455,"nbe":1456,"tNote":1457,"ogeneous":1458,"tbased":1459,"tpath":1460,"teffect":1461,"tobserv":1462,"nte":1463,"way":1464,"yd":1465,"tductile":1466,"trated":1467,"petent":1468,"nTh":1469,"tsee":1470,"nBox":1471,"tcircle":1472,"tveins":1473,"ger":1474,"ining":1475,"lation":1476,"nstress":1477,"tfaulting":1478,"tproperties":1479,"tlinear":1480,"treflec":1481,"atac":1482,"ia":1483,"tsingle":1484,"trong":1485,"tpore":1486,"thinge":1487,"lo":1488,"tstu":1489,"trequi":1490,"cep":1491,"parallel":1492,"tsubs":1493,"tdepends":1494,"lapse":1495,"34":1496,"thanging":1497,"tshe":1498,"tsig":1499,"tfabric":1500,"tobj":1501,"nEx":1502,"tsystem":1503,"tcomponent":1504,"25":1505,"ater":1506,"rom":1507,"ressive":1508,"tsize":1509,"aled":1510,"tgo":1511,"tshearing":1512,"tcontrol":1513,"times":1514,"tmovement":1515,"toffse":1516,"lated":1517,"aults":1518,"table":1519,"tplanes":1520,"ulation":1521,"tbecomes":1522,"thigher":1523,"mic":1524,"erical":1525,"tructures":1526,"npr":1527,"twalls":1528,"40":1529,"section":1530,"tafter":1531,"econd":1532,"rof":1533,"turing":1534,"eological":1535,"nific":1536,"tplanar":1537,"ndeformed":1538,"erstand":1539,"tellipse":1540,"tboundary":1541,"tdec":1542,"tcontra":1543,"tmean":1544,"nfault":1545,"npar":1546,"tdifference":1547,"torientations":1548,"tspec":1549,"tterms":1550,"ndiff":1551,"tpattern":1552,"36":1553,"ways":1554,"tiden":1555,"tstratigra":1556,"lied":1557,"lique":1558,"tmain":1559,"twere":1560,"38":1561,"ced":1562,"phere":1563,"tpoints":1564,"tmuch":1565,"oun":1566,"tramp":1567,"ogressive":1568,"tfolded":1569,"tconstant":1570,"tshows":1571,"tsediments":1572,"tdoes":1573,"tclay":1574,"troleum":1575,"tatic":1576,"trans":1577,"tdown":1578,"tbed":1579,"tpla":1580,"lying":1581,"ural":1582,"tten":1583,"tproj":1584,"tdifferential":1585,"aries":1586,"ximum":1587,"lexural":1588,"nV":1589,"ontinu":1590,"tele":1591,"tshale":1592,"trift":1593,"toriented":1594,"trepresent":1595,"tgeologic":1596,"tgenerally":1597,"trelationship":1598,"tima":1599,"tdens":1600,"tbur":1601,"ast":1602,"trestoration":1603,"ttectonics":1604,"tcollapse":1605,"ophys":1606,"tsc":1607,"ination":1608,"ince":1609,"tcaus":1610,"tones":1611,"tlater":1612,"tcould":1613,"texperimen":1614,"tun":1615,"ides":1616,"tdistribu":1617,"nwh":1618,"tcriter":1619,"meric":1620,"bur":1621,"etroleum":1622,"itic":1623,"tV":1624,"though":1625,"tway":1626,"omb":1627,"tbend":1628,"see":1629,"tThese":1630,"reep":1631,"Â°\\":1632,"tparticularly":1633,"/\\":1634,"Ã©":1635,"tsy":1636,"trigid":1637,"tmap":1638,"Ġ'(":1639,"tchang":1640,"tindicate":1641,"tpatterns":1642,"ling":1643,"rust":1644,"tsliding":1645,"tfa":1646,"tshould":1647,"tamount":1648,"tsignific":1649,"nla":1650,"thog":1651,"tsections":1652,"tdimension":1653,"ady":1654,"tsometimes":1655,"tphysical":1656,"trotate":1657,"tdiscussed":1658,"tsand":1659,"tstrong":1660,"tors":1661,"tgeology":1662,"osite":1663,"tcomb":1664,"nStrain":1665,"tneed":1666,"tRe":1667,"tunderstand":1668,"tdefined":1669,"tratio":1670,"ociated":1671,"ociety":1672,"tdrag":1673,";\\":1674,"ily":1675,"²\\":1676,"tthin":1677,"tbase":1678,"ication":1679,"âĢ²\\":1680,"197":1681,"tmechanical":1682,"tlarger":1683,"ncons":1684,"taddi":1685,"tinflu":1686,"thogonal":1687,"tcross":1688,"tcalc":1689,"ors":1690,"lass":1691,"ective":1692,"lies":1693,"tfollow":1694,"tcomplex":1695,"agation":1696,"twedge":1697,"aledon":1698,"cen":1699,"nY":1700,"nas":1701,"round":1702,"tinental":1703,"tposs":1704,"trem":1705,"talways":1706,"tna":1707,"tmaximum":1708,"twhat":1709,"tAn":1710,"tparts":1711,"tperf":1712,"ttip":1713,"racture":1714,"lane":1715,"tmarkers":1716,"otropic":1717,"45":1718,"col":1719,"dic":1720,"it":1721,"nma":1722,"topp":1723,"tband":1724,"tbel":1725,"osi":1726,"tyou":1727,"tprop":1728,"tdevelopment":1729,"trecrystalliz":1730,"ographic":1731,"nU":1732,"nac":1733,"ues":1734,"ertain":1735,"treverse":1736,"edi":1737,"nwhere":1738,"tknow":1739,"tmicros":1740,"tassociated":1741,"burden":1742,"ud":1743,"aling":1744,"trates":1745,"tcompetent":1746,"toblique":1747,"tcharacteristic":1748,"tsandstone":1749,"tdeformations":1750,"nTec":1751,"tforms":1752,"tval":1753,"tlevel":1754,"tcrus":1755,"tcontractional":1756,"ju":1757,"nZ":1758,"roc":1759,"und":1760,"tsecond":1761,"erg":1762,"ish":1763,"tlo":1764,"vers":1765,"tforce":1766,"trif":1767,"tdirections":1768,"ttranspor":1769,"tincrease":1770,"tnumber":1771,"toffset":1772,"ains":1773,"iations":1774,"nme":1775,"ring":1776,"arly":1777,"taneous":1778,"tlayering":1779,"tdiffusion":1780,"tcoaxial":1781,"tfact":1782,"tprocesses":1783,"tillustrated":1784,"tachment":1785,"tblocks":1786,"tdensity":1787,"tchanges":1788,"alanc":1789,"tdue":1790,"omogeneous":1791,"nFault":1792,"tmake":1793,"nFigures":1794,"twithout":1795,"oreland":1796,"tmodeling":1797,"ossen":1798,"tboundaries":1799,"tdiapirs":1800,"tMohr":1801,"tcontrast":1802,"itu":1803,"man":1804,"tide":1805,"tcreep":1806,"uck":1807,"appe":1808,"tact":1809,"nthat":1810,"tCaledon":1811,"ngra":1812,"ootwall":1813,"tincreases":1814,"tappro":1815,"view":1816,"tporous":1817,"tconsidered":1818,"tdislocation":1819,"tlithosphere":1820,"Ã©col":1821,"Ã©colle":1822,"37":1823,"60":1824,"nx":1825,"ttw":1826,"tsty":1827,"traction":1828,"ttop":1829,"nse":1830,"ncomp":1831,"tSociety":1832,"tsequ":1833,"tAs":1834,"tsimp":1835,"tusually":1836,"tinternal":1837,"tbecome":1838,"nge":1839,"tate":1840,"thard":1841,"ull":1842,"ticity":1843,"imp":1844,"tISA":1845,"tdamage":1846,"tapplied":1847,"nrock":1848,"tburial":1849,"ared":1850,"vity":1851,"tration":1852,"tbeing":1853,"tbefore":1854,"tgive":1855,"texamples":1856,"tfracturing":1857,"tthrus":1858,"tnear":1859,"nres":1860,"tsystems":1861,"tsetting":1862,"tequal":1863,"tviscosity":1864,"coaxial":1865,"tfrictional":1866,"tboudinage":1867,"der":1868,"nan":1869,"nzon":1870,"other":1871,"ule":1872,"tains":1873,"tthose":1874,"tfigure":1875,"twork":1876,"lay":1877,"tundeformed":1878,"tactive":1879,"thern":1880,"toverburden":1881,"nGeological":1882,"ttensor":1883,"tpassive":1884,"lications":1885,"nDeformation":1886,"bor":1887,"ntrans":1888,"tK":1889,"up":1890,"tec":1891,"oliation":1892,"tenough":1893,"ability":1894,"ttrac":1895,"trepresented":1896,"tNorth":1897,"ner":1898,"ned":1899,"vo":1900,"taga":1901,"tdeterm":1902,"very":1903,"ncom":1904,"nplastic":1905,"tDe":1906,"texpl":1907,"tinvolved":1908,"tcentral":1909,"dle":1910,"non":1911,"tstar":1912,"torthogonal":1913,"tice":1914,"tnow":1915,"tcontain":1916,"umm":1917,"plete":1918,"tensional":1919,"tFault":1920,"trepresents":1921,"tgeologists":1922,"tinvolves":1923,"tinitial":1924,"teasily":1925,"tspace":1926,"tsignificant":1927,"bs":1928,"rans":1929,"ving":1930,"thel":1931,"tsymmetric":1932,"tthem":1933,"tfew":1934,"tdri":1935,"tman":1936,"texpla":1937,"quation":1938,"nStress":1939,"allow":1940,"ably":1941,"tques":1942,"tadd":1943,"tcontinuous":1944,"tobservations":1945,"tcriterion":1946,"39":1947,"nulation":1948,"strain":1949,"act":1950,"iment":1951,"tnor":1952,"tanother":1953,"tThey":1954,"nSalt":1955,"nfor":1956,"nother":1957,"tmargins":1958,"tpossible":1959,"ier":1960,"most":1961,"tY":1962,"tsample":1963,"inate":1964,"tforeland":1965,"treve":1966,"lac":1967,"tlink":1968,"elf":1969,"tlat":1970,"net":1971,"tdiscontinu":1972,"inning":1973,"existing":1974,"tstud":1975,"tnatural":1976,"hes":1977,"va":1978,"tfind":1979,"tback":1980,"talthough":1981,"tSea":1982,"testim":1983,"nEquation":1984,"tstage":1985,"ylind":1986,"tresults":1987,"50":1988,"not":1989,"treal":1990,"tstrains":1991,"nAn":1992,"nRe":1993,"tEarth":1994,"tindi":1995,"nline":1996,"tfluids":1997,"tdescribed":1998,"torigin":1999,"tstraight":2000,"tdimensions":2001,"greg":2002,"ient":2003,"nel":2004,"of":2005,"oul":2006,"ineral":2007,"inite":2008,"tcatac":2009,"ording":2010,"tinte":2011,"tbalanc":2012,"nper":2013,"tprogressive":2014,"urface":2015,"tinclu":2016,"tgeometric":2017,"trotated":2018,"vidual":2019,"tAlso":2020,"âĪĴ\\":2021,"treactiv":2022,"tgreat":2023,"tpaths":2024,"oulomb":2025,"tsitu":2026,"trusion":2027,"tbu":2028,"tmid":2029,"igen":2030,"tically":2031,"tareas":2032,"textend":2033,"tmakes":2034,"nStructural":2035,"tAt":2036,"tunit":2037,"norien":2038,"toriginal":2039,"ndisplacement":2040,"tflatten":2041,"tfail":2042,"nlayer":2043,"topposite":2044,"ope":2045,"ress":2046,"inter":2047,"tbeh":2048,"tcontinental":2049,"tlaw":2050,"tseg":2051,"nSe":2052,"tforming":2053,"tpref":2054,"timplies":2055,"nWh":2056,"tdefine":2057,"tgives":2058,"tvarious":2059,"tvectors":2060,"tobjects":2061,"tcontrolled":2062,"tdistribution":2063,"voir":2064,"there":2065,"tcertain":2066,"ars":2067,"gether":2068,"treser":2069,"lasts":2070,"npro":2071,"elds":2072,"nwith":2073,"ndirec":2074,"tplotted":2075,"tconfining":2076,"au":2077,"wise":2078,"taff":2079,"tflexural":2080,"enc":2081,"tdÃ©colle":2082,"tbre":2083,"trele":2084,"tThere":2085,"nBased":2086,"nIt":2087,"nGeology":2088,"tget":2089,"tincreasing":2090,"ified":2091,"tseparated":2092,"tfriction":2093,"nThis":2094,"tstratigraphic":2095,"br":2096,"taway":2097,"thand":2098,"tser":2099,"tbook":2100,"ance":2101,"ectly":2102,"idge":2103,"tfoliations":2104,"ilic":2105,"nCon":2106,"neiss":2107,"nÏķ":2108,"ulations":2109,"tfields":2110,"tEx":2111,"lication":2112,"tappe":2113,"tregional":2114,"ndifferen":2115,"gate":2116,"ene":2117,"treas":2118,"ulti":2119,"nstructures":2120,"tasymmetric":2121,"tshallow":2122,"tAnd":2123,"pherical":2124,"tpreexisting":2125,"tprim":2126,"tWhen":2127,"lision":2128,"tlikely":2129,"cept":2130,"44":2131,"ams":2132,"hth":2133,"pec":2134,"tke":2135,"yna":2136,"tage":2137,"tsme":2138,"tfootwall":2139,"ory":2140,"tpop":2141,"letin":2142,"ings":2143,"ult":2144,"ulletin":2145,"meability":2146,"tenti":2147,"tpredic":2148,"tprof":2149,"tshowing":2150,"tdislocations":2151,"haped":2152,"jugate":2153,"ergy":2154,"ttransport":2155,"tindividual":2156,"ds":2157,"ix":2158,"nce":2159,"shaped":2160,"wall":2161,"tag":2162,"tah":2163,"thyd":2164,"toil":2165,"tfurther":2166,"tcle":2167,"tcause":2168,"trhe":2169,"arch":2170,"ommod":2171,"olid":2172,"ttotal":2173,"ocity":2174,"nFold":2175,"tvi":2176,"ilome":2177,"tgravity":2178,"telong":2179,"nÎ¸":2180,"tbasal":2181,"tupli":2182,"vious":2183,"tindicates":2184,"acks":2185,"ification":2186,"tregimes":2187,"haps":2188,"tbedding":2189,"taddition":2190,"tinfluence":2191,"tfollowing":2192,">\\":2193,"be":2194,"eper":2195,"nra":2196,"ump":2197,"time":2198,"tsl":2199,"orticity":2200,"tpol":2201,"tbelow":2202,"mph":2203,"tforces":2204,"tcomplete":2205,"trestric":2206,"ils":2207,"ience":2208,"100":2209,"tphase":2210,"vidence":2211,"tvariations":2212,"trelatively":2213,"trespect":2214,"appes":2215,"tractional":2216,"treveal":2217,"eldspar":2218,"fer":2219,"lographic":2220,"til":2221,"tir":2222,"tsolution":2223,"ort":2224,"trema":2225,"istent":2226,"tude":2227,"olding":2228,"tdetachment":2229,"tanti":2230,"texpression":2231,"tasp":2232,"nfrom":2233,"tresulting":2234,"ordinate":2235,"tsmaller":2236,"tdiapirism":2237,"tvein":2238,"tdomino":2239,"toutc":2240,"arthqu":2241,"regular":2242,"tidentical":2243,"telements":2244,"tbasement":2245,"ummary":2246,"tfailure":2247,"treservoir":2248,"dom":2249,"oto":2250,"uplex":2251,"wn":2252,"tsur":2253,"tstill":2254,"tdipping":2255,"nch":2256,"tAmeric":2257,"ored":2258,"aves":2259,"tkm":2260,"tusing":2261,"velocity":2262,"erson":2263,"nmic":2264,"nIf":2265,"tuniaxial":2266,"tviscous":2267,"eatures":2268,"topen":2269,"hthon":2270,"tentire":2271,"tview":2272,"31":2273,"The":2274,"ie":2275,"ld":2276,"lines":2277,"tsince":2278,"ice":2279,"tantaneous":2280,"nFor":2281,"tSc":2282,"tBulletin":2283,"nmechan":2284,"arily":2285,"ectors":2286,"tmicrof":2287,"tcomponents":2288,"tsupp":2289,"tmethods":2290,"tpresent":2291,"ntectonic":2292,"trecrystallization":2293,"tloading":2294,"tideal":2295,"ata":2296,"atures":2297,"gges":2298,"nimp":2299,"tstri":2300,"tthough":2301,"ales":2302,"tretching":2303,"hether":2304,"ime":2305,"tSome":2306,"odel":2307,"nPr":2308,"tperhaps":2309,"tintersection":2310,"ninc":2311,"tstates":2312,"nrela":2313,"tquite":2314,"mperatures":2315,"tlimes":2316,"tdominated":2317,"treduction":2318,"ophyses":2319,"tcrustal":2320,"tsituation":2321,"ass":2322,"ets":2323,"nform":2324,"ry":2325,"ttre":2326,"wh":2327,"teigen":2328,"trol":2329,"tdone":2330,"twater":2331,"icult":2332,"tually":2333,"tdeta":2334,"nsub":2335,"tconcen":2336,"tmade":2337,"tshap":2338,"ncan":2339,"nShear":2340,"tactiv":2341,"tleft":2342,"tprovid":2343,"tkilome":2344,"perimen":2345,"velope":2346,"tmechanics":2347,"nover":2348,"nGe":2349,"nLine":2350,"tangular":2351,"vitation":2352,"trecord":2353,"ondon":2354,"tcritical":2355,"ropagation":2356,"ttakes":2357,"tinterpretation":2358,"tmargin":2359,"trequires":2360,"tmeaning":2361,"texperiments":2362,"tmiddle":2363,"ath":2364,"atory":2365,"cop":2366,"ference":2367,"lol":2368,"ny":2369,"tZ":2370,"ttra":2371,"tfeatures":2372,"ark":2373,"tbuck":2374,"tways":2375,"ttogether":2376,"ecting":2377,"tdevi":2378,"imilar":2379,"tries":2380,"tenvelope":2381,"tparame":2382,"trelation":2383,"tgrad":2384,"tGeolog":2385,"axis":2386,"nÎ±":2387,"taccording":2388,"inned":2389,"tdepths":2390,"tdeforming":2391,"tclassic":2392,"texperimental":2393,"tuntil":2394,"tbreak":2395,"hthonous":2396,"+\\":2397,"em":2398,"nqu":2399,"plane":2400,"tevidence":2401,"trac":2402,"tword":2403,"aster":2404,"imum":2405,"tnappe":2406,"tanis":2407,"ostress":2408,"twide":2409,"sequ":2410,"nTrans":2411,"nco":2412,"ometric":2413,"tenergy":2414,"ologic":2415,"tregard":2416,"tbasins":2417,"texposed":2418,"order":2419,"nnormal":2420,"ymmetry":2421,"tsugges":2422,"tsteep":2423,"tproduce":2424,"tsubsimple":2425,"tunderstanding":2426,"edium":2427,"tCaledonides":2428,"tstudy":2429,"ylindr":2430,"tappear":2431,"treason":2432,"):\\":2433,".),\\":2434,"bility":2435,"length":2436,"nz":2437,"nro":2438,"npressure":2439,"right":2440,"ttex":2441,"titu":2442,"related":2443,"ready":2444,"tsou":2445,"arb":2446,"tpo":2447,"like":2448,"tcannot":2449,"tlast":2450,"ffic":2451,"tStrain":2452,"ately":2453,"illed":2454,"nAs":2455,"tmode":2456,"tmodul":2457,"tprov":2458,"tpermeability":2459,"ulated":2460,"ninter":2461,"tcollec":2462,"ranular":2463,"tdescribes":2464,"tkinematics":2465,"tidentif":2466,"ophysics":2467,"tsequence":2468,"tbuil":2469,"tflattening":2470,"assive":2471,"ited":2472,"ttheory":2473,"trange":2474,"tright":2475,"tposi":2476,"tmulti":2477,"anic":2478,"omer":2479,"ecess":2480,"nslip":2481,"nsalt":2482,"asin":2483,"tallow":2484,"imb":2485,"tnappes":2486,"twid":2487,"rior":2488,"inst":2489,"nfracture":2490,"tCoulomb":2491,"ndepend":2492,"ttransition":2493,"titself":2494,"tdefin":2495,"tOne":2496,"tunits":2497,"tapophyses":2498,"taccumulate":2499,"tmylonite":2500,"nTecton":2501,"tsimply":2502,"boratory":2503,"tagainst":2504,"tmantle":2505,"tquestions":2506,"ndirection":2507,"tsurround":2508,"tAmerica":2509,"ylindrical":2510,"90":2511,"less":2512,"linn":2513,"mal":2514,"tiff":2515,"thomogeneous":2516,"tearthqu":2517,"ndom":2518,"tfib":2519,"tduplex":2520,"toften":2521,"olved":2522,"tdikes":2523,"tpreser":2524,"niaxial":2525,"aleostress":2526,"nby":2527,"oudin":2528,"tupward":2529,"tadj":2530,"tdeveloped":2531,"tdomains":2532,"resp":2533,"tUtah":2534,"tcurve":2535,"tcrenulation":2536,"gative":2537,"taccumulates":2538,"tmeasurements":2539,"module":2540,"tperfectly":2541,"tpropag":2542,"tnorthern":2543,"interland":2544,"taggreg":2545,"king":2546,"nne":2547,"ron":2548,"ration":2549,"ttri":2550,"well":2551,"tato":2552,"tsour":2553,"ences":2554,"tmig":2555,"tmedium":2556,"ecause":2557,"osilic":2558,"tlaboratory":2559,"llosilic":2560,"tdiss":2561,"196":2562,"pped":2563,"tdifficult":2564,"nAmeric":2565,"tleast":2566,"nDis":2567,"nob":2568,"nWe":2569,"tadv":2570,"tporosity":2571,"valu":2572,"nbetween":2573,"tgood":2574,"tramps":2575,"nwhich":2576,"tremo":2577,"tbelts":2578,"manent":2579,"nzone":2580,"tdÃ©collement":2581,"nTectonophysics":2582,"cess":2583,"horizontal":2584,"yp":2585,"tained":2586,"onse":2587,"tfinite":2588,"orth":2589,"tpole":2590,"tpetroleum":2591,"nste":2592,"ostatic":2593,"tcontact":2594,"tSe":2595,"ttemperatures":2596,"tdistance":2597,"tproble":2598,"nitude":2599,"tCon":2600,"nDi":2601,"tvers":2602,"tcoordinate":2603,"duction":2604,"akes":2605,"nLondon":2606,"matically":2607,"tphases":2608,"tcollision":2609,"ledge":2610,"tparticle":2611,"tassum":2612,"values":2613,"tdiagrams":2614,"tcurved":2615,"tNorway":2616,"tinstance":2617,"tclosely":2618,"tinterpreted":2619,"tmeasured":2620,"tcauses":2621,"tperfect":2622,"tapproach":2623,"thardening":2624,"tsettings":2625,"tirregular":2626,"toutcrop":2627,"nAmerican":2628,"ben":2629,"gl":2630,"noc":2631,"ob":2632,"shear":2633,"state":2634,"wo":2635,"tectonic":2636,"alf":2637,"eneral":2638,"aring":2639,"tprior":2640,"istance":2641,"tcontains":2642,"verg":2643,"version":2644,"tcompression":2645,"ttell":2646,"tacts":2647,"nfractures":2648,"nivers":2649,"tconstruc":2650,"ttrue":2651,"tPetroleum":2652,"toverlap":2653,"toverpressure":2654,"placements":2655,"ization":2656,"ttranspression":2657,"nÎ¼":2658,"tbasin":2659,"theter":2660,"lanar":2661,"tobserved":2662,"tspacing":2663,"tsandstones":2664,"tevolution":2665,"tstudi":2666,"trequired":2667,"tdecre":2668,"tstratigraphy":2669,"tprojection":2670,"tprojections":2671,"tcombination":2672,"tbelt":2673,"tthrusting":2674,"tdiscontinuities":2675,"hesive":2676,"testimate":2677,"tlimestone":2678,"Pa":2679,"sh":2680,"tter":2681,"toce":2682,"tored":2683,"tspre":2684,"arrow":2685,"ttoo":2686,"torder":2687,"trather":2688,"talready":2689,"tfron":2690,"texpress":2691,"tmapping":2692,"tmotion":2693,"ffith":2694,"twhy":2695,"riffith":2696,"tvis":2697,"tvary":2698,"isms":2699,"tFossen":2700,"tMa":2701,"tkink":2702,"tGe":2703,"toverla":2704,"tstages":2705,"thowever":2706,"tparticles":2707,"tassump":2708,"tmaterials":2709,"tresponse":2710,"teasy":2711,"tsheets":2712,"tpropagation":2713,"tlattice":2714,"pecial":2715,"trestricted":2716,"tmodulus":2717,"mb":2718,"propagation":2719,"tition":2720,"rent":2721,"tfar":2722,"tfeldspar":2723,"ediment":2724,"acent":2725,"ows":2726,"tern":2727,"tgneiss":2728,"ceed":2729,"rag":2730,"tsealing":2731,"tingu":2732,"tdistingu":2733,"tgravitation":2734,"ages":2735,"tdirectly":2736,"trices":2737,"nwe":2738,"tEven":2739,"tclos":2740,"thinges":2741,"tinvolve":2742,"tcrystallographic":2743,"touter":2744,"lished":2745,"tevents":2746,"npartic":2747,"tstyle":2748,"tbalancing":2749,"treactivation":2750,"norientation":2751,"tsupport":2752,"tshapes":2753,"tparameters":2754,"niversity":2755,"32":2756,"Qu":2757,"con":2758,"ots":2759,"ttur":2760,"tvelocity":2761,"vant":2762,"yed":2763,"zed":2764,"tibility":2765,"tfree":2766,"tcut":2767,"antly":2768,"trepe":2769,"ternal":2770,"nsy":2771,"nFaults":2772,"nSc":2773,"nSection":2774,"ird":2775,"tlead":2776,"trelate":2777,"tarc":2778,"tarr":2779,"tconsistent":2780,"tPress":2781,"nbrittle":2782,"tjoin":2783,"nmore":2784,"tRock":2785,"tsoft":2786,"tgeometries":2787,"trepresen":2788,"tfactors":2789,"nextension":2790,"tcenter":2791,"tcrystals":2792,"cope":2793,"phyroc":2794,"tconnection":2795,"ectively":2796,"tyoung":2797,"tvalue":2798,"nrocks":2799,"ttrace":2800,"tcataclastic":2801,"tsegments":2802,"tuplift":2803,"tkilometers":2804,"tGeologists":2805,"taggregates":2806,"00":2807,":',":2808,"ila":2809,"ither":2810,"oe":2811,"uter":2812,"yllosilic":2813,"tevery":2814,"ern":2815,"tpp":2816,"ocal":2817,"tgran":2818,"tglac":2819,"talmost":2820,"lier":2821,"nFolds":2822,"nFossen":2823,"oretical":2824,"nfaults":2825,"tFurther":2826,"tFlinn":2827,"urfaces":2828,"ode":2829,"tWhere":2830,"tconstrain":2831,"tPlate":2832,"tjust":2833,"rowth":2834,"ttim":2835,"chist":2836,"nhave":2837,"tshorten":2838,"tlocated":2839,"tindicated":2840,"tdiagonal":2841,"tmovements":2842,"tdepending":2843,"tlimbs":2844,"tcreate":2845,"tinstantaneous":2846,"tmylonites":2847,"tobservation":2848,"tobject":2849,"tspecif":2850,"tcaused":2851,"undred":2852,"tseries":2853,"tprimary":2854,"Eds":2855,"bric":2856,"fault":2857,"jor":2858,"now":2859,"nrec":2860,"oiss":2861,"pr":2862,"tevalu":2863,"orld":2864,"twhether":2865,"tpe":2866,"tred":2867,"tdeep":2868,"ociation":2869,"lith":2870,"texceed":2871,"tyield":2872,"ogy":2873,"mend":2874,"aper":2875,"llus":2876,"tmeters":2877,"nthick":2878,"avelength":2879,"tarrow":2880,"tnet":2881,"tinters":2882,"nax":2883,"ttypical":2884,"grained":2885,"taccommod":2886,"timbric":2887,"resting":2888,"tseparation":2889,"topening":2890,"ttake":2891,"tmagma":2892,"tmicroscale":2893,"nTectonic":2894,"trifting":2895,"tapproxim":2896,"texplain":2897,"tadded":2898,"trealistic":2899,"ynamic":2900,"tprofile":2901,"bend":2902,"what":2903,"copic":2904,"arbon":2905,"tassumed":2906,"tPlateau":2907,"oisson":2908,"des":2909,"more":2910,"rou":2911,"rus":2912,"tially":2913,"thapp":2914,"tsla":2915,"tstiff":2916,"tetc":2917,"tfav":2918,"tru":2919,"tpic":2920,"tmed":2921,"tantic":2922,"tmajor":2923,"nThere":2924,"ncre":2925,"nces":2926,"tvorticity":2927,"tdisplacements":2928,"pher":2929,"nfold":2930,"tensive":2931,"testima":2932,"nPh":2933,"tpermanent":2934,"tincom":2935,"tBoth":2936,"andstone":2937,"nreg":2938,"ogenic":2939,"tshort":2940,"rictional":2941,"ambr":2942,"location":2943,"tfactor":2944,"tfacies":2945,"tdescrip":2946,"tgenerate":2947,"tcircles":2948,"tequation":2949,"nprincipal":2950,"tadditional":2951,"nacc":2952,"tstylol":2953,"tstart":2954,"fficient":2955,"tdefinition":2956,"tadjacent":2957,"tversus":2958,"noccur":2959,"ambridge":2960,"%\\":2961,"55":2962,"ake":2963,"ging":2964,"its":2965,"ken":2966,"plastic":2967,"tava":2968,"thor":2969,"thost":2970,"thinterland":2971,"thalf":2972,"thundred":2973,"tos":2974,"tthinning":2975,"tched":2976,"tintrusion":2977,"arge":2978,"tpaleostress":2979,"tisotropic":2980,"ssociation":2981,"oung":2982,"nsome":2983,"nsedimen":2984,"nsimple":2985,"tnecess":2986,"tTec":2987,"tconjugate":2988,"typ":2989,"verage":2990,"seismic":2991,"fferen":2992,"tcompress":2993,"ncleavage":2994,"ometry":2995,"nflow":2996,"nthetic":2997,"tinction":2998,"leavages":2999,"tlittle":3000,"nÎ³":3001,"rack":3002,"nnon":3003,"tamorph":3004,"ophysical":3005,"tmagmatic":3006,"tmagnitude":3007,"tmylonitic":3008,"tcorresp":3009,"tspecial":3010,"tstrongly":3011,"tvalues":3012,"tsecondary":3013,"ngrain":3014,"thelp":3015,"toriginally":3016,"tpreferred":3017,"tatomic":3018,"97":3019,"iod":3020,"lli":3021,"mber":3022,"nar":3023,"npre":3024,"oy":3025,"rich":3026,"thrust":3027,"rest":3028,"tspherical":3029,"tearly":3030,"inology":3031,"tche":3032,"tcour":3033,"arp":3034,"tpene":3035,"ises":3036,"ower":3037,"tdeg":3038,"tcongl":3039,"texisting":3040,"textensive":3041,"tmaps":3042,"tmatrices":3043,"erences":3044,"nfoliation":3045,"tprom":3046,"avi":3047,"tThus":3048,"deformation":3049,"ublication":3050,"tflows":3051,"izes":3052,"nÎ½":3053,"tportra":3054,"2004":3055,"trotates":3056,"tOn":3057,"tUniversity":3058,"tcentime":3059,"area":3060,"tseparate":3061,"tdescribe":3062,"tlonger":3063,"nprocess":3064,"tbends":3065,"tthrusts":3066,"tcompletely":3067,"tprovides":3068,"tmodeled":3069,"tprovide":3070,"oudinage":3071,"tdissolution":3072,"pheric":3073,"tavaila":3074,"tconglomer":3075,"fractures":3076,"nown":3077,"vron":3078,"requ":3079,"tsediment":3080,"inch":3081,"tther":3082,"entation":3083,"ently":3084,"enced":3085,"arlier":3086,"ishear":3087,"istric":3088,"uccess":3089,"tnature":3090,"texh":3091,"textent":3092,"tstrained":3093,"tSpecial":3094,"nSch":3095,"tresistance":3096,"lasis":3097,"troof":3098,"nthis":3099,"nthere":3100,"ightly":3101,"tField":3102,"ody":3103,"tabs":3104,"tcrack":3105,"tGeological":3106,"tincl":3107,"tsomewhat":3108,"tinterfac":3109,"ttips":3110,"tDi":3111,"nÎ»":3112,"tphyllosilic":3113,"tcolum":3114,"ttension":3115,"tindica":3116,"2003":3117,"tunderlying":3118,"value":3119,"nshown":3120,"telev":3121,"tneeded":3122,"tCaledonian":3123,"ncommon":3124,"tbehavi":3125,"ndifferent":3126,"amsay":3127,"nincre":3128,"tearthquakes":3129,"texpressed":3130,"tdistinguish":3131,"46":3132,"Re":3133,"eg":3134,"go":3135,"hand":3136,"medi":3137,"nus":3138,"âī":3139,"tative":3140,"tom":3141,"ina":3142,"ndisc":3143,"tfaster":3144,"tcoun":3145,"tcleavages":3146,"trum":3147,"ero":3148,"tual":3149,"ultaneous":3150,"tonce":3151,"tfaulted":3152,"texternal":3153,"vertical":3154,"tmapped":3155,"nchan":3156,"yses":3157,"tacting":3158,"npor":3159,"trelates":3160,"tprob":3161,"testab":3162,"tClass":3163,"tMechan":3164,"lue":3165,"timpor":3166,"tnegative":3167,"tobtain":3168,"nalong":3169,"nmodel":3170,"tminimum":3171,"nrepres":3172,"nHow":3173,"thetic":3174,"2000":3175,"tOther":3176,"nextensional":3177,"1987":3178,"tcurv":3179,"tcurves":3180,"tlimited":3181,"tnumerical":3182,"tconnected":3183,"tpresented":3184,"tevent":3185,"nparallel":3186,"tplace":3187,"tknowledge":3188,"nzones":3189,"tincluding":3190,"nSee":3191,"trelevant":3192,"tpopulations":3193,"nimportant":3194,"tmigration":3195,"tyounger":3196,"ttimes":3197,"51":3198,"ain":3199,"ning":3200,"oz":3201,"ses":3202,"vectors":3203,"xtap":3204,"ying":3205,"tindepend":3206,"tenc":3207,"teither":3208,"nduring":3209,"tfine":3210,"tinent":3211,"treview":3212,"tlog":3213,"terna":3214,"tconc":3215,"tstretched":3216,"meter":3217,"member":3218,"tcome":3219,"tShear":3220,"tAssociation":3221,"nAc":3222,"tHe":3223,"nmineral":3224,"tDuring":3225,"inci":3226,"grain":3227,"tWhy":3228,"gest":3229,"1992":3230,"1994":3231,"tanalyses":3232,"tUs":3233,"ompaction":3234,"texperiment":3235,"arent":3236,"tillustration":3237,"linear":3238,"tinitiate":3239,"twedges":3240,"otropy":3241,"treflect":3242,"treflects":3243,"tsheared":3244,"tdistributed":3245,"tcalculated":3246,"tremote":3247,"nellip":3248,"tinteresting":3249,"nlayers":3250,"tsmear":3251,"tclear":3252,"telongation":3253,"tslightly":3254,"mphib":3255,"taspect":3256,"tmicrofractures":3257,"sequence":3258,"twidth":3259,"toceanic":3260,"oelastic":3261,"tFurthermore":3262,"tbehavior":3263,"PO":3264,"ntens":3265,"ntwo":3266,"nad":3267,"oted":3268,"where":3269,"tslow":3270,"tstable":3271,"tcar":3272,"tintro":3273,"treach":3274,"lat":3275,"inge":3276,"tlens":3277,"nstrike":3278,"nsurfaces":3279,"tcontex":3280,"tconcept":3281,"tmathe":3282,"ncline":3283,"tSan":3284,"tAnother":3285,"tresolved":3286,"nthrust":3287,"nelastic":3288,"tFolds":3289,"tprac":3290,"tCol":3291,"aged":3292,"ndep":3293,"nMic":3294,"nJoints":3295,"toverall":3296,"nrelated":3297,"tterminology":3298,"nhigh":3299,"racturing":3300,"tlargest":3301,"tincreased":3302,"ylli":3303,"tthroughout":3304,"onds":3305,"tgeologist":3306,"nexp":3307,"tlimb":3308,"tplotting":3309,"trespectively":3310,"onstruc":3311,"esearch":3312,"tflaw":3313,"tclassification":3314,"ntemperature":3315,"lope":3316,"tsheet":3317,"tfabrics":3318,"nExtension":3319,"tlateral":3320,"tReading":3321,"tfigures":3322,"tagain":3323,"tDeformation":3324,"texplored":3325,"tstarts":3326,"taffected":3327,"tAnderson":3328,"ixed":3329,"trheology":3330,"nmicros":3331,"nrelations":3332,"tdetail":3333,"periments":3334,"tsurrounding":3335,"titioning":3336,"trepeated":3337,"tshortened":3338,"tpicture":3339,"inciple":3340,"ik":3341,"iated":3342,"nph":3343,"nlow":3344,"nab":3345,"over":3346,"simple":3347,"work":3348,"toper":3349,"tsa":3350,"tsamples":3351,"tsolid":3352,"inis":3353,"tfe":3354,"tflex":3355,"org":3356,"orad":3357,"estern":3358,"tworld":3359,"tpur":3360,"tput":3361,"tposition":3362,"left":3363,"treli":3364,"ommend":3365,"oll":3366,"trative":3367,"tbetter":3368,"forming":3369,"lide":3370,"nFrom":3371,"ider":3372,"tmoves":3373,"tructure":3374,"meable":3375,"tII":3376,"qual":3377,"nStrike":3378,"andin":3379,"tchall":3380,"tential":3381,"nplane":3382,"nCambridge":3383,"netic":3384,"ighbor":3385,"tprinciple":3386,"tsimultaneous":3387,"tkind":3388,"tGriffith":3389,"tcomplic":3390,"tcomputer":3391,"tperiod":3392,"nbound":3393,"nMc":3394,"nMo":3395,"dient":3396,"nalso":3397,"tResearch":3398,"toverlying":3399,"duced":3400,"aks":3401,"tsof":3402,"telliptical":3403,"tapply":3404,"tanaly":3405,"nkinematic":3406,"tuniform":3407,"nOr":3408,"nvolume":3409,"tcharacterized":3410,"tlithostatic":3411,"tstrata":3412,"tdeforms":3413,"tpresence":3414,"toffsets":3415,"tdecomp":3416,"tdownward":3417,"timages":3418,"tcriteria":3419,"tinfluenced":3420,"trifts":3421,"tsequences":3422,"tlinkage":3423,"tbalanced":3424,"textended":3425,"nWhen":3426,"mphas":3427,"tremain":3428,"domains":3429,"tthought":3430,"imeter":3431,"twords":3432,"tassumption":3433,"tcloser":3434,"tavailable":3435,"tthermal":3436,"tphyllosilicate":3437,"tindicators":3438,"timportance":3439,"ommended":3440,"ighboring":3441,"tcomplicated":3442,"Further":3443,"Summary":3444,"ator":3445,"din":3446,"filled":3447,"gine":3448,"granular":3449,"ially":3450,"log":3451,"un":3452,"west":3453,"yc":3454,"âĹ":3455,"taverage":3456,"tamphib":3457,"rete":3458,"toli":3459,"tthird":3460,"ttheoretical":3461,"nds":3462,"tcem":3463,"ortening":3464,"tbody":3465,"twavelength":3466,"trese":3467,"hematic":3468,"istos":3469,"olite":3470,"ounc":3471,"tdeeper":3472,"nsurface":3473,"nstretching":3474,"trap":3475,"ucle":3476,"ocus":3477,"lif":3478,"nFlow":3479,"tdilation":3480,"texist":3481,"ogni":3482,"tcompe":3483,"ncalled":3484,"tStress":3485,"nSome":3486,"irly":3487,"tcho":3488,"erentially":3489,"alls":3490,"last":3491,"tplu":3492,"nAl":3493,"turally":3494,"trelay":3495,"tFaults":3496,"rect":3497,"ularly":3498,"tgraph":3499,"tGra":3500,"tcompens":3501,"nMa":3502,"timplications":3503,"tBy":3504,"thighly":3505,"ttranstension":3506,"tsphere":3507,"nÎ²":3508,"nhorizontal":3509,"tangles":3510,"tWhile":3511,"trecommended":3512,"1990":3513,"1993":3514,"vided":3515,"1980":3516,"torogeny":3517,"rostatic":3518,"tlengths":3519,"ylonite":3520,"aracteristic":3521,"nKinematic":3522,"nund":3523,"rystallization":3524,"tcalcite":3525,"texplore":3526,"tquestion":3527,"tlatter":3528,"nlinear":3529,"tinclude":3530,"olidated":3531,"taspects":3532,"tpositive":3533,"tpreserved":3534,"tproblem":3535,"prin":3536,"tstylolites":3537,"tcontext":3538,"âĹĪ":3539,"ounced":3540,"43":3541,"<\\":3542,"?',":3543,"Chapter":3544,"Mod":3545,"by":3546,"pac":3547,"sts":3548,"swell":3549,"ute":3550,"unc":3551,"weg":3552,"xtral":3553,"town":3554,"tsch":3555,"tsymmetry":3556,"tslope":3557,"onent":3558,"onding":3559,"onounced":3560,"temperature":3561,"tden":3562,"tinversion":3563,"ols":3564,"ormation":3565,"nsuch":3566,"nsection":3567,"imal":3568,"oses":3569,"training":3570,"twet":3571,"ncol":3572,"ncrystal":3573,"ncertain":3574,"tSalt":3575,"nSh":3576,"tAr":3577,"umb":3578,"umation":3579,"nClass":3580,"iently":3581,"nAr":3582,"nAll":3583,"tprogra":3584,"tMore":3585,"nRec":3586,"tconsists":3587,"tconstitu":3588,"perture":3589,"nBe":3590,"tobvious":3591,"tNew":3592,"nwill":3593,"angular":3594,"ulate":3595,"115":3596,"part":3597,"toccurring":3598,"axes":3599,"ogene":3600,"ttransformation":3601,"ttransfer":3602,"veloped":3603,"tsedimentation":3604,"tlocally":3605,"nless":3606,"everal":3607,"lection":3608,"tdevelops":3609,"2006":3610,"tOnce":3611,"nknown":3612,"tquartzite":3613,"tdominate":3614,"tribution":3615,"357":3616,"tlooking":3617,"treduced":3618,"tcorre":3619,"nExtensional":3620,"tspectrum":3621,"tbending":3622,"tfairly":3623,"trecrystallized":3624,"tlevels":3625,"nperpendicular":3626,"tpreferentially":3627,"ency":3628,"encil":3629,"ndifferential":3630,"tpredict":3631,"tbuckling":3632,"tanisotropic":3633,"tpotential":3634,"tbuild":3635,"tfibers":3636,"tirregularities":3637,"tstudies":3638,"tfront":3639,"tgravitational":3640,"trepresenting":3641,"phyroclasts":3642,"nthickness":3643,"timbrication":3644,"testimated":3645,"tcurvature":3646,"tindependent":3647,"inistral":3648,"orado":3649,"istosity":3650,"wegian":3651,"53":3652,"74":3653,"aw":3654,"ferred":3655,"kinned":3656,"lick":3657,"mid":3658,"off":3659,"raction":3660,"rup":3661,"son":3662,"stress":3663,"ype":3664,"thick":3665,"thwest":3666,"tsus":3667,"tske":3668,"tthink":3669,"tearlier":3670,"ndip":3671,"tfocus":3672,"tron":3673,"ened":3674,"art":3675,"twant":3676,"tmon":3677,"trength":3678,"head":3679,"ational":3680,"tiso":3681,"tlistric":3682,"tradi":3683,"tTo":3684,"ostly":3685,"tfrag":3686,"tconven":3687,"tmoving":3688,"nThr":3689,"tcomes":3690,"nSy":3691,"nSand":3692,"tence":3693,"ological":3694,"oreh":3695,"nfolds":3696,"matical":3697,"troot":3698,"neff":3699,"tdifferently":3700,"tcracks":3701,"nRo":3702,"agra":3703,"tcompa":3704,"tPublication":3705,"nMar":3706,"timply":3707,"tBecause":3708,"nwell":3709,"anged":3710,"nGra":3711,"chni":3712,"oudins":3713,"velopment":3714,"tlocations":3715,"tzero":3716,"tportion":3717,"tmica":3718,"tmicro":3719,"amental":3720,"tdeposi":3721,"1986":3722,"1989":3723,"tvariety":3724,"tlocalized":3725,"texperien":3726,"ttends":3727,"ositional":3728,"tsubsid":3729,"tmicroscope":3730,"undamental":3731,"ttransported":3732,"ttopics":3733,"ncompaction":3734,"tdetermined":3735,"tdriven":3736,"tinterest":3737,"taffect":3738,"texpressions":3739,"treservoirs":3740,"nmechanisms":3741,"trecorded":3742,"tanisotropy":3743,"tallows":3744,"tsource":3745,"tremoved":3746,"tSee":3747,"tarrows":3748,"tdescription":3749,"tamorphism":3750,"tportrayed":3751,"going":3752,"ozo":3753,"ikoff":3754,"tflexure":3755,"âĹĪ',":3756,"Module":3757,"47":3758,"68":3759,"called":3760,"ey":3761,"ean":3762,"faks":3763,"itch":3764,"nle":3765,"nhe":3766,"nangle":3767,"napp":3768,"nlith":3769,"ntyp":3770,"rough":3771,"sections":3772,"Ã¸":3773,"timage":3774,"tated":3775,"tsound":3776,"temphas":3777,"ndata":3778,"tfam":3779,"tfrequ":3780,"tcub":3781,"tcare":3782,"trations":3783,"orien":3784,"tdense":3785,"tinner":3786,"ariation":3787,"tpus":3788,"tpull":3789,"tpinch":3790,"heology":3791,"law":3792,"laps":3793,"tuncertain":3794,"omal":3795,"ouge":3796,"ign":3797,"igned":3798,"tdev":3799,"nset":3800,"tgas":3801,"talloc":3802,"tnarrow":3803,"osen":3804,"osion":3805,"elt":3806,"idual":3807,"tSimilar":3808,"tseal":3809,"tactual":3810,"nfield":3811,"trestored":3812,"iles":3813,"nCh":3814,"nCom":3815,"tprevious":3816,"nPlastic":3817,"nData":3818,"nbec":3819,"tinterval":3820,"tcover":3821,"ttranslation":3822,"154":3823,"tmineralogy":3824,"tbasic":3825,"tdefects":3826,"everthel":3827,"tplastically":3828,"iscosity":3829,"texpand":3830,"texpected":3831,"nnot":3832,"tthicker":3833,"twells":3834,"tLet":3835,"berg":3836,"1988":3837,"tcircular":3838,"texperience":3839,"ranch":3840,"tivity":3841,"onstant":3842,"nshale":3843,"tdrawn":3844,"tachments":3845,"treached":3846,"tconnect":3847,"tconnecting":3848,"treduce":3849,"tscales":3850,"tVer":3851,"tcomplexes":3852,"ullfaks":3853,"tecton":3854,"texplained":3855,"testimates":3856,"tsegment":3857,"ynam":3858,"tremains":3859,"domin":3860,"tgradually":3861,"nrotation":3862,"theterogeneous":3863,"tspread":3864,"llustration":3865,"tTectonic":3866,"Review":3867,"tcounter":3868,"tprobably":3869,"tpurp":3870,"andinav":3871,"atoric":3872,"orehole":3873,"evertheless":3874,".-":3875,"Fault":3876,"hing":3877,"mi":3878,"mental":3879,"nj":3880,"oid":3881,"skinned":3882,"yered":3883,"ze":3884,"tages":3885,"tahead":3886,"thence":3887,"reas":3888,"tthings":3889,"telec":3890,"tfour":3891,"tfill":3892,"tfit":3893,"tfish":3894,"ential":3895,"tder":3896,"tdig":3897,"tintens":3898,"tmm":3899,"tmes":3900,"hel":3901,"oliations":3902,"tisog":3903,"ormally":3904,"tdetec":3905,"nsw":3906,"nsmall":3907,"nstructural":3908,"nsyste":3909,"nstable":3910,"trad":3911,"talterna":3912,"tedge":3913,"tname":3914,"tnam":3915,"lit":3916,"nFracture":3917,"tdips":3918,"textr":3919,"type":3920,"rob":3921,"tsharp":3922,"tlayered":3923,"nTwo":3924,"tSch":3925,"nSummary":3926,"atelli":3927,"tpartly":3928,"tpartitioning":3929,"npure":3930,"nCleavage":3931,"tury":3932,"tpronounced":3933,"nÏģ":3934,"tCom":3935,"tMost":3936,"tMany":3937,"nRes":3938,"tHere":3939,"tPoisson":3940,"def":3941,"nMod":3942,"ditional":3943,"tneighboring":3944,"nmin":3945,"111":3946,"nindic":3947,"tregular":3948,"tellipses":3949,"enschist":3950,"179":3951,"tlocation":3952,"tphoto":3953,"texpect":3954,"trecogni":3955,"2007":3956,"1983":3957,"tgenerated":3958,"teffective":3959,"nOn":3960,"ophysis":3961,"tillustrates":3962,"iedel":3963,"tmarker":3964,"ancy":3965,"tNorwegian":3966,"tratigraphic":3967,"tlithospheric":3968,"tproduces":3969,"tgreater":3970,"lob":3971,"loor":3972,"trequire":3973,"nwhile":3974,"orses":3975,"tdetermine":3976,"tcontinuously":3977,"tYork":3978,"tdiscontinuity":3979,"hesion":3980,"treactivated":3981,"nWhile":3982,"tkey":3983,"perimental":3984,"tbuckle":3985,"tcollected":3986,"rustal":3987,"tfavor":3988,"tdegree":3989,"mediate":3990,"tlenses":3991,"tColorado":3992,"trapid":3993,"tfragments":3994,"ozoic":3995,"77":3996,"amage":3997,"bore":3998,"cm":3999,"cton":4000,"ef":4001,"fold":4002,"fabric":4003,"ital":4004,"itions":4005,"iers":4006,"ived":4007,"lot":4008,"linal":4009,"nins":4010,"uge":4011,"utral":4012,"zil":4013,"tsuccess":4014,"also":4015,"alach":4016,"tfixed":4017,"tcyc":4018,"erm":4019,"oring":4020,"enlines":4021,"tpos":4022,"tmill":4023,"ulli":4024,"nstructure":4025,"talone":4026,"tnucle":4027,"ellow":4028,"tyour":4029,"razil":4030,"tmoved":4031,"tlam":4032,"tlate":4033,"tSandstone":4034,"twhose":4035,"ques":4036,"nSimple":4037,"ttechni":4038,"rift":4039,"tached":4040,"tAll":4041,"tApp":4042,"tdispla":4043,"trest":4044,"nCoulomb":4045,"tprec":4046,"turb":4047,"tgradient":4048,"tability":4049,"ade":4050,"aggreg":4051,"ngeneral":4052,"nthey":4053,"deally":4054,"nMany":4055,"timplying":4056,"dition":4057,"tBut":4058,"tintermediate":4059,"reek":4060,"tmechanically":4061,"nass":4062,"nmove":4063,"tothers":4064,"ninformation":4065,"tification":4066,"tcool":4067,"leston":4068,"ttigh":4069,"tquan":4070,"ibility":4071,"nÎĶ":4072,"grains":4073,"tapparent":4074,"nlength":4075,"texplan":4076,"treconstruc":4077,"tpass":4078,"1996":4079,"2002":4080,"inner":4081,"rystalline":4082,"teffects":4083,"porous":4084,"260":4085,"lockwise":4086,"tequations":4087,"tcreates":4088,"ttaken":4089,"tstep":4090,"taccumulation":4091,"nupper":4092,"phyrob":4093,"tregions":4094,"tconfus":4095,"ataclastic":4096,"tgoing":4097,"ountain":4098,"tburied":4099,"tcausing":4100,"tsignificantly":4101,"tcombined":4102,"tnaturally":4103,"nactive":4104,"udleston":4105,"tcharacteristics":4106,"nmetamorphic":4107,"ttwins":4108,"nsepar":4109,"tworks":4110,"tlaws":4111,"tkeep":4112,"thydroc":4113,"tclearly":4114,"tpoles":4115,"tantithetic":4116,"nrelative":4117,"ttreated":4118,"teigenvalues":4119,"nquartz":4120,"tidentify":4121,"tpositions":4122,"tsources":4123,"toverlapping":4124,"tgneisses":4125,"nparticularly":4126,"tarrange":4127,"tRocks":4128,"tgranitic":4129,"tspecifically":4130,"tintersect":4131,"thappens":4132,"tmedia":4133,"tcompressive":4134,"tcourse":4135,"tconglomerate":4136,"testablished":4137,"nHowever":4138,"tchalleng":4139,"tsoftening":4140,"tisolated":4141,"nThrust":4142,"110":4143,"57":4144,"QF":4145,"cylindrical":4146,"etamorphic":4147,"ears":4148,"jection":4149,"nterm":4150,"oh":4151,"rock":4152,"ste":4153,"ttu":4154,"tsay":4155,"tthinner":4156,"ones":4157,"tful":4158,"tfinal":4159,"tfunc":4160,"tfundamental":4161,"tcap":4162,"ert":4163,"ener":4164,"ention":4165,"arc":4166,"tbo":4167,"tpaper":4168,"tmention":4169,"treme":4170,"tretur":4171,"ison":4172,"tish":4173,"tisostatic":4174,"ttom":4175,"acanc":4176,"terosion":4177,"nsc":4178,"vered":4179,"forms":4180,"ochthonous":4181,"ash":4182,"aulting":4183,"tgouge":4184,"tonto":4185,"imary":4186,"tframe":4187,"elves":4188,"twider":4189,"Ġ'\\":4190,"raw":4191,"mpor":4192,"ncri":4193,"ncirc":4194,"taccur":4195,"tchosen":4196,"umerical":4197,"tmeant":4198,"nflexural":4199,"nfolding":4200,"nfrictional":4201,"ansion":4202,"lasite":4203,"nCol":4204,"tgrade":4205,"tCPO":4206,"tMPa":4207,"nRamsay":4208,"tconsist":4209,"tconsisting":4210,"tthrow":4211,"tcomposed":4212,"ndef":4213,"tPr":4214,"tBasin":4215,"nIllustration":4216,"tflowing":4217,"nEl":4218,"tgets":4219,"tcovered":4220,"tquick":4221,"tspots":4222,"nhyd":4223,"tnote":4224,"tgrows":4225,"tpair":4226,"tclock":4227,"1999":4228,"tanalog":4229,"tLine":4230,"nNote":4231,"tcentury":4232,"tvaries":4233,"issing":4234,"issure":4235,"tseparating":4236,"tapophysis":4237,"nstrained":4238,"tsteeper":4239,"tinterpret":4240,"nuniaxial":4241,"tconsidering":4242,"tconsiderably":4243,"tconfined":4244,"treflected":4245,"cepts":4246,"402":4247,"timag":4248,"tlaterally":4249,"ttwinning":4250,"tAndreas":4251,"tuplif":4252,"ackson":4253,"ncharacteristic":4254,"tScandinav":4255,"tstriations":4256,"trolled":4257,"tsuggested":4258,"tpropagating":4259,"nstead":4260,"ttells":4261,"theterogene":4262,"tdecreases":4263,"tvisual":4264,"tGeophysical":4265,"nSchematic":4266,"tnecessarily":4267,"tpenetrative":4268,"deformational":4269,"tcentimeter":4270,"tinclusion":4271,"tinterfaces":4272,"nrelationship":4273,"tchoice":4274,"printing":4275,"imalay":4276,"agram":4277,"tisogons":4278,"atellite":4279,"acancies":4280,"54":4281,"70":4282,"ISA":4283,"ae":4284,"ainal":4285,"ck":4286,"foliation":4287,"gence":4288,"lin":4289,"ler":4290,"nformation":4291,"ntime":4292,"olate":4293,"oading":4294,"ru":4295,"tQu":4296,"vis":4297,"vine":4298,"tau":4299,"taperture":4300,"reat":4301,"ressure":4302,"tol":4303,"tspe":4304,"nductile":4305,"tfilled":4306,"tclasts":4307,"erous":4308,"orph":4309,"twri":4310,"tpub":4311,"ished":4312,"tul":4313,"tunless":4314,"tories":4315,"tloss":4316,"tdemon":4317,"tdextral":4318,"nscale":4319,"nstrength":4320,"tanomal":4321,"tTwo":4322,"tcontacts":4323,"els":4324,"twiden":4325,"tstretch":4326,"rops":4327,"tweight":4328,"tshad":4329,"tIran":4330,"ncor":4331,"nSub":4332,"tformula":4333,"nfluid":4334,"1960":4335,"pposite":4336,"ille":4337,"illi":4338,"tdifferences":4339,"nCo":4340,"nAnd":4341,"test":4342,"hanging":4343,"tarra":4344,"nPar":4345,"nPassive":4346,"tGreek":4347,"nBrittle":4348,"tvergence":4349,"developed":4350,"nbut":4351,"current":4352,"nmost":4353,"nreverse":4354,"tcohesion":4355,"ductile":4356,"ibe":4357,"tsplit":4358,"nWal":4359,"nhomogeneous":4360,"ncontractional":4361,"tsubdi":4362,"tsubparallel":4363,"tdefining":4364,"tphylli":4365,"theight":4366,"taccount":4367,"tindicating":4368,"twellbore":4369,"tdiscrete":4370,"1998":4371,"ammer":4372,"nOne":4373,"tcondition":4374,"tinitially":4375,"teasier":4376,"tchapters":4377,"tcreated":4378,"toptical":4379,"tdraw":4380,"tspaced":4381,"237":4382,"tproduced":4383,"tgreenschist":4384,"nXY":4385,"tconsiderations":4386,"tboudinaged":4387,"ounts":4388,"ountains":4389,"nwhen":4390,"tsynthetic":4391,"nconstant":4392,"uckling":4393,"Ã©collement":4394,"ncomponent":4395,"nelong":4396,"tcataclasis":4397,"tbuoy":4398,"tdÃ©collements":4399,"nContractional":4400,"tpopulation":4401,"nramp":4402,"tslick":4403,"treveals":4404,"tidealized":4405,"teigenvectors":4406,"nLineations":4407,"tgradual":4408,"tregardless":4409,"tduplexes":4410,"tadvance":4411,"vergent":4412,"vergence":4413,"toverpressured":4414,"tspreading":4415,"tarranged":4416,"tjointing":4417,"nPhoto":4418,"fferent":4419,"tcolumn":4420,"ntensile":4421,"tmathematical":4422,"tsaid":4423,"organ":4424,"tcementation":4425,"lified":4426,"tcorrelation":4427,"tsketch":4428,"tcompatibility":4429,"telectron":4430,"tdigital":4431,"nModified":4432,"aggregation":4433,"tmentioned":4434,"tclockwise":4435,"tdemons":4436,"79":4437,"blue":4438,"iec":4439,"itation":4440,"limb":4441,"nen":4442,"nes":4443,"nim":4444,"ntaxial":4445,"otes":4446,"uts":4447,"ume":4448,"uxtap":4449,"tsens":4450,"nding":4451,"ndimensional":4452,"tfloor":4453,"trig":4454,"trise":4455,"tridge":4456,"oration":4457,"esis":4458,"tbox":4459,"twestern":4460,"tmostly":4461,"ley":4462,"tuncons":4463,"teral":4464,"nso":4465,"trare":4466,"ocolate":4467,"tick":4468,"tTrans":4469,"osing":4470,"tcontribu":4471,"tcontinent":4472,"textrusion":4473,"tyears":4474,"idges":4475,"zone":4476,"set":4477,"ncrust":4478,"tSince":4479,"tseams":4480,"nSte":4481,"riate":4482,"tvacancies":4483,"tchanging":4484,"tdistinction":4485,"tengine":4486,"ott":4487,"tmeas":4488,"tmetamorphism":4489,"195":4490,"nthrough":4491,"tplots":4492,"recc":4493,"elder":4494,"nits":4495,"tCh":4496,"nPe":4497,"nRock":4498,"iled":4499,"tHimalay":4500,"tcompared":4501,"ngrowth":4502,"ngelder":4503,"ntheir":4504,"tinterference":4505,"tNe":4506,"tNational":4507,"tminor":4508,"tcohesive":4509,"edimentary":4510,"tEach":4511,"tellipticity":4512,"tupright":4513,"tsubhorizontal":4514,"tsubseismic":4515,"tpressures":4516,"iscous":4517,"1991":4518,"1995":4519,"tersection":4520,"224":4521,"otectonic":4522,"amberg":4523,"locations":4524,"tsystematic":4525,"302":4526,"nNew":4527,"1984":4528,"tlithologic":4529,"Â°.\\":4530,"tJoints":4531,"263":4532,"hris":4533,"teventually":4534,"tmarks":4535,"quee":4536,"ropriate":4537,"tsteady":4538,"tcores":4539,"284":4540,"289":4541,"telasticity":4542,"treduces":4543,"nisotropic":4544,"tMoine":4545,"treflectors":4546,"345":4547,"tbeds":4548,"tplaces":4549,"tsyncline":4550,"nmay":4551,"tcrushing":4552,"nanti":4553,"tdrill":4554,"tYoung":4555,"norientations":4556,"trheological":4557,"tScience":4558,"nmechanical":4559,"tactivated":4560,"tprovided":4561,"tdeviations":4562,"ncoaxial":4563,"tregarded":4564,"ttext":4565,"tsouthern":4566,"tmultiple":4567,"tsurroundings":4568,"tpropagate":4569,"tproblems":4570,"tstudied":4571,"tglaciers":4572,"texceeds":4573,"roup":4574,"tanticline":4575,"nsedimentary":4576,"tcorresponding":4577,"tchevron":4578,"tOnly":4579,"texhumation":4580,"televated":4581,"ndiscuss":4582,"tconcer":4583,"tfeature":4584,"nMohr":4585,"tolivine":4586,"tcompetence":4587,"tcompensated":4588,"tdeposited":4589,"texperienced":4590,"tcube":4591,"tmillimeter":4592,"tuplifted":4593,"48":4594,"63":4595,"65":4596,"67":4597,"87":4598,"EM":4599,"General":4600,"Strain":4601,"ayer":4602,"bri":4603,"bles":4604,"bens":4605,"dis":4606,"efficient":4607,"fere":4608,"field":4609,"ham":4610,"ject":4611,"jord":4612,"ks":4613,"mote":4614,"nat":4615,"nve":4616,"nall":4617,"none":4618,"nQu":4619,"nvertical":4620,"ok":4621,"overy":4622,"ppend":4623,"planar":4624,"raul":4625,"rown":4626,"water":4627,"yond":4628,"tig":4629,"tatten":4630,"thad":4631,"thammer":4632,"rence":4633,"tsumm":4634,"tsatellite":4635,"tsquee":4636,"tthems":4637,"ndes":4638,"ndec":4639,"ndrag":4640,"alance":4641,"trup":4642,"ering":4643,"orly":4644,"tdynamic":4645,"arg":4646,"arr":4647,"tbro":4648,"tbest":4649,"tborehole":4650,"tpul":4651,"tmountain":4652,"tread":4653,"treorgan":4654,"tunstable":4655,"ulf":4656,"ullis":4657,"ached":4658,"activ":4659,"outh":4660,"nsense":4661,"tgro":4662,"tground":4663,"texists":4664,"texcept":4665,"verted":4666,"tasymmetry":4667,"tfoliated":4668,"tland":4669,"tlava":4670,"nStretching":4671,"tvariation":4672,"tripping":4673,"umose":4674,"tenter":4675,"nfound":4676,"mati":4677,"npatter":4678,"nplanar":4679,"nAt":4680,"tFrom":4681,"alley":4682,"tgraben":4683,"tThrust":4684,"tarise":4685,"tMic":4686,"tMountains":4687,"nRheology":4688,"tGPa":4689,"tGullfaks":4690,"tPro":4691,"tPark":4692,"ardrop":4693,"reduc":4694,"nbecause":4695,"nMost":4696,"dip":4697,"dipping":4698,"tnever":4699,"tBerg":4700,"tNevertheless":4701,"tRes":4702,"trefer":4703,"trefraction":4704,"noff":4705,"nopposite":4706,"125":4707,"ources":4708,"nHe":4709,"tEur":4710,"tamounts":4711,"chier":4712,"157":4713,"nhis":4714,"ncontinu":4715,"tsubduction":4716,"tsubgrains":4717,"tincrement":4718,"tappropriate":4719,"tcollaps":4720,"lected":4721,"tmicas":4722,"tOr":4723,"nChapters":4724,"norogenic":4725,"ylonites":4726,"tweaker":4727,"tdominant":4728,"ttowards":4729,"tcreating":4730,"tproduct":4731,"tclassified":4732,"nThree":4733,"tseems":4734,"ceptibility":4735,"360":4736,"tReg":4737,"1976":4738,"ngeometry":4739,"ttraces":4740,"tnorth":4741,"lack":4742,"nperf":4743,"tpredicted":4744,"tprofiles":4745,"nProgressive":4746,"assic":4747,"asschier":4748,"tconcentration":4749,"treasonable":4750,"tsouthwest":4751,"nAsymmetric":4752,"ndomin":4753,"nDisplacement":4754,"noblique":4755,"tconstructed":4756,"tslaty":4757,"tincompetent":4758,"naccommod":4759,"noccurs":4760,"thundreds":4761,"racks":4762,"nellipsoid":4763,"tcarri":4764,"tamphibolite":4765,"tdenoted":4766,"tallochthonous":4767,"talternative":4768,"alachian":4769,"tcooling":4770,"phyroblasts":4771,"issures":4772,"tScandinavian":4773,"theterogeneities":4774,"ppendix":4775,"raulic":4776,"tattention":4777,"tthemselves":4778,")/":4779,"81":4780,"85":4781,"GR":4782,"In":4783,"MS":4784,"PS":4785,"]\\":4786,"but":4787,"com":4788,"cture":4789,"for":4790,"folds":4791,"gal":4792,"lose":4793,"nÄ":4794,"nti":4795,"nir":4796,"normal":4797,"nlike":4798,"nhanging":4799,"ood":4800,"oves":4801,"pro":4802,"sty":4803,"sting":4804,"ttan":4805,"van":4806,"with":4807,"xt":4808,"tili":4809,"tinde":4810,"tapart":4811,"thole":4812,"reographic":4813,"renulation":4814,"tore":4815,"tsm":4816,"tslate":4817,"tslic":4818,"tsilic":4819,"tsectors":4820,"tsinistral":4821,"tthinned":4822,"inally":4823,"inations":4824,"alif":4825,"tfas":4826,"tcoin":4827,"orni":4828,"tbis":4829,"tpast":4830,"tpower":4831,"tpiec":4832,"anad":4833,"lee":4834,"hevron":4835,"isotropic":4836,"lace":4837,"olites":4838,"acts":4839,"acted":4840,"tdetachments":4841,"uctili":4842,"asal":4843,"imes":4844,"tType":4845,"nFoliation":4846,"osphere":4847,"tconcepts":4848,"textreme":4849,"tyet":4850,"rated":4851,"ramp":4852,"tmotions":4853,"nTr":4854,"nTikoff":4855,"tIndi":4856,"nclay":4857,"tSy":4858,"nSp":4859,"apart":4860,"yerlee":4861,"tacute":4862,"tvol":4863,"pretation":4864,"umes":4865,"tmemb":4866,"tresolution":4867,"tresources":4868,"trod":4869,"nthan":4870,"nthree":4871,"nplate":4872,"npassive":4873,"nAnother":4874,"niform":4875,"tWith":4876,"tably":4877,"nPure":4878,"nPasschier":4879,"ables":4880,"nDuring":4881,"tcompar":4882,"tcomplications":4883,"tPa":4884,"tPar":4885,"tpers":4886,"nModel":4887,"ubber":4888,"tnext":4889,"tBrazil":4890,"tobtained":4891,"nJoint":4892,"tintern":4893,"tinterfere":4894,"ively":4895,"nmany":4896,"tochthonous":4897,"tRiedel":4898,"ninf":4899,"ninvol":4900,"nEarth":4901,"tstatis":4902,"lest":4903,"ttransm":4904,"nHence":4905,"tqual":4906,"nLines":4907,"nLith":4908,"tspring":4909,"180":4910,"pressible":4911,"tdefines":4912,"graben":4913,"nlocal":4914,"nloading":4915,"texpansion":4916,"serv":4917,"ndiapir":4918,"ndiagram":4919,"ossible":4920,"thistories":4921,"1997":4922,"2001":4923,"2005":4924,"tLar":4925,"tlithology":4926,"tJournal":4927,"nOver":4928,"porosity":4929,"rane":4930,"umulative":4931,"trespond":4932,"tsufficient":4933,"nvector":4934,"tmarked":4935,"tnumb":4936,"nshortening":4937,"toutside":4938,"ttails":4939,"tAlthough":4940,"nup":4941,"tmagnetic":4942,"tdiscussion":4943,"tlooked":4944,"tcorn":4945,"tcorrect":4946,"nstresses":4947,"tsubsurface":4948,"tgoes":4949,"nprogressive":4950,"rofractures":4951,"ndiffusion":4952,"tcombine":4953,"nconsider":4954,"centric":4955,"nasymmetric":4956,"nmatrix":4957,"nUniaxial":4958,"tcrushed":4959,"trifuge":4960,"tsimplest":4961,"nresp":4962,"thelps":4963,"tlinked":4964,"nlineation":4965,"toppositely":4966,"tbehave":4967,"442":4968,"tsmeared":4969,"telongated":4970,"nLinear":4971,"ttraps":4972,"tpoorly":4973,"tadvan":4974,"tremoval":4975,"tcompressional":4976,"tconstruction":4977,"tfrontal":4978,"tgravitationally":4979,"tjointed":4980,"tspecific":4981,"tevaluate":4982,"tpeb":4983,"taccommodate":4984,"taccommodated":4985,"nTectonics":4986,"tmedian":4987,"nregime":4988,"tnecessary":4989,"fferential":4990,"ntherefore":4991,"televation":4992,"treliable":4993,"tdecomposition":4994,"tprograms":4995,"midt":4996,"tsubsidence":4997,"ntypically":4998,"tSimilarly":4999,"ynamics":5000,"tpurposes":5001,"tnamed":5002,"ademic":5003,"thydrocarbon":5004,"ttunn":5005,"treturn":5006,"tshadows":5007,"ndiscussed":5008,"tBergen":5009,"aliforni":5010,"uctility":5011,"tmembrane":5012,"alifornia":5013,"41":5014,"429":5015,"80":5016,"99":5017,"brittle":5018,"du":5019,"flat":5020,"itive":5021,"men":5022,"mun":5023,"nformed":5024,"nrift":5025,"position":5026,"ror":5027,"surface":5028,"wed":5029,"tansw":5030,"thmic":5031,"thorses":5032,"tsum":5033,"tered":5034,"inary":5035,"inding":5036,"ndamage":5037,"als":5038,"tfall":5039,"tfull":5040,"tcylindrical":5041,"tcumulative":5042,"tductility":5043,"tintra":5044,"arnet":5045,"twind":5046,"twest":5047,"tmy":5048,"tmatter":5049,"tmud":5050,"tmissing":5051,"lev":5052,"leasing":5053,"trelies":5054,"hematically":5055,"ising":5056,"layer":5057,"tunstrained":5058,"omechan":5059,"oles":5060,"ttouch":5061,"active":5062,"terogeneous":5063,"teria":5064,"tdel":5065,"tdealing":5066,"nsig":5067,"traight":5068,"trandom":5069,"tbeyond":5070,"oclinal":5071,"ashed":5072,"tedition":5073,"tnormally":5074,"tTyp":5075,"nFolding":5076,"tconsequence":5077,"tshales":5078,"seud":5079,"nTyp":5080,"tIdeally":5081,"tInstead":5082,"ncaus":5083,"ncases":5084,"ttecton":5085,"triations":5086,"tmeter":5087,"tresidual":5088,"tdiffer":5089,"nApp":5090,"nAppendix":5091,"tpropor":5092,"tFold":5093,"tThree":5094,"tCre":5095,"2011":5096,"tabular":5097,"nPoisson":5098,"nPressure":5099,"placed":5100,"ttrishear":5101,"ngz":5102,"nBoudinage":5103,"tperformed":5104,"depend":5105,"nboudins":5106,"nMechan":5107,"nMineral":5108,"nMode":5109,"ditions":5110,"nJackson":5111,"tinteraction":5112,"nalysis":5113,"olute":5114,"tRa":5115,"totherwise":5116,"nEven":5117,"arithmic":5118,"nreference":5119,"160":5120,"nLarge":5121,"tDis":5122,"ttermination":5123,"tnotably":5124,"grade":5125,"tapplication":5126,"nlines":5127,"vier":5128,"tthickening":5129,"tporphyroclasts":5130,"tdesign":5131,"tclimb":5132,"2008":5133,"tgeologically":5134,"trotations":5135,"ndeformations":5136,"tassume":5137,"300":5138,"nexample":5139,"berts":5140,"tUSA":5141,"tvariable":5142,"torogens":5143,"lanes":5144,"lands":5145,"fully":5146,"tcurrent":5147,"tdipmeter":5148,"tdescribing":5149,"tillustrate":5150,"nrigid":5151,"tviscoelastic":5152,"eath":5153,"tachie":5154,"tcontinuity":5155,"narea":5156,"ndislocation":5157,"tproduction":5158,"tflat":5159,"nThese":5160,"ataclasis":5161,"nExperimental":5162,"tmaintain":5163,"389":5164,"tplaty":5165,"tplates":5166,"tValley":5167,"tchanged":5168,"tstronger":5169,"tload":5170,"tloose":5171,"nmean":5172,"texploration":5173,"nonly":5174,"texplains":5175,"ttrend":5176,"noverpressure":5177,"nGeometric":5178,"tmultip":5179,"tearthquake":5180,"tfiber":5181,"ttriangular":5182,"nDislocation":5183,"tapproaches":5184,"tectonics":5185,"tvisible":5186,"tassumptions":5187,"nweak":5188,"phyroclast":5189,"naxis":5190,"naxial":5191,"tapproximately":5192,"tslates":5193,"naccumula":5194,"tpromotes":5195,"tcentimeters":5196,"ncommonly":5197,"tpractice":5198,"nboundaries":5199,"nSanderson":5200,"nMarine":5201,"oriented":5202,"tpush":5203,"tTectonics":5204,"tmesos":5205,"helon":5206,"nsystems":5207,"tradial":5208,"defined":5209,"lobal":5210,"nmovement":5211,"ttight":5212,"tarrangement":5213,"tolder":5214,"tpublished":5215,"trupture":5216,"nhistory":5217,"tcarried":5218,"tinternally":5219,"49":5220,"436":5221,"95":5222,"BS":5223,"Box":5224,"bed":5225,"cing":5226,"comp":5227,"dri":5228,"draw":5229,"eed":5230,"eps":5231,"fric":5232,"ford":5233,"ground":5234,"hyd":5235,"homb":5236,"mo":5237,"nna":5238,"nnex":5239,"nreduc":5240,"posed":5241,"salt":5242,"ttal":5243,"ttang":5244,"tQF":5245,"wiss":5246,"xford":5247,"zation":5248,"Ã¶":5249,"tace":5250,"tamp":5251,"thot":5252,"thorizon":5253,"thack":5254,"tstric":5255,"tsizes":5256,"temp":5257,"tead":5258,"alok":5259,"tfissures":5260,"tcall":5261,"tcylind":5262,"tridges":5263,"erten":5264,"erial":5265,"oric":5266,"orpor":5267,"enge":5268,"esides":5269,"tbranch":5270,"tbalance":5271,"twaves":5272,"tpoin":5273,"tmac":5274,"tmel":5275,"ante":5276,"learly":5277,"treally":5278,"trevers":5279,"istivity":5280,"tud":5281,"educ":5282,"ultz":5283,"tiss":5284,"ttool":5285,"terozoic":5286,"nsu":5287,"nsand":5288,"nsame":5289,"nsch":5290,"tgent":5291,"tglide":5292,"tonian":5293,"osc":5294,"tdike":5295,"tcontour":5296,"ellip":5297,"texer":5298,"texact":5299,"tylol":5300,"ional":5301,"rotation":5302,"ncase":5303,"tSo":5304,"tStrike":5305,"tStructures":5306,"nSuch":5307,"nSociety":5308,"tactually":5309,"tAc":5310,"ilding":5311,"ously":5312,"nConstant":5313,"neven":5314,"neath":5315,"tmodified":5316,"tmodern":5317,"tproper":5318,"tFormation":5319,"tproc":5320,"tesy":5321,"hange":5322,"aving":5323,"nillus":5324,"tMod":5325,"nPer":5326,"nPetroleum":5327,"nDuctile":5328,"nDrag":5329,"tGPS":5330,"ttry":5331,"ndetachment":5332,"ngi":5333,"tPh":5334,"tPor":5335,"tperturb":5336,"tversion":5337,"nbased":5338,"tobli":5339,"tsomething":5340,"nwall":5341,"nam":5342,"tRamsay":5343,"toverc":5344,"nGriffith":5345,"128":5346,"arities":5347,"toccurred":5348,"tcoar":5349,"tlie":5350,"tliter":5351,"ttransferred":5352,"nHudleston":5353,"ediments":5354,"nLis":5355,"tsoon":5356,"tDo":5357,"nhow":5358,"nhas":5359,"nhinge":5360,"nconjugate":5361,"ncontinent":5362,"nconditions":5363,"tmarble":5364,"tnothing":5365,"nlong":5366,"ricity":5367,"ymb":5368,"nnecess":5369,"ossack":5370,"amide":5371,"trotating":5372,"tbounded":5373,"307":5374,"nNon":5375,"nNormal":5376,"nNorth":5377,"inking":5378,"tcrystalliz":5379,"nInter":5380,"tlocalization":5381,"tlargely":5382,"ylonitic":5383,"nOxford":5384,"262":5385,"240":5386,"241":5387,"242":5388,"tellipsoids":5389,"nvari":5390,"nviscosity":5391,"cotland":5392,"nshape":5393,"nshould":5394,"332":5395,"tinside":5396,"tcontinued":5397,"mode":5398,"tstraigh":5399,"tclasses":5400,"258":5401,"econdary":5402,"tcontrasts":5403,"tplaced":5404,"ontinuous":5405,"tsynform":5406,"1979":5407,"tcalculate":5408,"tfollowed":5409,"tAny":5410,"nmag":5411,"tmicrostructures":5412,"juxtap":5413,"ngrains":5414,"ttwin":5415,"uppe":5416,"techelon":5417,"tmanner":5418,"tstudent":5419,"500":5420,"tgeometrically":5421,"treleasing":5422,"tappears":5423,"tprimarily":5424,"tkeeps":5425,"tsmearing":5426,"tpredicts":5427,"nFolded":5428,"tantiform":5429,"toutcrops":5430,"tstriae":5431,"tdetails":5432,"nsubsimple":5433,"tkilometer":5434,"nLineation":5435,"tdeviatoric":5436,"tracrystalline":5437,"nTranspression":5438,"tcollection":5439,"tidentified":5440,"nsteady":5441,"toverlaps":5442,"tconstrained":5443,"nrecrystallization":5444,"trude":5445,"thorst":5446,"nsediments":5447,"tconglomerates":5448,"tabsent":5449,"tinterface":5450,"nchange":5451,"tMechanics":5452,"nrepresented":5453,"tency":5454,"tperiods":5455,"nboundary":5456,"tanalyzed":5457,"tdeviation":5458,"dominantly":5459,"tspreads":5460,"textract":5461,"nRestoration":5462,"tcycle":5463,"ncritical":5464,"tspeed":5465,"orphology":5466,"uxtaposition":5467,"tunconsolidated":5468,"tmeasuring":5469,"otectonics":5470,"tconcerned":5471,"style":5472,"tcoinc":5473,"anadian":5474,"servations":5475,"tcorners":5476,"mentary":5477,"dependent":5478,"nnext":5479,"taceous":5480,"tgentle":5481,"-,\\":5482,".,\\":5483,"210":5484,"213":5485,"42":5486,"420":5487,"435":5488,"69":5489,"82":5490,"Clay":5491,"Ed":5492,"back":5493,"cent":5494,"compaction":5495,"day":5496,"min":5497,"mical":5498,"ntw":5499,"nou":5500,"npe":5501,"npres":5502,"nvelocity":5503,"overs":5504,"pen":5505,"rous":5506,"ttable":5507,"uth":5508,"uable":5509,"vas":5510,"waves":5511,"ybr":5512,"zing":5513,"Ã¼":5514,"tail":5515,"thyp":5516,"retion":5517,"rees":5518,"told":5519,"tonset":5520,"tsides":5521,"temer":5522,"ini":5523,"induced":5524,"ndimension":5525,"ndÃ©collement":5526,"tfits":5527,"tcm":5528,"tcou":5529,"tcarbon":5530,"trical":5531,"trology":5532,"tdou":5533,"tdry":5534,"esthammer":5535,"arm":5536,"tbrecc":5537,"twing":5538,"ants":5539,"ico":5540,"icke":5541,"treplaced":5542,"isk":5543,"lag":5544,"tunknown":5545,"tugal":5546,"tortion":5547,"nshe":5548,"nsandstone":5549,"nspac":5550,"nslick":5551,"nstratigraphic":5552,"asic":5553,"tgu":5554,"tglass":5555,"tness":5556,"nFluid":5557,"nFlexural":5558,"nFormation":5559,"ostas":5560,"ospheric":5561,"tcontent":5562,"textinction":5563,"tmaxim":5564,"geb":5565,"idew":5566,"rotectonics":5567,"tshare":5568,"tcanop":5569,"tTheir":5570,"nTo":5571,"tcomple":5572,"tcommun":5573,"tImp":5574,"ncen":5575,"nctive":5576,"ncross":5577,"tSte":5578,"tSub":5579,"twho":5580,"thermal":5581,"nfib":5582,"193":5583,"trestraining":5584,"trestore":5585,"laster":5586,"ilarities":5587,"npop":5588,"nplot":5589,"nCompaction":5590,"ients":5591,"nAx":5592,"negative":5593,"tpredominantly":5594,"tFlow":5595,"tprincip":5596,"tsimilarities":5597,"tThen":5598,"nit":5599,"tCalifornia":5600,"odes":5601,"201":5602,"203":5603,"204":5604,"ades":5605,"tMe":5606,"tMax":5607,"tMineral":5608,"nDD":5609,"tconstric":5610,"tconsolidated":5611,"plate":5612,"perpendicular":5613,"tcompare":5614,"amps":5615,"ngo":5616,"tPure":5617,"nBalanc":5618,"102":5619,"105":5620,"nbed":5621,"nbands":5622,"timper":5623,"uber":5624,"tneutral":5625,"tBri":5626,"tBased":5627,"toblate":5628,"monly":5629,"tNormal":5630,"nmapp":5631,"tRange":5632,"toverprinting":5633,"117":5634,"tminib":5635,"telim":5636,"toccurrence":5637,"nremote":5638,"165":5639,"izing":5640,"duce":5641,"aking":5642,"nLow":5643,"ches":5644,"tsole":5645,"150":5646,"itization":5647,"ooth":5648,"anyon":5649,"tbasis":5650,"ncontra":5651,"tdefect":5652,"tincrements":5653,"tapplications":5654,"theast":5655,"taccretion":5656,"tcolor":5657,"tcolors":5658,"tplasticity":5659,"tadding":5660,"145":5661,"tdomainal":5662,"tportions":5663,"tmicroc":5664,"2009":5665,"223":5666,"trotational":5667,"tunderneath":5668,"rested":5669,"tinvolving":5670,"tcenters":5671,"tJust":5672,"tlocality":5673,"tlocalize":5674,"tpurely":5675,"tgenerates":5676,"teffic":5677,"tweaken":5678,"nOb":5679,"nOnce":5680,"tobserve":5681,"246":5682,"247":5683,"ograde":5684,"ography":5685,"tsuper":5686,"nvorticity":5687,"nDevelopment":5688,"tcharacterizes":5689,"tinstead":5690,"287":5691,"290":5692,"295":5693,"296":5694,"tinterpretations":5695,"ndislocations":5696,"treact":5697,"treactive":5698,"extension":5699,"tinfinite":5700,"tMoab":5701,"nbefore":5702,"ydin":5703,"ataclasite":5704,"trongly":5705,"tsubstrate":5706,"259":5707,"nprimary":5708,"408":5709,"rofile":5710,"tcontrasting":5711,"npart":5712,"362":5713,"telement":5714,"tscatter":5715,"tschematically":5716,"inceton":5717,"tcalculations":5718,"nYield":5719,"tpossib":5720,"topposed":5721,"tbanding":5722,"junctive":5723,"undant":5724,"nmeans":5725,"nmeasure":5726,"tideally":5727,"ttopographic":5728,"nseismic":5729,"tpassively":5730,"ttraced":5731,"tcontaining":5732,"tbacks":5733,"igenvectors":5734,"textends":5735,"nContinental":5736,"tExamples":5737,"tExperiments":5738,"treasons":5739,"thydrostatic":5740,"telongate":5741,"tpoly":5742,"iez":5743,"ntectonics":5744,"nimplications":5745,"nPrinceton":5746,"trolling":5747,"tconcentrated":5748,"tactivity":5749,"nGeophysical":5750,"tZone":5751,"tracted":5752,"twidely":5753,"tsuggests":5754,"ttextures":5755,"tprovince":5756,"ttriaxial":5757,"tdecrease":5758,"shore":5759,"tocean":5760,"tleads":5761,"trepresentative":5762,"ernicke":5763,"tglacier":5764,"nowledge":5765,"tevaluated":5766,"ncreasing":5767,"ncrenulation":5768,"tcourtesy":5769,"nprocesses":5770,"tabsolute":5771,"tinclined":5772,"nuse":5773,"nused":5774,"tUsing":5775,"tintroduced":5776,"nMicros":5777,"nhigher":5778,"tflaws":5779,"nmicroscope":5780,"nabove":5781,"ollard":5782,"tIII":5783,"tsimultaneously":5784,"tresearch":5785,"nKinematics":5786,"tschistosity":5787,"ncrystallographic":5788,"umbent":5789,"tsustain":5790,"nRoberts":5791,"nlithostatic":5792,"tfamous":5793,"nbecomes":5794,"tectonite":5795,"tectonites":5796,"njoints":5797,"oids":5798,"tintense":5799,"tSchmidt":5800,"tphotos":5801,"ninstantaneous":5802,"ullions":5803,"tnucleation":5804,"tquanti":5805,"texplanation":5806,"tfunction":5807,"enerally":5808,"tbottom":5809,"nhydrostatic":5810,"timaged":5811,"ibetan":5812,"tsubdivided":5813,"nelongation":5814,"tdemonstrated":5815,"tsensing":5816,"tdrilling":5817,"ndescri":5818,"activation":5819,"tgrooves":5820,"nperfectly":5821,"tindex":5822,"tcomparison":5823,"tLaramide":5824,"tnumbers":5825,"tpebbles":5826,"tanswer":5827,"seudo":5828,"driven":5829,"ymbols":5830,"ybrid":5831,"thypoth":5832,"ostasy":5833,");\\":5834,"316":5835,"422":5836,"78":5837,"88":5838,"Con":5839,"Ex":5840,"ah":5841,"ats":5842,"atural":5843,"atom":5844,"bi":5845,"ded":5846,"down":5847,"dding":5848,"dden":5849,"eth":5850,"frictional":5851,"fjord":5852,"hni":5853,"iary":5854,"itations":5855,"nid":5856,"ntri":5857,"ntop":5858,"nvery":5859,"rid":5860,"stone":5861,"similar":5862,"tX":5863,"ttrain":5864,"uters":5865,"utoff":5866,"volution":5867,"zim":5868,"|\\":5869,"ÃĹ":5870,"rench":5871,"tsor":5872,"tsqu":5873,"tstac":5874,"tself":5875,"tsidew":5876,"tevol":5877,"ndo":5878,"alistic":5879,"tfoss":5880,"tfast":5881,"tfocal":5882,"tfalls":5883,"tce":5884,"tcres":5885,"trough":5886,"tinverted":5887,"arter":5888,"armon":5889,"tbri":5890,"tbonds":5891,"tweld":5892,"tmom":5893,"antic":5894,"iclastic":5895,"isted":5896,"laty":5897,"lative":5898,"lateral":5899,"ules":5900,"omolog":5901,"oly":5902,"olst":5903,"ttoe":5904,"tord":5905,"tlock":5906,"tdetached":5907,"nsimilar":5908,"nsuccess":5909,"ured":5910,"och":5911,"ocean":5912,"urassic":5913,"lid":5914,"lific":5915,"litude":5916,"usive":5917,"nField":5918,"nFractures":5919,"tdivided":5920,"tcontained":5921,"ella":5922,"elow":5923,"texc":5924,"texcess":5925,"rate":5926,"tshears":5927,"tforward":5928,"nTullis":5929,"ncreep":5930,"ncataclastic":5931,"tSlip":5932,"tSand":5933,"tSimple":5934,"tsea":5935,"tsearch":5936,"twhole":5937,"nSo":5938,"nSmall":5939,"nStructures":5940,"nSuppe":5941,"ttempor":5942,"tAMS":5943,"ller":5944,"tchocolate":5945,"tenvelop":5946,"ottish":5947,"tattrac":5948,"nfla":5949,"nforeland":5950,"sotrop":5951,"twhereas":5952,"npoint":5953,"npropagation":5954,"nplanes":5955,"nCri":5956,"neous":5957,"tlet":5958,"tleading":5959,"ismically":5960,"tFirst":5961,"avalc":5962,"targ":5963,"tCo":5964,"tCar":5965,"tComp":5966,"202":5967,"2010":5968,"tMap":5969,"tMem":5970,"tMode":5971,"nPor":5972,"tGulf":5973,"ndev":5974,"ndevelopment":5975,"nging":5976,"luence":5977,"tPer":5978,"ardless":5979,"tvertically":5980,"106":5981,"107":5982,"deal":5983,"nbur":5984,"nMetamorphic":5985,"timpact":5986,"timpossible":5987,"tBe":5988,"tBelt":5989,"tBesides":5990,"tobs":5991,"ipitation":5992,"tNo":5993,"tNow":5994,"tNappe":5995,"nalways":5996,"tslipp":5997,"nmig":5998,"nmark":5999,"tRed":6000,"tRec":6001,"tmind":6002,"124":6003,"127":6004,"nElastic":6005,"nrequi":6006,"nrelay":6007,"thighest":6008,"ttransform":6009,"nHigh":6010,"tEl":6011,"tspa":6012,"tgene":6013,"tamong":6014,"nWernicke":6015,"tsoil":6016,"tDome":6017,"ensides":6018,"pressive":6019,"134":6020,"nconf":6021,"nconform":6022,"ncontrolled":6023,"tsubgrain":6024,"tdeflection":6025,"grabens":6026,"viatoric":6027,"ttensors":6028,"texpands":6029,"ndilation":6030,"nnum":6031,"tdomes":6032,"tporoelastic":6033,"tporphyroblasts":6034,"tclus":6035,"225":6036,"226":6037,"303":6038,"305":6039,"306":6040,"inked":6041,"1981":6042,"1985":6043,"tcentrifuge":6044,"Â°,\\":6045,"Â°)\\":6046,"norig":6047,"northogonal":6048,"tweakness":6049,"ported":6050,"tdominates":6051,"265":6052,"269":6053,"trespons":6054,"onsider":6055,"tlongest":6056,"tsudden":6057,"tinitiated":6058,"tinitiates":6059,"nshearing":6060,"cohesive":6061,"tuppermost":6062,"ttendency":6063,"nshor":6064,"toutl":6065,"tachy":6066,"286":6067,"tAlps":6068,"291":6069,"tcontinue":6070,"tcontinuum":6071,"ntoward":6072,"236":6073,"treactions":6074,"exico":6075,"tseem":6076,"treflecting":6077,"341":6078,"nExperiments":6079,"409":6080,"tdecades":6081,"387":6082,"388":6083,"nVolume":6084,"tVar":6085,"1970":6086,"1972":6087,"nmaterial":6088,"nmaximum":6089,"nUtah":6090,"nacross":6091,"tmicroscopic":6092,"tobliquely":6093,"tvaluable":6094,"ringer":6095,"tidea":6096,"ngravity":6097,"371":6098,"ttwen":6099,"nresul":6100,"nrestoration":6101,"nanal":6102,"nantic":6103,"ntranspression":6104,"tdrive":6105,"tadds":6106,"tprogressively":6107,"tflattened":6108,"nproperties":6109,"tincreasingly":6110,"tbooks":6111,"tpopular":6112,"nrate":6113,"trestrict":6114,"nmechanism":6115,"tlimestones":6116,"which":6117,"tdetailed":6118,"tconcentric":6119,"tconcentrations":6120,"tshaped":6121,"noverburden":6122,"ttraditional":6123,"tparameter":6124,"texperimentally":6125,"sequently":6126,"ncohesive":6127,"tsuggesting":6128,"nrotate":6129,"twidens":6130,"tpreserves":6131,"oudinaged":6132,"ttriangle":6133,"tadvanc":6134,"tContractional":6135,"shears":6136,"ttranspressional":6137,"mbers":6138,"tEventually":6139,"tturns":6140,"tturned":6141,"teverywhere":6142,"tapproximate":6143,"testimating":6144,"tincompressible":6145,"tintrusions":6146,"tamorphosed":6147,"tcorrespond":6148,"tdegrees":6149,"tpromote":6150,"nincremental":6151,"testablis":6152,"nrepresent":6153,"nAcademic":6154,"tpractical":6155,"ndepth":6156,"ndepositional":6157,"nabout":6158,"toperations":6159,"ollmer":6160,"nunder":6161,"nunderstand":6162,"ncollapse":6163,"nClassic":6164,"tprogram":6165,"tradiometric":6166,"nheterogeneous":6167,"temphasized":6168,"tfrequency":6169,"nbecome":6170,"tintensity":6171,"nminimum":6172,"ttechnique":6173,"ttechniques":6174,"ditionally":6175,"tconfused":6176,"tchallenging":6177,"tfully":6178,"tquickly":6179,"tpairs":6180,"rug":6181,"twritten":6182,"nWalsh":6183,"tbuoyancy":6184,"tslickenlines":6185,"nsoft":6186,"tcontribute":6187,"nveins":6188,"treorganization":6189,"tcollapses":6190,"tRegion":6191,"tsmooth":6192,"nSpringer":6193,"ttunnel":6194,"tdelta":6195,"nsignific":6196,"tproportional":6197,"BSD":6198,"drawal":6199,"ttalk":6200,"orporated":6201,"tmacros":6202,"tissue":6203,"tliterature":6204,"tmaxima":6205,"gebra":6206,"tprinciples":6207,"seudotachy":6208,"thypothesis":6209,"niden":6210,"zimuth":6211,"ÃĹ\\":6212,"armonic":6213,"tbrief":6214,"tmoment":6215,"omologous":6216,"sotropic":6217,"avalcante":6218,".).\\":6219,"73":6220,"91":6221,"CT":6222,"Class":6223,"De":6224,"Salt":6225,"atch":6226,"bla":6227,"bid":6228,"flow":6229,"fluid":6230,"from":6231,"ira":6232,"ike":6233,"jo":6234,"jects":6235,"jected":6236,"kke":6237,"lomer":6238,"mination":6239,"ntr":6240,"ntre":6241,"norder":6242,"pure":6243,"rs":6244,"sp":6245,"slo":6246,"spac":6247,"ttabular":6248,"uous":6249,"von":6250,"vari":6251,"worth":6252,"yr":6253,"tiary":6254,"tiliz":6255,"tazimuth":6256,"thaving":6257,"rew":6258,"reone":6259,"tsw":6260,"tseld":6261,"tsector":6262,"tstick":6263,"tsymbols":6264,"tthous":6265,"tep":6266,"int":6267,"inated":6268,"inant":6269,"ndown":6270,"ndens":6271,"tfil":6272,"tclastic":6273,"tcell":6274,"tcrop":6275,"trises":6276,"erically":6277,"erring":6278,"erman":6279,"orite":6280,"ordi":6281,"tdome":6282,"tintr":6283,"tinverse":6284,"tbr":6285,"tbul":6286,"tblue":6287,"tpack":6288,"tpill":6289,"tmaster":6290,"tmilli":6291,"anning":6292,"leg":6293,"lem":6294,"trely":6295,"tremember":6296,"ission":6297,"lamination":6298,"tudes":6299,"inger":6300,"oming":6301,"oli":6302,"oliated":6303,"tisostasy":6304,"ttools":6305,"ttoday":6306,"ssier":6307,"aceous":6308,"torient":6309,"outs":6310,"outhern":6311,"nstate":6312,"nstud":6313,"asitic":6314,"tgone":6315,"tgroup":6316,"taligned":6317,"tantly":6318,"tanatom":6319,"tTer":6320,"tTikoff":6321,"use":6322,"usually":6323,"nFootwall":6324,"tconvergence":6325,"texam":6326,"texcep":6327,"tyellow":6328,"tmass":6329,"trained":6330,"ratic":6331,"roove":6332,"tshr":6333,"method":6334,"members":6335,"ffusion":6336,"ncur":6337,"nchapter":6338,"ncylindrical":6339,"tSta":6340,"tSeveral":6341,"tScotland":6342,"nSlip":6343,"nSymmetric":6344,"tteardrop":6345,"tformations":6346,"tacles":6347,"tAus":6348,"pread":6349,"tdisaggregation":6350,"uming":6351,"tenables":6352,"ologists":6353,"ologies":6354,"onglomer":6355,"nfac":6356,"nfinite":6357,"nfeldspar":6358,"190":6359,"max":6360,"nthese":6361,"npath":6362,"nCaledon":6363,"nChris":6364,"nCrenulation":6365,"nAnalysis":6366,"tprem":6367,"face":6368,"tFolding":6369,"nitudes":6370,"nÏĪ":6371,"tarbi":6372,"tCanyon":6373,"tCavalcante":6374,"205":6375,"209":6376,"2013":6377,"tWest":6378,"adratic":6379,"tMexico":6380,"nPro":6381,"nPollard":6382,"nRamberg":6383,"agros":6384,"agnetic":6385,"perities":6386,"tcompact":6387,"tcomparing":6388,"tPlane":6389,"nBur":6390,"nBasin":6391,"tperform":6392,"tpermeable":6393,"tdirect":6394,"reddin":6395,"103":6396,"104":6397,"108":6398,"nblock":6399,"nMe":6400,"nMap":6401,"nMore":6402,"tBrittle":6403,"iproc":6404,"nwork":6405,"naff":6406,"nmuch":6407,"nImage":6408,"nIsotropic":6409,"tRi":6410,"tRo":6411,"trefold":6412,"113":6413,"tfractured":6414,"nintersection":6415,"126":6416,"nEngelder":6417,"tstated":6418,"nrele":6419,"161":6420,"167":6421,"tlies":6422,"rows":6423,"ttransected":6424,"nHomogeneous":6425,"nLaw":6426,"nLayer":6427,"elling":6428,"tgently":6429,"nWell":6430,"181":6431,"183":6432,"184":6433,"tDip":6434,"aching":6435,"ttermed":6436,"nÎ¦":6437,"ooke":6438,"nhard":6439,"tups":6440,"132":6441,"nconn":6442,"tbrittlely":6443,"tapplic":6444,"theated":6445,"nloc":6446,"nlarge":6447,"141":6448,"147":6449,"apirism":6450,"tmicaceous":6451,"criteria":6452,"tOver":6453,"309":6454,"tdepositional":6455,"nexamples":6456,"iliar":6457,"tdependent":6458,"1982":6459,"tUnd":6460,"tcrystalline":6461,"valent":6462,"tlithification":6463,"isticated":6464,"tseparates":6465,"tlimit":6466,"tlimitations":6467,"268":6468,"tequili":6469,"243":6470,"tcritically":6471,"nrhe":6472,"lineation":6473,"tnumerically":6474,"nshows":6475,"ttaper":6476,"taccumulated":6477,"taccumulating":6478,"350":6479,"356":6480,"358":6481,"ndistribution":6482,"tmagnitudes":6483,"tconnects":6484,"tconsiderable":6485,"tstratification":6486,"telastically":6487,"tcorner":6488,"277":6489,"nbeen":6490,"nThin":6491,"347":6492,"348":6493,"tsheath":6494,"tsign":6495,"tobjective":6496,"rofracturing":6497,"ndifference":6498,"tmaintained":6499,"ttening":6500,"tproject":6501,"tprojected":6502,"nVer":6503,"trelationships":6504,"tdenser":6505,"tunity":6506,"tneeds":6507,"1973":6508,"1977":6509,"nconstitu":6510,"tfollows":6511,"nYoung":6512,"udec":6513,"tcoaxiality":6514,"uckle":6515,"ngeome":6516,"ngeology":6517,"implified":6518,"teclog":6519,"ttracing":6520,"tdetermination":6521,"ncompression":6522,"nforce":6523,"tstudents":6524,"nAny":6525,"noriented":6526,"nlayering":6527,"internal":6528,"tbehaves":6529,"nSeismic":6530,"trelease":6531,"tExtension":6532,"tshallower":6533,"tprimitive":6534,"tmicrofracturing":6535,"tstriated":6536,"nPrincipal":6537,"nsubs":6538,"tactivation":6539,"tactivate":6540,"vitational":6541,"tdeviate":6542,"tbreakouts":6543,"embla":6544,"ttexture":6545,"tsoutheast":6546,"fficiently":6547,"tadjus":6548,"tdissolved":6549,"nDifferent":6550,"controlled":6551,"tfreely":6552,"irdles":6553,"teverything":6554,"tconstraints":6555,"nfolded":6556,"thorse":6557,"lliott":6558,"tpenetrate":6559,"texhib":6560,"tcracking":6561,"tcolumns":6562,"mediately":6563,"tatively":6564,"ndiscontinu":6565,"nActive":6566,"nminerals":6567,"tUsed":6568,"latt":6569,"yllitic":6570,"nlower":6571,"tsolids":6572,"tpluton":6573,"tschists":6574,"ncollision":6575,"nRecrystallization":6576,"tconstitute":6577,"tsusceptibility":6578,"tmonoc":6579,"neffect":6580,"neffective":6581,"nRotation":6582,"tsubsidiary":6583,"eyssier":6584,"tfrequently":6585,"tuncertainty":6586,"nsetting":6587,"tVertical":6588,"tderived":6589,"tCommonly":6590,"trapidly":6591,"fabrics":6592,"lotting":6593,"tpostrift":6594,"ullion":6595,"tAppalachian":6596,"texplanations":6597,"steady":6598,"tframework":6599,"taccurate":6600,"nElong":6601,"tQuartz":6602,"tultra":6603,"nAnderson":6604,"tarray":6605,"tarrays":6606,"tdrawing":6607,"tHimalayan":6608,"nQuartz":6609,"matitic":6610,"npatterns":6611,"tEurope":6612,"ncontinuous":6613,"tsiliciclastic":6614,"tfastest":6615,"tpieces":6616,"tvolumes":6617,"tstatistically":6618,"ttouches":6619,"tCretaceous":6620,"tdesignated":6621,"tmelting":6622,"tPortugal":6623,"juxtaposed":6624,"nbedding":6625,"timpermeable":6626,"tBritish":6627,"nYielding":6628,"iezome":6629,"tattractive":6630,"toutlined":6631,"tVarisc":6632,"testablish":6633,"seudotachyly":6634,"vonian":6635,"reonet":6636,"tseldom":6637,"ordiller":6638,"tanatomy":6639,"tarbitr":6640,"iprocal":6641,",',":6642,"410":6643,"418":6644,"421":6645,"424":6646,"433":6647,"431":6648,"56":6649,"61":6650,"83":6651,"86":6652,"89":6653,"For":6654,"SF":6655,"Shear":6656,"az":6657,"ative":6658,"bo":6659,"bound":6660,"cleavage":6661,"eins":6662,"equal":6663,"free":6664,"fect":6665,"gonal":6666,"hat":6667,"humation":6668,"ij":6669,"iel":6670,"iotectonics":6671,"lled":6672,"lusion":6673,"lumose":6674,"mar":6675,"mogra":6676,"nap":6677,"ntend":6678,"pth":6679,"phe":6680,"pot":6681,"pancy":6682,"such":6683,"surfaces":6684,"sedimentary":6685,"tt":6686,"uism":6687,"vir":6688,"vents":6689,"ware":6690,"ykke":6691,"tieth":6692,"taly":6693,"taid":6694,"reen":6695,"repancy":6696,"toed":6697,"tolith":6698,"tsummary":6699,"tsnow":6700,"tslide":6701,"inition":6702,"tfinding":6703,"tcos":6704,"tcuts":6705,"tcutoff":6706,"enom":6707,"entral":6708,"tdashed":6709,"tinh":6710,"tinp":6711,"tintact":6712,"tinjection":6713,"tinvis":6714,"tinactive":6715,"eses":6716,"ara":6717,"arro":6718,"arger":6719,"arning":6720,"tbar":6721,"tbit":6722,"tware":6723,"tworth":6724,"tpile":6725,"tpost":6726,"tpencil":6727,"tpitch":6728,"tputs":6729,"tmas":6730,"tmorphology":6731,"ices":6732,"tree":6733,"trece":6734,"trepro":6735,"heel":6736,"istant":6737,"lations":6738,"tuncommon":6739,"tutiliz":6740,"olitic":6741,"ssential":6742,"acy":6743,"ouse":6744,"tlight":6745,"ectivity":6746,"igg":6747,"iger":6748,"igible":6749,"tdet":6750,"tdealt":6751,"nsme":6752,"nside":6753,"nstage":6754,"tgliding":6755,"tgranular":6756,"tgarnet":6757,"tgrid":6758,"tgirdles":6759,"uration":6760,"talgebra":6761,"ticle":6762,"tTr":6763,"tTibetan":6764,"ustry":6765,"nFlinn":6766,"nFoliations":6767,"tdid":6768,"celer":6769,"rotate":6770,"tmob":6771,"seal":6772,"mek":6773,"metamorphic":6774,"nTer":6775,"nType":6776,"nTerm":6777,"inetic":6778,"twithdrawal":6779,"tIs":6780,"tIden":6781,"ncl":6782,"nclass":6783,"ncrustal":6784,"tSE":6785,"tSh":6786,"tSp":6787,"tSGR":6788,"nSurface":6789,"nSpherical":6790,"nSpecial":6791,"nSeveral":6792,"nSimplified":6793,"ometamorphic":6794,"ttest":6795,"irror":6796,"tAfter":6797,"tAfric":6798,"tvia":6799,"tvice":6800,"tenvir":6801,"phones":6802,"phasal":6803,"ores":6804,"nfootwall":6805,"nfoliations":6806,"nfaulting":6807,"mag":6808,"npencil":6809,"tplumose":6810,"nCataclastic":6811,"ientis":6812,"nAydin":6813,"tlee":6814,"tleave":6815,"utting":6816,"rectly":6817,"tively":6818,"hannel":6819,"ava":6820,"aval":6821,"tCleavage":6822,"tChris":6823,"tClearly":6824,"tCanadian":6825,"ods":6826,"oded":6827,"tabrup":6828,"tabundant":6829,"tMetamorphic":6830,"abarro":6831,"nDip":6832,"nDynamic":6833,"tHigh":6834,"tHudleston":6835,"agen":6836,"play":6837,"tGneiss":6838,"tcomputers":6839,"nglac":6840,"nthem":6841,"tPe":6842,"tPale":6843,"nBoth":6844,"nBoudins":6845,"tverge":6846,"109":6847,"1029":6848,"itecture":6849,"nback":6850,"nboudinage":6851,"tdating":6852,"timpro":6853,"timposed":6854,"pending":6855,"tByerlee":6856,"nJoh":6857,"andstones":6858,"tsomewhere":6859,"nwould":6860,"nwavelength":6861,"nwalls":6862,"nmust":6863,"nmarg":6864,"tock":6865,"olutions":6866,"tRamberg":6867,"116":6868,"nGrowth":6869,"tminute":6870,"nEn":6871,"nEach":6872,"tcoefficient":6873,"ducted":6874,"nHolds":6875,"nHossack":6876,"ttil":6877,"phically":6878,"tquar":6879,"tEn":6880,"tEngelder":6881,"nLet":6882,"ameters":6883,"chitecture":6884,"nWatter":6885,"nWood":6886,"187":6887,"tDeath":6888,"nhinterland":6889,"137":6890,"ncontain":6891,"ncontinental":6892,"tincremental":6893,"graph":6894,"theaves":6895,"taccoun":6896,"rication":6897,"tdeveloping":6898,"ystematic":6899,"nning":6900,"timmediately":6901,"tporphyroclast":6902,"222":6903,"ambri":6904,"tOb":6905,"tLines":6906,"tLith":6907,"tLondon":6908,"tLarge":6909,"nexpla":6910,"tundergoing":6911,"nNe":6912,"tvolumetric":6913,"tJoh":6914,"issibility":6915,"port":6916,"tseparately":6917,"building":6918,"tdominating":6919,"tequally":6920,"tillustrations":6921,"ograms":6922,"tlongitu":6923,"tsufficiently":6924,"teast":6925,"tnumerous":6926,"nshow":6927,"tsteps":6928,"nDeformed":6929,"333":6930,"337":6931,"339":6932,"tcharacterize":6933,"tinsp":6934,"gain":6935,"tratigraphy":6936,"tcontinues":6937,"nuniform":6938,"tcompactional":6939,"238":6940,"tproducing":6941,"tconsideration":6942,"tcorrelated":6943,"270":6944,"273":6945,"tobservable":6946,"ntemperatures":6947,"tpores":6948,"lover":6949,"344":6950,"nExample":6951,"nExpression":6952,"tgover":6953,"tcontrols":6954,"405":6955,"rofracture":6956,"385":6957,"transtension":6958,"nVorticity":6959,"timaging":6960,"tunlike":6961,"tVollmer":6962,"tsyn":6963,"tcombining":6964,"tcombinations":6965,"tReview":6966,"tinfluences":6967,"457":6968,"nmax":6969,"toppor":6970,"trecrystallize":6971,"nUs":6972,"uded":6973,"nZone":6974,"nseen":6975,"ngeometric":6976,"tequals":6977,"nanisotropic":6978,"ntransfer":6979,"tdetermines":6980,"ncompar":6981,"ncomplex":6982,"tDepending":6983,"pletely":6984,"tdriving":6985,"tdrilled":6986,"trevealed":6987,"ylindricity":6988,"nReg":6989,"nRelay":6990,"nReference":6991,"nlineations":6992,"tcataclasite":6993,"ression":6994,"tbehind":6995,"nWhat":6996,"nproble":6997,"treleased":6998,"nConjugate":6999,"enetrative":7000,"444":7001,"pecially":7002,"thydro":7003,"thydraulic":7004,"ackstripping":7005,"tpolished":7006,"tAmerican":7007,"tviewed":7008,"tScottish":7009,"nProcess":7010,"copically":7011,"tdeviates":7012,"tgradients":7013,"tbreaking":7014,"nTransfer":7015,"tsuggest":7016,"treasonably":7017,"tcollect":7018,"tbuilding":7019,"tbuilds":7020,"tpreserve":7021,"tpropagates":7022,"tatoms":7023,"tSeismic":7024,"nDifferential":7025,"tversa":7026,"gligible":7027,"obar":7028,"obbs":7029,"tconstruct":7030,"tdecreasing":7031,"toverlain":7032,"tdistinguished":7033,"contractional":7034,"tturbid":7035,"nsyncline":7036,"tevaluation":7037,"tpetrology":7038,"tapproximation":7039,"thappen":7040,"tstiffness":7041,"tfavored":7042,"tanticlines":7043,"tdescriptive":7044,"nsometimes":7045,"tTechni":7046,"naround":7047,"npreexisting":7048,"tDifferent":7049,"tomylonite":7050,"nchanges":7051,"tprobability":7052,"nmodels":7053,"tlogarithmic":7054,"tUsually":7055,"nadditional":7056,"treaches":7057,"tmathematically":7058,"nexpected":7059,"trelief":7060,"nMcClay":7061,"nOrogenic":7062,"tdecomposed":7063,"dinary":7064,"tamphibole":7065,"tcemented":7066,"tplunging":7067,"tGraben":7068,"nMaerten":7069,"nShortening":7070,"nAllochthonous":7071,"tconstitutive":7072,"tconveniently":7073,"nGrain":7074,"nlevel":7075,"ntypes":7076,"tfamiliar":7077,"tcareful":7078,"tpreviously":7079,"tLetters":7080,"dominated":7081,"tpurpose":7082,"oidal":7083,"tfitted":7084,"tdetected":7085,"tdetectable":7086,"trecognized":7087,"trequirement":7088,"tquantif":7089,"treconstruction":7090,"tpassed":7091,"tstepovers":7092,"nterms":7093,"tfunctions":7094,"ashpot":7095,"ncircle":7096,"vision":7097,"twidening":7098,"illiams":7099,"tphyllite":7100,"trarely":7101,"tHimalaya":7102,"brium":7103,"nallochthonous":7104,"tigneous":7105,"tsqueezed":7106,"tbroad":7107,"tbroken":7108,"ndomino":7109,"nÄĹ":7110,"tslice":7111,"nTrishear":7112,"tquality":7113,"levated":7114,"tRaf":7115,"tachieved":7116,"tmesoscopic":7117,"hombic":7118,"tstrictly":7119,"nschistosity":7120,"tcontours":7121,"tproperty":7122,"nillustrated":7123,"tModern":7124,"tobliqu":7125,"namount":7126,"tcoarse":7127,"tcoincide":7128,"ttablet":7129,"temerges":7130,"tcouple":7131,"tcarbonate":7132,"tcommunication":7133,"tconstrictional":7134,"nBalancing":7135,"nmapped":7136,"tminibasin":7137,"taccretionary":7138,"tefficiently":7139,"tpossibly":7140,"tbackstripping":7141,"ahl":7142,"tsquare":7143,"tstack":7144,"lification":7145,"tCarol":7146,"tBefore":7147,"tgenetically":7148,"nnumber":7149,"tcluster":7150,"noriginal":7151,"ttwentieth":7152,"tadvanced":7153,"nsignificant":7154,"tbriefly":7155,"tpremises":7156,"tPlanetary":7157,"trefolded":7158,"tequilibrium":7159,"seudotachylyte":7160,"mograve":7161,"pheaval":7162,"uismans":7163,"ykkelid":7164,"enomen":7165,"tinvisible":7166,"treceived":7167,"tenviron":7168,"nHoldsworth":7169,"nWatterson":7170,"ambrian":7171,"tTechniques":7172,"&\\":7173,")]\\":7174,"*\\":7175,".)\\":7176,"030":7177,"214":7178,"317":7179,"330":7180,"321":7181,"419":7182,"413":7183,"423":7184,"427":7185,"75":7186,"94":7187,"98":7188,"Boudinage":7189,"Di":7190,"Ken":7191,"Le":7192,"Mode":7193,"New":7194,"Sc":7195,"Trans":7196,"ael":7197,"ament":7198,"ail":7199,"atly":7200,"bes":7201,"bard":7202,"box":7203,"cs":7204,"cording":7205,"canic":7206,"crustal":7207,"coring":7208,"clockwise":7209,"disc":7210,"emperature":7211,"eanic":7212,"fe":7213,"faults":7214,"folding":7215,"gori":7216,"gments":7217,"high":7218,"long":7219,"loss":7220,"linked":7221,"mis":7222,"mig":7223,"mble":7224,"nta":7225,"nag":7226,"nary":7227,"nno":7228,"nout":7229,"ntly":7230,"nappe":7231,"ntype":7232,"nvergence":7233,"nthermal":7234,"ota":7235,"oog":7236,"oir":7237,"otun":7238,"pine":7239,"pect":7240,"points":7241,"pling":7242,"ptoli":7243,"rd":7244,"ral":7245,"ris":7246,"rors":7247,"strike":7248,"second":7249,"ttin":7250,"uz":7251,"upper":7252,"vin":7253,"vial":7254,"vable":7255,"ww":7256,"wing":7257,"wide":7258,"wart":7259,"ya":7260,"ye":7261,"yps":7262,"yellow":7263,"zie":7264,"¥\\":7265,"Â±":7266,"Ī\\":7267,"ļ\\":7268,"ł\\":7269,"tio":7270,"tipp":7271,"taerial":7272,"taware":7273,"thold":7274,"reag":7275,"toured":7276,"tsin":7277,"tstand":7278,"tsol":7279,"tsil":7280,"tstop":7281,"tsix":7282,"tschist":7283,"onic":7284,"onents":7285,"teresting":7286,"tessential":7287,"inity":7288,"ndri":7289,"although":7290,"tcard":7291,"trich":7292,"trose":7293,"trising":7294,"erate":7295,"enting":7296,"tdow":7297,"tdashpot":7298,"espread":7299,"arle":7300,"tbring":7301,"tpis":7302,"tpale":7303,"tpier":7304,"tpump":7305,"tmis":7306,"tmixed":7307,"tmirror":7308,"icinity":7309,"trep":7310,"trear":7311,"tretri":7312,"treported":7313,"heet":7314,"lational":7315,"lapping":7316,"tudi":7317,"edure":7318,"olz":7319,"ollow":7320,"olith":7321,"sson":7322,"toring":7323,"tordinary":7324,"tlantic":7325,"ecking":7326,"iguration":7327,"terrors":7328,"nson":7329,"nsymmetric":7330,"nsections":7331,"nspherical":7332,"nspec":7333,"nsecondary":7334,"vey":7335,"trata":7336,"trating":7337,"tbelem":7338,"asion":7339,"asins":7340,"tglobal":7341,"tgyps":7342,"tals":7343,"talter":7344,"tedges":7345,"tnod":7346,"lift":7347,"ush":7348,"usceptibility":7349,"osomes":7350,"tdie":7351,"tdivergent":7352,"tcontribution":7353,"tcontoured":7354,"elvin":7355,"textracted":7356,"tasce":7357,"tasperities":7358,"tmapp":7359,"tmaking":7360,"idth":7361,"idence":7362,"idening":7363,"roterozoic":7364,"tshif":7365,"tstressed":7366,"nTur":7367,"nTens":7368,"nTable":7369,"nTreag":7370,"tItaly":7371,"tSouth":7372,"nSlick":7373,"nStrongly":7374,"ttests":7375,"tformally":7376,"rier":7377,"irdle":7378,"tAre":7379,"tAgain":7380,"tAtlantic":7381,"atest":7382,"tvoids":7383,"tvicinity":7384,"tdistortion":7385,"tattached":7386,"phisticated":7387,"nfe":7388,"nfmin":7389,"nfmax":7390,"tparagen":7391,"191":7392,"1950":7393,"tationary":7394,"matrix":7395,"tresol":7396,"tresting":7397,"troduction":7398,"nthough":7399,"nthose":7400,"nposi":7401,"npower":7402,"nCow":7403,"nCur":7404,"nCrustal":7405,"iences":7406,"nearly":7407,"nearlier":7408,"nThey":7409,"tlear":7410,"tleak":7411,"tlecture":7412,"turned":7413,"tmoderate":7414,"tprolate":7415,"tFran":7416,"tFractures":7417,"tFlexural":7418,"tFrench":7419,"tprone":7420,"avis":7421,"avir":7422,"tgraptoli":7423,"nif":7424,"tCur":7425,"tContinu":7426,"tComb":7427,"tCarbon":7428,"tConsider":7429,"206":7430,"tWal":7431,"tWell":7432,"tWhether":7433,"tWestern":7434,"adox":7435,"tMor":7436,"tMar":7437,"nPos":7438,"nPaleostress":7439,"nRa":7440,"nRiedel":7441,"nReduc":7442,"ghness":7443,"tmodelling":7444,"tHooke":7445,"agonal":7446,"tkg":7447,"tconsis":7448,"tGreat":7449,"tcomposition":7450,"tcomposite":7451,"ndeform":7452,"ndevelop":7453,"ngreat":7454,"luding":7455,"tPassive":7456,"nBer":7457,"nBuckling":7458,"nBott":7459,"nByerlee":7460,"arding":7461,"tdirected":7462,"asement":7463,"depth":7464,"nbre":7465,"nMor":7466,"opes":7467,"oplastic":7468,"timpressive":7469,"timpression":7470,"direc":7471,"tincorporated":7472,"mont":7473,"tinteract":7474,"ipi":7475,"tNumerical":7476,"nwww":7477,"nalready":7478,"tjuxtaposition":7479,"nman":7480,"nmap":7481,"nmod":7482,"nmulti":7483,"nIdeally":7484,"nIncreasing":7485,"nIdeal":7486,"tocks":7487,"ulating":7488,"trefers":7489,"noke":7490,"toverview":7491,"toverlay":7492,"toverprin":7493,"nGullfaks":7494,"ninto":7495,"nintra":7496,"129":7497,"tgeosc":7498,"ource":7499,"nref":7500,"nreser":7501,"nreferred":7502,"nrealistic":7503,"168":7504,"tthereby":7505,"ttransitions":7506,"nHanc":7507,"nHinge":7508,"nHuber":7509,"nHerring":7510,"inesis":7511,"tEast":7512,"tEqual":7513,"tEBSD":7514,"ibers":7515,"ibson":7516,"ameter":7517,"chists":7518,"nWilliams":7519,"tsophisticated":7520,"182":7521,"185":7522,"155":7523,"158":7524,"tterminate":7525,"nÎĵ":7526,"171":7527,"tnormalized":7528,"tshortest":7529,"tupon":7530,"nconcen":7531,"ncontraction":7532,"nconcentric":7533,"vestig":7534,"tphys":7535,"tnoted":7536,"tapplying":7537,"theat":7538,"theating":7539,"thematically":7540,"nlook":7541,"nlink":7542,"nlarger":7543,"taccomp":7544,"everse":7545,"tWhich":7546,"lect":7547,"trecovery":7548,"ndipping":7549,"timate":7550,"tsmallest":7551,"tgrowing":7552,"tthickens":7553,"tdiscrepancy":7554,"tratios":7555,"tclays":7556,"tdestruc":7557,"terson":7558,"227":7559,"tparallelism":7560,"ify":7561,"iferous":7562,"tOslo":7563,"tsystematically":7564,"tassembla":7565,"tLow":7566,"indow":7567,"nknow":7568,"tsectional":7569,"tunique":7570,"tdeposition":7571,"nexperiments":7572,"tunderground":7573,"ilities":7574,"nNo":7575,"nNor":7576,"nNevertheless":7577,"tdependence":7578,"resistivity":7579,"inks":7580,"tUK":7581,"valbard":7582,"tlithologies":7583,"tgeneration":7584,"issolution":7585,"tweakens":7586,"tquartzites":7587,"261":7588,"tequi":7589,"toffshore":7590,"tresponds":7591,"hron":7592,"nright":7593,"tinitiation":7594,"tributed":7595,"tnewly":7596,"tevenly":7597,"teastern":7598,"topens":7599,"tkinematically":7600,"âĪļ\\":7601,"tinstant":7602,"gamon":7603,"283":7604,"listric":7605,"nareas":7606,"nundeformed":7607,"nunloading":7608,"phyllosilic":7609,"tregionally":7610,"tdiscussing":7611,"extensional":7612,"tconfiguration":7613,"alculated":7614,"tlinearly":7615,"treflection":7616,"aternary":7617,"406":7618,"npartitioning":7619,"ndifficult":7620,"368":7621,"tmainly":7622,"tplay":7623,"nVari":7624,"timagine":7625,"tdensities":7626,"tscaled":7627,"nwhy":7628,"tsyrup":7629,"tsyntaxial":7630,"nlateral":7631,"1974":7632,"nconsistent":7633,"center":7634,"tpossibility":7635,"itted":7636,"nUnd":7637,"nUniform":7638,"tforceful":7639,"nmethod":7640,"tideas":7641,"ttopography":7642,"nsee":7643,"tAsymmetric":7644,"ngeologic":7645,"nresult":7646,"nresistance":7647,"ntranslation":7648,"tKavir":7649,"void":7650,"tdeterminant":7651,"texploring":7652,"tstarted":7653,"392":7654,"tdiscontinuous":7655,"trealized":7656,"nAnti":7657,"nReleasing":7658,"ineralic":7659,"tinterested":7660,"tincludes":7661,"tsituations":7662,"nproduction":7663,"nprojection":7664,"nwithin":7665,"ndirections":7666,"ndirectly":7667,"autochthonous":7668,"tbreached":7669,"nContraction":7670,"neissic":7671,"449":7672,"tagree":7673,"nrather":7674,"tslopes":7675,"tiron":7676,"arthquakes":7677,"regularities":7678,"nmicrofractures":7679,"nforming":7680,"ttrends":7681,"teigenvalue":7682,"nsubseismic":7683,"nsubgrain":7684,"nGeometry":7685,"trecords":7686,"nyield":7687,"tbreaks":7688,"ncoefficient":7689,"tstudying":7690,"tappearance":7691,"arbons":7692,"ninternal":7693,"ninterpretation":7694,"tbuilt":7695,"twidespread":7696,"nfractured":7697,"ndepends":7698,"tdefinitions":7699,"tfibrous":7700,"responding":7701,"taggregate":7702,"nnew":7703,"nneutral":7704,"1967":7705,"1968":7706,"tcollisional":7707,"arrows":7708,"tvisually":7709,"tturn":7710,"trepeats":7711,"nsynform":7712,"nsynthetic":7713,"tRocky":7714,"tgranites":7715,"ttiming":7716,"texceeded":7717,"mendinger":7718,"aperture":7719,"timbricated":7720,"trun":7721,"tpictures":7722,"tincomplete":7723,"plasticity":7724,"typically":7725,"tcorresponds":7726,"nSchultz":7727,"nincreasing":7728,"âī¥\\":7729,"âīĪ\\":7730,"âīł\\":7731,"nporous":7732,"nporosity":7733,"tMechanical":7734,"tMechanisms":7735,"tlogs":7736,"ntensor":7737,"tslower":7738,"tcarry":7739,"tintroduc":7740,"nmicroscopic":7741,"toperate":7742,"tfeed":7743,"tchallenge":7744,"tkinds":7745,"nMcKen":7746,"tanalyze":7747,"tresemb":7748,"tresemble":7749,"tgraphs":7750,"tcompensation":7751,"thickness":7752,"tradius":7753,"tconvenient":7754,"nappro":7755,"napplied":7756,"Ã¸r":7757,"orientation":7758,"tVermont":7759,"ynamically":7760,"tcounterpart":7761,"njoint":7762,"nsmaller":7763,"tnames":7764,"defects":7765,"nindicates":7766,"ermian":7767,"tlamination":7768,"tlamina":7769,"tdisplayed":7770,"tprecise":7771,"tprecipitation":7772,"nassump":7773,"treconstruct":7774,"nseparation":7775,"nseparated":7776,"tarrangements":7777,"tchallenges":7778,"tfulfilled":7779,"tLineations":7780,"timaginary":7781,"linic":7782,"tanomalies":7783,"nSubsimple":7784,"nCoble":7785,"ibeira":7786,"tbuoyant":7787,"nramps":7788,"tengineers":7789,"nPetit":7790,"nRocks":7791,"nantiform":7792,"tsumming":7793,"npattern":7794,"tRestoration":7795,"noffset":7796,"tEuras":7797,"nÄĵ":7798,"ntip":7799,"nlikely":7800,"imestone":7801,"textremely":7802,"tIndian":7803,"ubbert":7804,"ninvolved":7805,"tquali":7806,"ndiapirs":7807,"tadvantage":7808,"tintragranular":7809,"twindow":7810,"omechanical":7811,"omechanically":7812,"trandomly":7813,"tTypically":7814,"nTypical":7815,"ncauses":7816,"tDisplacement":7817,"tloosely":7818,"compare":7819,"moval":7820,"thackles":7821,"alokinetic":7822,"tcylinder":7823,"tpointed":7824,"treversed":7825,"ellipsoid":7826,"texerc":7827,"tproceed":7828,"nPergamon":7829,"ngiven":7830,"nLister":7831,"nnecessarily":7832,"tstraighter":7833,"noutcrop":7834,"ndimensions":7835,"tbreccia":7836,"tMinerals":7837,"ncontrast":7838,"nmeasurements":7839,"nuseful":7840,"tsorting":7841,"tfossils":7842,"tcrests":7843,"torders":7844,"ochoric":7845,"tSander":7846,"tenveloping":7847,"nflattening":7848,"tMemoir":7849,"tobstacles":7850,"tEllip":7851,"tspatial":7852,"nconformities":7853,"tresponsible":7854,"rugations":7855,"tthousands":7856,"ndensity":7857,"tmillions":7858,"oliva":7859,"texception":7860,"onglomerates":7861,"tupside":7862,"tapplicable":7863,"nconstitutive":7864,"texhibit":7865,"iezometer":7866,"tVariscan":7867,"tarbitrary":7868,"marine":7869,"tinher":7870,"tinput":7871,"celeration":7872,"tmobile":7873,"mekite":7874,"ientists":7875,"taccounted":7876,"tJohn":7877,"tgoverned":7878,"tunlikely":7879,"nproblem":7880,"tRafael":7881,"tobliquity":7882,"tCarolina":7883,"enomenon":7884,"Newtonian":7885,"ailure":7886,"lossary":7887,"misphere":7888,"oogle":7889,"uzz":7890,"tretrie":7891,"tbelemni":7892,"tgypsum":7893,"tnodal":7894,"tmappable":7895,"nTreagus":7896,"tgraptolites":7897,"tCarboniferous":7898,"nHancock":7899,"nMcKenzie":7900,")?\\":7901,")/\\":7902,"060":7903,"215":7904,"230":7905,"324":7906,"460":7907,"52":7908,"62":7909,"617":7910,"71":7911,"92":7912,"Cleavage":7913,"Dis":7914,"Fold":7915,"Foliation":7916,"Gra":7917,"IS":7918,"Join":7919,"Pb":7920,"SP":7921,"Section":7922,"Thr":7923,"Ver":7924,"ai":7925,"aff":7926,"bro":7927,"based":7928,"cin":7929,"commod":7930,"constant":7931,"crystalline":7932,"change":7933,"dinal":7934,"dish":7935,"doz":7936,"ette":7937,"eismic":7938,"fill":7939,"fÃ¼":7940,"foliated":7941,"fiel":7942,"gan":7943,"growth":7944,"gdin":7945,"io":7946,"ious":7947,"iop":7948,"joints":7949,"known":7950,"len":7951,"look":7952,"losing":7953,"map":7954,"mark":7955,"mostly":7956,"nq":7957,"nmon":7958,"nany":7959,"nimb":7960,"nangular":7961,"nQF":7962,"nphyllosilic":7963,"oise":7964,"pop":7965,"point":7966,"pared":7967,"parent":7968,"rong":7969,"rose":7970,"sal":7971,"size":7972,"spherical":7973,"stage":7974,"sediment":7975,"utl":7976,"utive":7977,"utually":7978,"vector":7979,"volume":7980,"yoming":7981,"¤\\":7982,"Ã¥":7983,"Ĩ\\":7984,"tite":7985,"tahed":7986,"tavoid":7987,"then":7988,"thamp":7989,"thors":7990,"thrus":7991,"thomologous":7992,"tops":7993,"tonsh":7994,"toolites":7995,"tsure":7996,"tstored":7997,"tstationary":7998,"tthing":7999,"onner":8000,"tein":8001,"teen":8002,"inates":8003,"ndynamic":8004,"almost":8005,"tfive":8006,"tcig":8007,"tcot":8008,"tcold":8009,"trule":8010,"trograde":8011,"erve":8012,"orse":8013,"entu":8014,"energy":8015,"tdough":8016,"tdrop":8017,"tdrops":8018,"tine":8019,"tinents":8020,"tintracrystalline":8021,"tintrude":8022,"esert":8023,"esota":8024,"tbent":8025,"tblas":8026,"tbag":8027,"tblack":8028,"twish":8029,"tpad":8030,"tpublication":8031,"tplaster":8032,"tpuzz":8033,"tment":8034,"tments":8035,"tmelt":8036,"tmullions":8037,"tmutually":8038,"anlines":8039,"lement":8040,"learning":8041,"ica":8042,"treaction":8043,"tretain":8044,"trework":8045,"trebound":8046,"treorientation":8047,"hemical":8048,"ised":8049,"isch":8050,"lab":8051,"lates":8052,"tuneven":8053,"inges":8054,"uly":8055,"ulus":8056,"ulose":8057,"ommi":8058,"omineralic":8059,"tism":8060,"tisland":8061,"tisoclinal":8062,"acock":8063,"acting":8064,"actions":8065,"actly":8066,"ourier":8067,"ouette":8068,"tln":8069,"tlot":8070,"ecutive":8071,"igger":8072,"iguous":8073,"terion":8074,"terran":8075,"terror":8076,"teroded":8077,"tdeal":8078,"nsp":8079,"nstre":8080,"nsens":8081,"nseveral":8082,"nstriations":8083,"nstylol":8084,"nsandstones":8085,"nsusceptibility":8086,"ocene":8087,"ason":8088,"tgrown":8089,"tgirdle":8090,"talike":8091,"talgori":8092,"tnice":8093,"tances":8094,"tTri":8095,"tTens":8096,"tTullis":8097,"usp":8098,"nFirst":8099,"nFurther":8100,"nFry":8101,"osure":8102,"osoph":8103,"tconvergent":8104,"tcontinents":8105,"textra":8106,"textrude":8107,"texactly":8108,"verization":8109,"tasediments":8110,"oger":8111,"ogress":8112,"rawn":8113,"twebs":8114,"tship":8115,"tforced":8116,"sets":8117,"meters":8118,"tlack":8119,"peated":8120,"nTeyssier":8121,"ineering":8122,"tIV":8123,"tIts":8124,"ncrack":8125,"nchevron":8126,"tSW":8127,"tSmall":8128,"tSpherical":8129,"tStretching":8130,"tSvalbard":8131,"tseismically":8132,"quations":8133,"nSimilar":8134,"nSnoke":8135,"andro":8136,"rie":8137,"rill":8138,"riels":8139,"tAP":8140,"tvan":8141,"prec":8142,"tenters":8143,"ologically":8144,"physical":8145,"alling":8146,"tmete":8147,"nfabric":8148,"nfurther":8149,"nfact":8150,"nfracturing":8151,"nfluence":8152,"tparab":8153,"tpartition":8154,"tparasitic":8155,"1951":8156,"ppsal":8157,"essor":8158,"essandro":8159,"lasites":8160,"trode":8161,"iling":8162,"ilbr":8163,"ilosoph":8164,"npos":8165,"nposition":8166,"npitch":8167,"npoly":8168,"nCre":8169,"nCra":8170,"nComp":8171,"nClay":8172,"nCataclasis":8173,"nAd":8174,"neas":8175,"nevidence":8176,"nequal":8177,"neigenvectors":8178,"nelevated":8179,"nTheory":8180,"tprepared":8181,"tled":8182,"tleaves":8183,"oundary":8184,"turation":8185,"trelax":8186,"tFred":8187,"tFluid":8188,"tFracture":8189,"tFoliations":8190,"tFaulting":8191,"tFinally":8192,"tprism":8193,"tsimulation":8194,"tgrabens":8195,"tgraphically":8196,"nÏĢ":8197,"nÏī":8198,"tarrest":8199,"tarises":8200,"tarchitecture":8201,"tCan":8202,"tCrystal":8203,"tClay":8204,"tCordiller":8205,"tCentral":8206,"207":8207,"208":8208,"ada":8209,"tMc":8210,"tMinn":8211,"tMommi":8212,"nPen":8213,"nPoint":8214,"nPlane":8215,"nPlatt":8216,"abriels":8217,"nDisc":8218,"nDuplex":8219,"nDavis":8220,"nRi":8221,"nRamps":8222,"tHorizontal":8223,"tHomogeneous":8224,"tHesthammer":8225,"tconsecutive":8226,"tuses":8227,"tGrowth":8228,"tGlobal":8229,"tGerman":8230,"tGlen":8231,"tcompacted":8232,"ttruly":8233,"amplitude":8234,"ndeforming":8235,"ngular":8236,"nground":8237,"ngranular":8238,"ngener":8239,"lump":8240,"tPlastic":8241,"tPlu":8242,"tPaper":8243,"nBulletin":8244,"nBrazil":8245,"nBasic":8246,"tpercent":8247,"nbu":8248,"nbul":8249,"nbox":8250,"nbuckling":8251,"nbasal":8252,"nbasement":8253,"nMal":8254,"nMylonite":8255,"nMylonites":8256,"oproterozoic":8257,"timpure":8258,"ubey":8259,"dilation":8260,"tneg":8261,"tBasic":8262,"tBelow":8263,"tBreddin":8264,"ipient":8265,"iplines":8266,"tNiger":8267,"tNava":8268,"nwere":8269,"nwet":8270,"nwater":8271,"naverage":8272,"nmylonite":8273,"nISA":8274,"tocc":8275,"tRich":8276,"tRigid":8277,"tRheology":8278,"tRoger":8279,"treferences":8280,"note":8281,"toverthrust":8282,"toverlook":8283,"114":8284,"nGeolog":8285,"nindi":8286,"niniti":8287,"nintrusion":8288,"ninversion":8289,"nintracrystalline":8290,"nEff":8291,"nEng":8292,"nEvolution":8293,"nElliott":8294,"tstatic":8295,"tlowers":8296,"nreactivation":8297,"166":8298,"tcohere":8299,"tcovers":8300,"tplanet":8301,"ttransforms":8302,"nHesthammer":8303,"nHolst":8304,"nHudec":8305,"nHubbert":8306,"tElastic":8307,"iber":8308,"nLS":8309,"nLe":8310,"chfiel":8311,"tDuctile":8312,"achie":8313,"achiop":8314,"nÎ´":8315,"nÎµ":8316,"tindustry":8317,"nhapp":8318,"nhorses":8319,"nhybrid":8320,"178":8321,"tshorter":8322,"tshortens":8323,"131":8324,"nconcept":8325,"tsubg":8326,"tsubject":8327,"tdeflected":8328,"tnoting":8329,"ewis":8330,"tresulted":8331,"tapplies":8332,"thematical":8333,"nlim":8334,"viations":8335,"taccentu":8336,"tcolored":8337,"tWhite":8338,"rice":8339,"riction":8340,"tzirc":8341,"iscent":8342,"thorizontally":8343,"texposure":8344,"lections":8345,"trecent":8346,"trecumbent":8347,"ideal":8348,"tdomain":8349,"tthickened":8350,"ackles":8351,"tdesigned":8352,"tclosed":8353,"229":8354,"ifting":8355,"vidually":8356,"tLa":8357,"tLower":8358,"tLayer":8359,"nkink":8360,"308":8361,"tfoundation":8362,"tundergo":8363,"nNumerical":8364,"nNatural":8365,"tlithified":8366,"tJoint":8367,"tJackson":8368,"tJurassic":8369,"tJotun":8370,"norogen":8371,"tweakening":8372,"areous":8373,"nOther":8374,"264":8375,"266":8376,"245":8377,"248":8378,"nridge":8379,"nvisc":8380,"tinitiating":8381,"tcreation":8382,"âĪĨ\\":8383,"apping":8384,"tstem":8385,"tstereographic":8386,"tstereonet":8387,"istingu":8388,"nDef":8389,"nDeviatoric":8390,"336":8391,"taccumulations":8392,"285":8393,"tAlber":8394,"tAlpine":8395,"tAlessandro":8396,"294":8397,"359":8398,"tinterpreting":8399,"ntot":8400,"ntogether":8401,"ndisplacements":8402,"239":8403,"tsimilarly":8404,"modules":8405,"tgreatest":8406,"nXZ":8407,"ills":8408,"tflattens":8409,"tclassical":8410,"271":8411,"272":8412,"278":8413,"tevap":8414,"nbending":8415,"loitation":8416,"343":8417,"346":8418,"nExamples":8419,"253":8420,"tcontrolling":8421,"407":8422,"tdecimeter":8423,"nparameters":8424,"tspecified":8425,"ndifferences":8426,"364":8427,"367":8428,"tmaintains":8429,"380":8430,"381":8431,"382":8432,"ounter":8433,"tbedrock":8434,"tplays":8435,"tscience":8436,"tunately":8437,"tVolume":8438,"tsyntectonic":8439,"tsyndepositional":8440,"tfaint":8441,"nlaw":8442,"tstrongest":8443,"1978":8444,"nconsid":8445,"nconstric":8446,"459":8447,"tbanded":8448,"nUniversity":8449,"nactiv":8450,"editerran":8451,"udes":8452,"370":8453,"372":8454,"tstyles":8455,"nsequ":8456,"tharder":8457,"ulldoz":8458,"imposed":8459,"nrestored":8460,"nrestraining":8461,"layered":8462,"ntransform":8463,"ntransected":8464,"ncompetent":8465,"tDetachment":8466,"tDevonian":8467,"tsymmetrically":8468,"391":8469,"394":8470,"nforced":8471,"trevealing":8472,"nReview":8473,"npermeability":8474,"treactivate":8475,"textending":8476,"nSearle":8477,"arstification":8478,"taffects":8479,"tTherefore":8480,"tserrated":8481,"tserious":8482,"tExperimental":8483,"enetic":8484,"bearing":8485,"nrates":8486,"tpolar":8487,"tpolym":8488,"ilson":8489,"tremaining":8490,"tantitaxial":8491,"tantiforms":8492,"nmica":8493,"tmicrofracture":8494,"tsuppor":8495,"nincom":8496,"teigenvector":8497,"tZagros":8498,"nTransform":8499,"ncoordinate":8500,"nroof":8501,"ttextbook":8502,"tsouth":8503,"ninterpre":8504,"ninterface":8505,"tidentification":8506,"ndepending":8507,"nneed":8508,"1962":8509,"nobject":8510,"nobservations":8511,"valuable":8512,"tSevier":8513,"tContinental":8514,"tassumes":8515,"obb":8516,"verging":8517,"tkinking":8518,"tGeometric":8519,"nparticle":8520,"nparticles":8521,"tgranite":8522,"tintersecting":8523,"rouw":8524,"thappened":8525,"tfavors":8526,"trunning":8527,"tanticlockwise":8528,"nPhysical":8529,"naccording":8530,"tstylolitic":8531,"thorhombic":8532,"npredic":8533,"tcheck":8534,"tchemical":8535,"textensively":8536,"tpromoted":8537,"tportray":8538,"tavailability":8539,"tDifferential":8540,"461":8541,"462":8542,"âī¤\\":8543,"inai":8544,"nchannel":8545,"nporphyroclasts":8546,"tClassic":8547,"tOthers":8548,"tOtherwise":8549,"aint":8550,"ternatively":8551,"nellipse":8552,"tintroduction":8553,"treaching":8554,"ndeposi":8555,"nMica":8556,"nMicrotectonics":8557,"nphysical":8558,"tsaturation":8559,"quality":8560,"nMoine":8561,"nOrthogonal":8562,"tdownwards":8563,"ucleation":8564,"nAlso":8565,"tBygdin":8566,"tdenote":8567,"tArches":8568,"tArrows":8569,"umbers":8570,"nBends":8571,"nBending":8572,"tcorrelate":8573,"middle":8574,"ndipmeter":8575,"tTogether":8576,"tconvention":8577,"nSander":8578,"tdeposits":8579,"tpushed":8580,"tintervals":8581,"tcounteracts":8582,"tmesh":8583,"helf":8584,"trada":8585,"talternating":8586,"tSchultz":8587,"tphotograph":8588,"trecognize":8589,"tfavorable":8590,"tfavorably":8591,"ninstance":8592,"tsuccessfully":8593,"tcycles":8594,"tlamella":8595,"tApplied":8596,"nassociated":8597,"tconfusing":8598,"thydrocarbons":8599,"tfundamentals":8600,"tboat":8601,"terosional":8602,"asht":8603,"taccuracy":8604,"tProgressive":8605,"tinclusions":8606,"tanomalous":8607,"nfluids":8608,"nAnders":8609,"nParticle":8610,"tphyllitic":8611,"nenough":8612,"nSteady":8613,"tengineering":8614,"tChile":8615,"nPeacock":8616,"tNeoproterozoic":8617,"displacement":8618,"nvein":8619,"ndecre":8620,"tpulled":8621,"treadily":8622,"tProterozoic":8623,"naccommodate":8624,"naccommodated":8625,"vantage":8626,"tslices":8627,"tbisect":8628,"tpiece":8629,"tvolcanic":8630,"tpersistent":8631,"ninflu":8632,"ninvolves":8633,"ndiapirism":8634,"tadvantages":8635,"weden":8636,"twindows":8637,"tTypical":8638,"nAppalachian":8639,"nMinerals":8640,"tmultiplied":8641,"naccumulate":8642,"nnatural":8643,"nreduction":8644,"nreduced":8645,"ttangent":8646,"tamplification":8647,"thackle":8648,"alokinesis":8649,"tpointing":8650,"tprocedure":8651,"tovercome":8652,"nLisle":8653,"nnecessary":8654,"nInterpretation":8655,"nvarious":8656,"nmagnitude":8657,"toldest":8658,"tdouble":8659,"nslickenlines":8660,"tcanopy":8661,"tcanopies":8662,"tcomplementary":8663,"nplotted":8664,"tMaximum":8665,"ngola":8666,"teliminated":8667,"ndescribes":8668,"fjorden":8669,"ntriangle":8670,"ttrains":8671,"tlocked":8672,"nsuccessively":8673,"ttemporal":8674,"tCoaxial":8675,"tCompare":8676,"nconfining":8677,"nshorten":8678,"nresults":8679,"nanalysis":8680,"nanticline":8681,"ndepths":8682,"ntrishear":8683,"rslev":8684,"space":8685,"tfilm":8686,"tbrachiop":8687,"tTertiary":8688,"npaths":8689,"nChristmas":8690,"tCanyonlands":8691,"nblocks":8692,"nMeans":8693,"naffected":8694,"nhardening":8695,"nrheologic":8696,"ngeometries":8697,"ndiscontinuities":8698,"nsettings":8699,"bottom":8700,"tutilize":8701,"nTerra":8702,"tIdentical":8703,"tAfrican":8704,"tabrupt":8705,"nJohnson":8706,"tLithosphere":8707,"topportunity":8708,"nUsing":8709,"tturbidites":8710,"tenvironment":8711,"Â±\\":8712,"tpiston":8713,"tascend":8714,"tparageneses":8715,"nCoward":8716,"ipitated":8717,"nmantle":8718,"nreservoir":8719,"nlinkage":8720,"taccompan":8721,"napproxim":8722,"tlaminae":8723,"tinherited":8724,"Jointing":8725,"roseismic":8726,"utler":8727,"tahedral":8728,"tonshore":8729,"teenth":8730,"tcigar":8731,"tpaddle":8732,"tpuzzle":8733,"talgorith":8734,"ppsala":8735,"ilbronner":8736,"tMinnesota":8737,"tMommio":8738,"abrielsen":8739,"tNavajo":8740,"toverlooked":8741,"editerranean":8742,"ulldozer":8743,"tlamellae":8744,"tbrachiopods":8745,"(~":8746,"(<\\":8747,"))\\":8748,"211":8749,"212":8750,"411":8751,"59":8752,"64":8753,"620":8754,"93":8755,"96":8756,"Al":8757,"Folds":8758,"Kinematic":8759,"Line":8760,"Profile":8761,"Ro":8762,"Stress":8763,"Th":8764,"Tri":8765,"UK":8766,"Volume":8767,"Young":8768,"aÃ":8769,"atibility":8770,"atment":8771,"bot":8772,"bors":8773,"bably":8774,"biguous":8775,"core":8776,"catter":8777,"cons":8778,"class":8779,"cambridge":8780,"cutting":8781,"dated":8782,"dam":8783,"eys":8784,"earthquakes":8785,"fts":8786,"fting":8787,"ftening":8788,"first":8789,"footwall":8790,"gi":8791,"gu":8792,"ged":8793,"generally":8794,"green":8795,"gÃ¥":8796,"hn":8797,"hy":8798,"hib":8799,"ire":8800,"ias":8801,"iot":8802,"ians":8803,"iable":8804,"ilation":8805,"iking":8806,"jections":8807,"jacent":8808,"km":8809,"ky":8810,"kin":8811,"ker":8812,"ked":8813,"krou":8814,"lind":8815,"mu":8816,"ming":8817,"mund":8818,"mylonite":8819,"mouth":8820,"moidal":8821,"mgÃ¥":8822,"ntra":8823,"nri":8824,"nop":8825,"nour":8826,"nant":8827,"nected":8828,"nallow":8829,"nulations":8830,"ntil":8831,"nvalue":8832,"normally":8833,"ntabular":8834,"naperture":8835,"nideal":8836,"pill":8837,"pective":8838,"pit":8839,"pass":8840,"rasion":8841,"su":8842,"structures":8843,"stones":8844,"self":8845,"stiff":8846,"sÃ¼":8847,"systematic":8848,"ttas":8849,"uf":8850,"uture":8851,"ulas":8852,"ups":8853,"unch":8854,"uniaxial":8855,"uille":8856,"ughness":8857,"vation":8858,"vans":8859,"vale":8860,"viscosity":8861,"viscous":8862,"vada":8863,"win":8864,"widening":8865,"yme":8866,"zes":8867,"zero":8868,"§u":8869,"«\\":8870,"Ã§u":8871,"tian":8872,"tible":8873,"tating":8874,"thalt":8875,"thands":8876,"thook":8877,"tholds":8878,"thuge":8879,"thrown":8880,"thybrid":8881,"rel":8882,"rey":8883,"repres":8884,"revers":8885,"remember":8886,"tove":8887,"touring":8888,"tores":8889,"tomatically":8890,"tooids":8891,"tsort":8892,"tstability":8893,"tsinking":8894,"tstocks":8895,"tstops":8896,"ont":8897,"onom":8898,"tet":8899,"tever":8900,"temb":8901,"tempor":8902,"teye":8903,"ino":8904,"inites":8905,"iniscent":8906,"ndone":8907,"ndry":8908,"ndissolution":8909,"ndrawn":8910,"alth":8911,"albot":8912,"tfans":8913,"tflu":8914,"tflan":8915,"tfjord":8916,"tcra":8917,"tcount":8918,"tcalls":8919,"tclast":8920,"trou":8921,"trim":8922,"trang":8923,"trÃ¶":8924,"erick":8925,"eries":8926,"tdy":8927,"tdol":8928,"tdynamically":8929,"tinolite":8930,"tinvaluable":8931,"arps":8932,"tbare":8933,"tborder":8934,"tbulldozer":8935,"twave":8936,"tward":8937,"twarm":8938,"twants":8939,"twheel":8940,"twrong":8941,"tmol":8942,"tmere":8943,"anz":8944,"anmer":8945,"lettin":8946,"icul":8947,"trene":8948,"treading":8949,"treoriented":8950,"iser":8951,"ismatic":8952,"istence":8953,"lase":8954,"lating":8955,"laced":8956,"turi":8957,"tunrelated":8958,"tunloading":8959,"tunrealistic":8960,"tunknow":8961,"tunfractured":8962,"tunconformities":8963,"edge":8964,"ulverization":8965,"omino":8966,"olling":8967,"ollover":8968,"ttor":8969,"ttoughness":8970,"acLe":8971,"torable":8972,"ouby":8973,"oukrou":8974,"tlist":8975,"tlunch":8976,"terated":8977,"terdam":8978,"tdepression":8979,"tdeals":8980,"nsur":8981,"nsim":8982,"nsyl":8983,"nstill":8984,"nsolution":8985,"nsingle":8986,"nsliding":8987,"nstrong":8988,"nsince":8989,"nself":8990,"nsinistral":8991,"nstick":8992,"nstraight":8993,"ucosomes":8994,"tbear":8995,"ochron":8996,"asatch":8997,"aulted":8998,"tgap":8999,"tgain":9000,"tonline":9001,"urable":9002,"urities":9003,"urvey":9004,"tica":9005,"imations":9006,"tnine":9007,"lie":9008,"lides":9009,"tanimations":9010,"tTur":9011,"tTex":9012,"nFer":9013,"nFle":9014,"nFabric":9015,"nFrictional":9016,"nFailure":9017,"osities":9018,"tdiameter":9019,"celand":9020,"tconduc":9021,"tcondu":9022,"elly":9023,"verpit":9024,"tasthen":9025,"ions":9026,"ogarithmic":9027,"iddle":9028,"rapped":9029,"raditionally":9030,"raÃ§u":9031,"rotated":9032,"tweb":9033,"twealth":9034,"tmotiv":9035,"tbypass":9036,"sevier":9037,"metamorphosed":9038,"tlas":9039,"tlavas":9040,"tstraining":9041,"petency":9042,"nTwiss":9043,"nTemperature":9044,"nTrouw":9045,"ineers":9046,"ncore":9047,"ncould":9048,"ncomb":9049,"nclimb":9050,"ncracks":9051,"tSyste":9052,"tStraight":9053,"tSwiss":9054,"tSoliva":9055,"tSurvey":9056,"tsetup":9057,"tselection":9058,"twhite":9059,"quis":9060,"nSan":9061,"nSme":9062,"nStratigraphic":9063,"nStylol":9064,"nSibson":9065,"lippe":9066,"anding":9067,"aped":9068,"tformer":9069,"rite":9070,"rientation":9071,"tacted":9072,"tacous":9073,"tactinolite":9074,"tAss":9075,"tAna":9076,"tAnalysis":9077,"tAtlas":9078,"trial":9079,"tcher":9080,"tches":9081,"tchance":9082,"tdistinc":9083,"tdisappe":9084,"ument":9085,"umont":9086,"tentries":9087,"tentered":9088,"phi":9089,"allenge":9090,"tmeet":9091,"tmetasediments":9092,"nfrac":9093,"nfind":9094,"nfirst":9095,"nfeatures":9096,"nfaster":9097,"nfocal":9098,"nfrequ":9099,"nflat":9100,"nfollow":9101,"nfriction":9102,"ointed":9103,"1930":9104,"softening":9105,"tresist":9106,"tresistivity":9107,"tresistant":9108,"troom":9109,"troad":9110,"nthin":9111,"nthen":9112,"ilot":9113,"ilds":9114,"ilverpit":9115,"npore":9116,"npoints":9117,"npole":9118,"npaper":9119,"tdiffraction":9120,"tdiffuse":9121,"tdifficul":9122,"lower":9123,"nCor":9124,"nCos":9125,"nCross":9126,"nCylindrical":9127,"nCPO":9128,"nChevron":9129,"nClearly":9130,"nCanadian":9131,"nChannel":9132,"nCobb":9133,"nAms":9134,"nAperture":9135,"nAdding":9136,"nealing":9137,"nevery":9138,"ights":9139,"ighbors":9140,"nTheoretical":9141,"tpress":9142,"tpreced":9143,"tpretectonic":9144,"tprevents":9145,"ounded":9146,"tmodification":9147,"tFoliation":9148,"tFry":9149,"tFibers":9150,"tprisms":9151,"tprismatic":9152,"tesc":9153,"tespecially":9154,"tInter":9155,"hanian":9156,"avy":9157,"tThat":9158,"nipe":9159,"tCap":9160,"tChapter":9161,"tCompaction":9162,"tCambrian":9163,"odynamics":9164,"tWarm":9165,"tWyoming":9166,"tabrasion":9167,"adi":9168,"tMon":9169,"tMes":9170,"tMuch":9171,"tModel":9172,"tMises":9173,"tMagnetic":9174,"nPre":9175,"nPull":9176,"nPlanar":9177,"nPoly":9178,"nPrice":9179,"nDes":9180,"nRamp":9181,"nRies":9182,"nRole":9183,"nReverse":9184,"nRifting":9185,"iley":9186,"tHis":9187,"tHuber":9188,"tHobbs":9189,"tkarstification":9190,"tconser":9191,"tconstantly":9192,"tGive":9193,"tGoogle":9194,"permeability":9195,"tcompany":9196,"tcompass":9197,"tcompacts":9198,"ttrying":9199,"ndeterm":9200,"ndextral":9201,"ndeveloped":9202,"ngre":9203,"lunge":9204,"tPressure":9205,"tPlotting":9206,"tPermian":9207,"nBr":9208,"nBy":9209,"nBre":9210,"nBould":9211,"nBranch":9212,"nBoudinaged":9213,"nButler":9214,"deformed":9215,"nbasin":9216,"nbranch":9217,"nboudinaged":9218,"nMin":9219,"tdays":9220,"opiezometer":9221,"timpurities":9222,"ubert":9223,"diagonal":9224,"tnetwork":9225,"tnetworks":9226,"tnegligible":9227,"tincipient":9228,"tBr":9229,"tBack":9230,"tBoudinage":9231,"tBlack":9232,"tBoundary":9233,"tobeys":9234,"mond":9235,"tinterlock":9236,"tNon":9237,"tNot":9238,"tNord":9239,"tNatural":9240,"nwas":9241,"nweld":9242,"nwhether":9243,"nwidth":9244,"nwedge":9245,"tjuxtap":9246,"tjelly":9247,"nau":9248,"nIs":9249,"nIns":9250,"nInstead":9251,"nInfluence":9252,"toctahedral":9253,"ulatory":9254,"ulauf":9255,"tRen":9256,"tRose":9257,"tRamps":9258,"tRykkelid":9259,"aryya":9260,"112":9261,"nGr":9262,"nGulf":9263,"nGlossary":9264,"tmines":9265,"nines":9266,"telse":9267,"nErslev":9268,"tific":9269,"tgeographic":9270,"ttleton":9271,"nreleasing":9272,"164":9273,"tcoex":9274,"ttranscurrent":9275,"ttransposed":9276,"ttransparent":9277,"nHa":9278,"nHyd":9279,"nHuismans":9280,"ories":9281,"tquadratic":9282,"edimentation":9283,"tEng":9284,"tEarly":9285,"ibbs":9286,"nLong":9287,"tambiguous":9288,"nWith":9289,"nWorld":9290,"nWilson":9291,"ttectonically":9292,"186":9293,"tDa":9294,"tDel":9295,"tDesert":9296,"tDasht":9297,"153":9298,"159":9299,"nhal":9300,"170":9301,"races":9302,"tunders":9303,"tbasalt":9304,"pressed":9305,"133":9306,"nconc":9307,"ncontains":9308,"nconvergent":9309,"incre":9310,"tsubordinate":9311,"tsubjected":9312,"tsubducted":9313,"tsubmarine":9314,"tdoi":9315,"tphenomenon":9316,"tnoise":9317,"ewey":9318,"tappara":9319,"theave":9320,"themisphere":9321,"140":9322,"142":9323,"144":9324,"146":9325,"148":9326,"lecting":9327,"lective":9328,"trecording":9329,"trectangular":9330,"trecently":9331,"treciprocal":9332,"nnappes":9333,"nnumerical":9334,"tdoming":9335,"tthickest":9336,"ymmetrical":9337,"apirs":9338,"crip":9339,"tersections":9340,"tgeological":9341,"tparallels":9342,"ific":9343,"tOc":9344,"tanalogy":9345,"tassigned":9346,"tLu":9347,"tLoc":9348,"tLab":9349,"tLake":9350,"tLewis":9351,"tbounding":9352,"tconsiders":9353,"tfaces":9354,"nexper":9355,"nexisting":9356,"nextrusion":9357,"nNors":9358,"nNabarro":9359,"ovement":9360,"tUniaxial":9361,"tUpheaval":9362,"tUppsala":9363,"nIntersection":9364,"tlithological":9365,"tvariables":9366,"rosion":9367,"tgenerating":9368,"issers":9369,"tcircum":9370,"tweakened":9371,"nOur":9372,"tends":9373,"tWet":9374,"tWeak":9375,"tillustrating":9376,"ograph":9377,"nvis":9378,"nvaries":9379,"nvariation":9380,"nviscous":9381,"tthicknesses":9382,"eaumont":9383,"ancake":9384,"nsharp":9385,"toutline":9386,"toutcome":9387,"tours":9388,"335":9389,"tinsights":9390,"tacharyya":9391,"288":9392,"quivalent":9393,"tAlleg":9394,"292":9395,"297":9396,"tcontinually":9397,"nKink":9398,"nKnowledge":9399,"nKnipe":9400,"ntotal":9401,"ndistinction":9402,"ndisjunctive":9403,"oldstein":9404,"hipton":9405,"tblocky":9406,"tsimilarity":9407,"tgrew":9408,"tgreen":9409,"tgreatly":9410,"except":9411,"tinferred":9412,"treducing":9413,"tcorrectly":9414,"tclassify":9415,"275":9416,"276":9417,"tconfusion":9418,"ntecton":9419,"nteardrop":9420,"tductilely":9421,"nThus":9422,"nThick":9423,"ceptable":9424,"tsubside":9425,"tsubstitu":9426,"342":9427,"251":9428,"nprograms":9429,"403":9430,"404":9431,"erstanding":9432,"tdecide":9433,"361":9434,"365":9435,"366":9436,"383":9437,"386":9438,"transpression":9439,"nViscous":9440,"nVeins":9441,"timated":9442,"tscaling":9443,"tdistributions":9444,"tVol":9445,"trigidly":9446,"nlater":9447,"tdimensionless":9448,"tsandw":9449,"tRemember":9450,"tRelative":9451,"tremark":9452,"tremnant":9453,"treminiscent":9454,"itting":9455,"tknows":9456,"ainst":9457,"mann":9458,"ngradient":9459,"373":9460,"379":9461,"ttwisting":9462,"ttwice":9463,"ttwinned":9464,"ttopic":9465,"ncomponents":9466,"tsimpler":9467,"ngeologists":9468,"nresidual":9469,"nannealing":9470,"tworkers":9471,"ntranstension":9472,"ntranscurrent":9473,"ntransport":9474,"tKinematic":9475,"tKink":9476,"tKelvin":9477,"tdetermining":9478,"tDef":9479,"nonym":9480,"tdrives":9481,"taddress":9482,"393":9483,"397":9484,"trealize":9485,"tindividually":9486,"tintegra":9487,"npermanent":9488,"nperiod":9489,"npermeable":9490,"tfails":9491,"nWhy":9492,"treserve":9493,"nprobably":9494,"nprojections":9495,"nwithout":9496,"taffecting":9497,"tstratigraphically":9498,"thandle":9499,"ndifferently":9500,"tAndes":9501,"hthons":9502,"ingshear":9503,"tentially":9504,"tago":9505,"thydrofracturing":9506,"trheologic":9507,"archini":9508,"ttotally":9509,"viously":9510,"nrandom":9511,"1000":9512,"ncho":9513,"nchallenge":9514,"nmicrotectonics":9515,"tviews":9516,"tstriking":9517,"tSometimes":9518,"nforms":9519,"white":9520,"noverlap":9521,"athyme":9522,"ttrails":9523,"ttrapped":9524,"ttraditionally":9525,"tGeologisk":9526,"nquick":9527,"tracting":9528,"sequent":9529,"sequences":9530,"nTranscurrent":9531,"tsteepest":9532,"nrotated":9533,"titudes":9534,"tmodules":9535,"tidentifying":9536,"tmultilayer":9537,"tmultilayered":9538,"tdefinable":9539,"ndomains":9540,"nneighboring":9541,"rontal":9542,"tmigmati":9543,"nobser":9544,"tremoving":9545,"tConsequently":9546,"nDiffusion":9547,"noceanic":9548,"obile":9549,"tMake":9550,"tMaerten":9551,"tMathematically":9552,"tfarther":9553,"tclosure":9554,"nparticular":9555,"tcutting":9556,"nScience":9557,"tarcs":9558,"tarctica":9559,"tRockies":9560,"001":9561,"yllosilicate":9562,"nowing":9563,"tpeak":9564,"tdeepest":9565,"tyields":9566,"naxes":9567,"naxially":9568,"taccommodation":9569,"tmagmatism":9570,"roups":9571,"nregional":9572,"nsedimentation":9573,"tcompressed":9574,"thelpful":9575,"narr":9576,"nprec":9577,"nprevious":9578,"nSchistosity":9579,"nScholz":9580,"nSchubert":9581,"tphyllosilicates":9582,"tcolumnar":9583,"nincreases":9584,"nincreased":9585,"âī«\\":9586,"tcounting":9587,"naddition":9588,"nadjacent":9589,"tslowly":9590,"tintroduce":9591,"tpractically":9592,"nexpl":9593,"nexposed":9594,"tAndersonian":9595,"nphase":9596,"nphyllitic":9597,"workers":9598,"toperative":9599,"tputting":9600,"tsoftware":9601,"nOrogen":9602,"nvolumetric":9603,"lify":9604,"tplug":9605,"nAlthough":9606,"nMatrix":9607,"nClassification":9608,"nAllmendinger":9609,"nBefore":9610,"tmoni":9611,"tmonomineralic":9612,"nSynthetic":9613,"nSyntaxial":9614,"tcompatible":9615,"nGravity":9616,"tmicroresistivity":9617,"tmicrodefects":9618,"texperiences":9619,"nleast":9620,"nlithosphere":9621,"tuncertainties":9622,"tdevice":9623,"tdevices":9624,"tallochthons":9625,"tnarrower":9626,"nCharacteristic":9627,"nCommon":9628,"tcovering":9629,"tcounteract":9630,"tdetect":9631,"nsystem":9632,"tsharply":9633,"tCompetent":9634,"nindicate":9635,"nindicating":9636,"tregularity":9637,"folded":9638,"tsuccessively":9639,"alachians":9640,"tpostorogenic":9641,"tnucleate":9642,"tdisplaced":9643,"tdisplacing":9644,"ttighter":9645,"tstepover":9646,"phyroblast":9647,"tconfuse":9648,"nseparate":9649,"nrelatively":9650,"tremely":9651,"nscaling":9652,"ncriterion":9653,"ncircular":9654,"ncircles":9655,"taccurately":9656,"nCollision":9657,"nCollettin":9658,"tCPOs":9659,"ndefined":9660,"nEllip":9661,"nElsevier":9662,"tanalogs":9663,"tLinear":9664,"tvisualized":9665,"tpenetratively":9666,"tautochthonous":9667,"tautomatically":9668,"tspeaking":9669,"twrite":9670,"tstretches":9671,"illefjorden":9672,"nCoaxial":9673,"nWallace":9674,"tsubdivision":9675,"tphyllites":9676,"tsketches":9677,"tunconstrained":9678,"tTranspression":9679,"nStereographic":9680,"nStewart":9681,"tengineer":9682,"tmeasurable":9683,"1959":9684,"reccia":9685,"tNevada":9686,"nantithetic":9687,"tconcerns":9688,"dislocation":9689,"arris":9690,"treorganize":9691,"tgroove":9692,"tgroundwater":9693,"tMicro":9694,"treferring":9695,"tcollapsing":9696,"tmicaschist":9697,"tmicaschists":9698,"nperfect":9699,")/(\\":9700,"compressive":9701,"losely":9702,"vania":9703,"tfascin":9704,"tbisecting":9705,"tIndia":9706,"tSynthetic":9707,"ninfluence":9708,"tstatistical":9709,"ttransmissibility":9710,"nLithostatic":9711,"nLithospheric":9712,"nlocalized":9713,"nuplift":9714,"nconsiderably":9715,"ttunnels":9716,"nTypes":9717,"ttectonometamorphic":9718,"tFolded":9719,"nMechanical":9720,"tachieve":9721,"tloaded":9722,"tmultiplication":9723,"tmesoscale":9724,"eeder":9725,"ttangential":9726,"tamplitude":9727,"tempir":9728,"tcylindricity":9729,"nsuper":9730,"ngives":9731,"tPhoto":9732,"tperturbed":9733,"tperturbation":9734,"tobliterated":9735,"tovercoring":9736,"tcoarser":9737,"tcrystallize":9738,"tcrystallization":9739,"tsynformal":9740,"tantiformal":9741,"tspreadsheet":9742,"npetroleum":9743,"npresented":9744,"tdoub":9745,"tImportant":9746,"nfiber":9747,"npopulation":9748,"npopulations":9749,"nAxial":9750,"tMeasure":9751,"tMaxwell":9752,"tmicrocrack":9753,"tmicrocracks":9754,"nObservations":9755,"tsuperimposed":9756,"tpolygonal":9757,"nMicroscopic":9758,"tquantities":9759,"Extension":9760,"tsideways":9761,"ndoi":9762,"tcement":9763,"ttemporarily":9764,"nCriteria":9765,"nburial":9766,"nburied":9767,"nmigration":9768,"nmigmatitic":9769,"nrequire":9770,"nrequired":9771,"nresulting":9772,"ttunneling":9773,"tmacroscopic":9774,"fluids":9775,"variants":9776,"yrmekite":9777,"tswitch":9778,"tintruded":9779,"tbulk":9780,"tpillows":9781,"nstudy":9782,"tgrouped":9783,"texamination":9784,"nCaledonian":9785,"nCaledonides":9786,"nBurg":9787,"nBurchfiel":9788,"tRotation":9789,"nrelevant":9790,"nconnection":9791,"tOverpressure":9792,"tUnder":9793,"nVertical":9794,"teclogite":9795,"nsubsidence":9796,"ncollisional":9797,"tmonoclinic":9798,"nElongated":9799,"Forward":9800,"hattacharyya":9801,"ijm":9802,"lusions":9803,"napophyses":9804,"nsmear":9805,"nclassic":9806,"tSpain":9807,"nDipmeter":9808,"tPaleozoic":9809,"ttilted":9810,"tquarry":9811,"tEntrada":9812,"tinspection":9813,"nRegional":9814,"obarometry":9815,"nagainst":9816,"terestingly":9817,"tcards":9818,"tpumped":9819,"tudies":9820,"nspectrum":9821,"tshifted":9822,"nTensile":9823,"npositive":9824,"tFrance":9825,"tContinued":9826,"tWallace":9827,"tconsistency":9828,"nBerlin":9829,"nmodulus":9830,"nintragranular":9831,"tgeoscientists":9832,"nconcentration":9833,"tclaystone":9834,"tassemblages":9835,"tequivalent":9836,"tresembles":9837,"nassumption":9838,"tqualitatively":9839,"tproceeds":9840,"tbelemnites":9841,"nimbrication":9842,"oiseuille":9843,"thampered":9844,"orsetail":9845,"tnicely":9846,"trodeform":9847,"tFrederick":9848,"nDiscrete":9849,"lumping":9850,"tPluijm":9851,"toccup":9852,"nhappens":9853,"tzircon":9854,"tLatin":9855,"istinguish":9856,"tAlberta":9857,"nconsidered":9858,"nactivation":9859,"nneeded":9860,"ndeposited":9861,"nAndersen":9862,"taccompanied":9863,"talgorithms":9864,"aÃŃ":9865,"hnically":9866,"mgÃ¥rd":9867,"ttask":9868,"represented":9869,"initesimal":9870,"troutine":9871,"tranges":9872,"trÃ¶mgÃ¥rd":9873,"tdolom":9874,"tbarely":9875,"tmerely":9876,"trenewed":9877,"tunknowns":9878,"acLeod":9879,"oukroune":9880,"nsylvania":9881,"nCobbold":9882,"nAmsterdam":9883,"nBoulder":9884,"tinterlocking":9885,"tcoexist":9886,"tapparatus":9887,"nNorsk":9888,"tAlleghanian":9889,"tremarks":9890,"nCollettini":9891,"tfascinating":9892,"!\\":9893,"%,\\":9894,"%.\\":9895,"%)\\":9896,"(>\\":9897,"-)":9898,"-',":9899,"/(":9900,"/(\\":9901,"01":9902,"120":9903,"1200":9904,"1204":9905,"233":9906,"319":9907,"310":9908,"315":9909,"322":9910,"323":9911,"426":9912,"425":9913,"445":9914,"439":9915,"58":9916,"535":9917,"597":9918,"615":9919,"638":9920,"647":9921,"72":9922,"76":9923,"721":9924,"800":9925,"851":9926,"915":9927,"924":9928,"AR":9929,"Ac":9930,"Brittle":9931,"CPO":9932,"Caff":9933,"Dip":9934,"El":9935,"Ge":9936,"HN":9937,"Ima":9938,"JB":9939,"Joints":9940,"MI":9941,"Mic":9942,"Map":9943,"Non":9944,"Or":9945,"Par":9946,"Passive":9947,"Res":9948,"Rec":9949,"Right":9950,"Slip":9951,"SEM":9952,"Step":9953,"SSF":9954,"Seismic":9955,"What":9956,"[(\\":9957,"atu":9958,"ares":9959,"after":9960,"aturally":9961,"aterson":9962,"ba":9963,"bar":9964,"ball":9965,"bble":9966,"buckling":9967,"below":9968,"ca":9969,"cal":9970,"can":9971,"cence":9972,"circ":9973,"close":9974,"continuous":9975,"cured":9976,"cluding":9977,"dins":9978,"dial":9979,"dashed":9980,"ein":9981,"emp":9982,"eting":9983,"eep":9984,"effic":9985,"fla":9986,"fracture":9987,"fectly":9988,"feldspar":9989,"gy":9990,"gen":9991,"gro":9992,"gall":9993,"gree":9994,"gill":9995,"ginning":9996,"gration":9997,"glide":9998,"groove":9999,"ha":10000,"how":10001,"hill":10002,"homogeneous":10003,"hste":10004,"hood":10005,"iar":10006,"iro":10007,"ilip":10008,"iting":10009,"iph":10010,"ipp":10011,"ired":10012,"itne":10013,"itly":10014,"ift":10015,"jec":10016,"jtal":10017,"joint":10018,"ku":10019,"kins":10020,"kilome":10021,"krift":10022,"lus":10023,"ligh":10024,"light":10025,"losed":10026,"lination":10027,"limp":10028,"large":10029,"lson":10030,"lorite":10031,"med":10032,"mically":10033,"mill":10034,"mineral":10035,"mentation":10036,"marg":10037,"moric":10038,"missibility":10039,"mobile":10040,"nQ":10041,"nts":10042,"nver":10043,"nther":10044,"npp":10045,"ntension":10046,"nase":10047,"ntang":10048,"neng":10049,"night":10050,"nvol":10051,"ntraction":10052,"nenc":10053,"narrow":10054,"njuxtap":10055,"ntness":10056,"ov":10057,"ola":10058,"ool":10059,"ople":10060,"ojtal":10061,"pl":10062,"ped":10063,"page":10064,"path":10065,"passive":10066,"rys":10067,"rigid":10068,"rregularities":10069,"str":10070,"sor":10071,"stand":10072,"sid":10073,"sub":10074,"sch":10075,"small":10076,"solution":10077,"strong":10078,"slope":10079,"straight":10080,"stances":10081,"ttac":10082,"ttv":10083,"ttar":10084,"tvel":10085,"uide":10086,"uilding":10087,"vent":10088,"vection":10089,"vang":10090,"vance":10091,"wet":10092,"yield":10093,"zable":10094,"znir":10095,"|,\\":10096,"¦r":10097,"Ã²":10098,"Ã¦r":10099,"tity":10100,"titial":10101,"tair":10102,"taper":10103,"tails":10104,"takin":10105,"thin":10106,"that":10107,"three":10108,"thour":10109,"thinning":10110,"thits":10111,"tholes":10112,"thint":10113,"thouse":10114,"rene":10115,"reverse":10116,"reenschist":10117,"rett":10118,"tog":10119,"tood":10120,"tomic":10121,"tophi":10122,"tspla":10123,"tstone":10124,"tsink":10125,"tstir":10126,"tsolved":10127,"tsolutions":10128,"tthins":10129,"tthumb":10130,"onke":10131,"onni":10132,"onny":10133,"tear":10134,"tease":10135,"inth":10136,"inted":10137,"innmark":10138,"intersections":10139,"nda":10140,"ndome":10141,"nduplex":10142,"ndahl":10143,"alla":10144,"ality":10145,"alina":10146,"alae":10147,"tfl":10148,"tfore":10149,"tflin":10150,"tfinally":10151,"tfuture":10152,"tca":10153,"tcav":10154,"tcater":10155,"tcumbers":10156,"tract":10157,"trows":10158,"trubber":10159,"trhomb":10160,"trisk":10161,"era":10162,"erle":10163,"ergh":10164,"ervoir":10165,"tionally":10166,"orst":10167,"oratory":10168,"orinth":10169,"enter":10170,"enoc":10171,"entations":10172,"entially":10173,"eneath":10174,"tdate":10175,"tdates":10176,"tdeduc":10177,"tinward":10178,"tinser":10179,"tinvestig":10180,"estions":10181,"estward":10182,"around":10183,"arst":10184,"artph":10185,"arrie":10186,"tbod":10187,"tbrough":10188,"tbeneath":10189,"twal":10190,"twar":10191,"twise":10192,"twelds":10193,"tpec":10194,"tpap":10195,"tpage":10196,"tpigg":10197,"tpilot":10198,"tmim":10199,"tmix":10200,"tmullion":10201,"tmush":10202,"anline":10203,"leag":10204,"level":10205,"levant":10206,"icture":10207,"ictic":10208,"ician":10209,"trew":10210,"trein":10211,"tretains":10212,"trearr":10213,"heim":10214,"held":10215,"heets":10216,"ister":10217,"isite":10218,"isecting":10219,"istribution":10220,"lain":10221,"lature":10222,"tunfolded":10223,"tunaffected":10224,"ingen":10225,"edt":10226,"ulff":10227,"ulites":10228,"omenc":10229,"omorph":10230,"olt":10231,"olic":10232,"olans":10233,"olyc":10234,"ormous":10235,"sse":10236,"sskrift":10237,"acity":10238,"accur":10239,"torange":10240,"torgan":10241,"ouges":10242,"outhwest":10243,"oupling":10244,"tlost":10245,"tlisted":10246,"eck":10247,"echste":10248,"owl":10249,"owan":10250,"nsum":10251,"nstatic":10252,"nsitu":10253,"nsimp":10254,"nstiff":10255,"nschist":10256,"nslaty":10257,"nsouthern":10258,"nsource":10259,"veins":10260,"trayed":10261,"uce":10262,"uched":10263,"tbell":10264,"tbears":10265,"tbeau":10266,"tbeginning":10267,"ocline":10268,"ocities":10269,"oclase":10270,"astom":10271,"aultFold":10272,"tglimp":10273,"tgouges":10274,"tonell":10275,"tongoing":10276,"ura":10277,"urp":10278,"ury":10279,"talign":10280,"tices":10281,"ticles":10282,"imag":10283,"imps":10284,"tedif":10285,"liver":10286,"liff":10287,"liest":10288,"lihood":10289,"tants":10290,"tantial":10291,"tanastom":10292,"tTor":10293,"tTid":10294,"tTod":10295,"tTeyssier":10296,"tTraditionally":10297,"usts":10298,"usual":10299,"usznir":10300,"nFour":10301,"nFinally":10302,"tdies":10303,"tfringe":10304,"tconversion":10305,"tconforms":10306,"tconverted":10307,"elocity":10308,"textrap":10309,"twire":10310,"taside":10311,"geologists":10312,"geku":10313,"ida":10314,"idd":10315,"rad":10316,"ray":10317,"rain":10318,"rand":10319,"room":10320,"tdeformational":10321,"ocked":10322,"tmobility":10323,"tstressmeters":10324,"tforcing":10325,"measure":10326,"meida":10327,"tlaser":10328,"tlands":10329,"tlatitudes":10330,"peak":10331,"nTod":10332,"nTab":10333,"nTang":10334,"nTapp":10335,"nTalbot":10336,"twithstand":10337,"tIncreasing":10338,"tIceland":10339,"ncour":10340,"ncare":10341,"nclockwise":10342,"ncataclasis":10343,"ncylindricity":10344,"nconglomerates":10345,"nchemical":10346,"tStand":10347,"tSol":10348,"tSteff":10349,"tSons":10350,"tState":10351,"tSurface":10352,"tSomer":10353,"tStructure":10354,"tSlick":10355,"tSedimentary":10356,"tStriations":10357,"tSediments":10358,"tSSF":10359,"tSinai":10360,"tseism":10361,"tsemi":10362,"tselected":10363,"nSE":10364,"nSta":10365,"nSol":10366,"nState":10367,"nSinistral":10368,"nStrength":10369,"nSedimentary":10370,"nSGR":10371,"nScotland":10372,"nSecondary":10373,"nStipp":10374,"nSweden":10375,"nSilverpit":10376,"nShipton":10377,"nStrÃ¶mgÃ¥rd":10378,"nSimps":10379,"ttesting":10380,"tformulated":10381,"tformulas":10382,"tacceleration":10383,"irth":10384,"tAd":10385,"tAm":10386,"tAydin":10387,"tAdding":10388,"triver":10389,"llon":10390,"tcham":10391,"tchert":10392,"tchlorite":10393,"preading":10394,"tdisad":10395,"tdisturb":10396,"tdisjunctive":10397,"umed":10398,"tened":10399,"tenvision":10400,"tenormous":10401,"tfractal":10402,"photo":10403,"tmet":10404,"tmeta":10405,"nfar":10406,"nfav":10407,"nfam":10408,"nfinal":10409,"nfundamental":10410,"nflaw":10411,"nfloor":10412,"nfoliated":10413,"tparautochthonous":10414,"1934":10415,"1900":10416,"mains":10417,"made":10418,"maximum":10419,"trodes":10420,"trooted":10421,"trophysical":10422,"nthus":10423,"nthrow":10424,"nthrown":10425,"ilve":10426,"npo":10427,"npale":10428,"npub":10429,"npull":10430,"nplaster":10431,"nprofile":10432,"nplumose":10433,"npenetrative":10434,"npush":10435,"npurp":10436,"nCrystal":10437,"nChap":10438,"nCalc":10439,"nComb":10440,"nCreep":10441,"nCalifornia":10442,"nChange":10443,"nContinuous":10444,"nConsider":10445,"nCleg":10446,"nCordiller":10447,"key":10448,"ketching":10449,"ienna":10450,"nAre":10451,"nAnn":10452,"nAfter":10453,"nAnge":10454,"nAssociation":10455,"nAnisotropic":10456,"nAngular":10457,"neach":10458,"ightness":10459,"tpreven":10460,"tprerequ":10461,"tleucosomes":10462,"trelating":10463,"tprotom":10464,"facies":10465,"tFar":10466,"tForm":10467,"tFeldspar":10468,"tFracturing":10469,"tFourier":10470,"tFinnmark":10471,"recambrian":10472,"tInformation":10473,"tIntern":10474,"hance":10475,"avily":10476,"avie":10477,"twood":10478,"tThin":10479,"tThick":10480,"tThrow":10481,"nited":10482,"tarting":10483,"tCross":10484,"tCalc":10485,"tCoun":10486,"tCambridge":10487,"tChevron":10488,"tCataclasis":10489,"tConglomerates":10490,"tCSP":10491,"tCorinth":10492,"odin":10493,"2012":10494,"tWing":10495,"tWales":10496,"tWasatch":10497,"tWiley":10498,"tabnormally":10499,"adr":10500,"adran":10501,"tMarg":10502,"tMylonites":10503,"nPress":10504,"nPark":10505,"nPublication":10506,"nPencil":10507,"nPlotting":10508,"nPlumose":10509,"nPenetrative":10510,"nPseudotachylyte":10511,"nPoiseuille":10512,"nPaterson":10513,"abbro":10514,"nDynamics":10515,"nDahl":10516,"nDewey":10517,"nRigid":10518,"nRaw":10519,"nRykkelid":10520,"nRubey":10521,"ght":10522,"tHall":10523,"tHans":10524,"tHanging":10525,"tHyd":10526,"tHinge":10527,"tHossack":10528,"tHolst":10529,"tHudec":10530,"tHuismans":10531,"aleigh":10532,"ager":10533,"tconstants":10534,"tGre":10535,"tGranular":10536,"tGroup":10537,"tGIS":10538,"permanent":10539,"tcomply":10540,"tsurfacing":10541,"ttraction":10542,"ttrack":10543,"ttracks":10544,"ttrunc":10545,"ttrigger":10546,"ndex":10547,"ndeep":10548,"ndealing":10549,"ndetachments":10550,"ndeviatoric":10551,"ndelamination":10552,"ngrow":10553,"nglide":10554,"ngenerally":10555,"ngroove":10556,"ngneissic":10557,"lude":10558,"luntness":10559,"ntheoretical":10560,"tPoint":10561,"tPencil":10562,"tPrecambrian":10563,"nBecause":10564,"nBorehole":10565,"nBuckle":10566,"nBackstripping":10567,"nBeaumont":10568,"nBhattacharyya":10569,"arded":10570,"tpercen":10571,"tperforming":10572,"tperiph":10573,"redic":10574,"101":10575,"1037":10576,"taxially":10577,"detachment":10578,"detached":10579,"nbro":10580,"nband":10581,"nbelt":10582,"nbuckle":10583,"nMi":10584,"nMon":10585,"nMax":10586,"nMagnetic":10587,"nMullion":10588,"nMediterranean":10589,"opy":10590,"timpose":10591,"timplic":10592,"timplied":10593,"tneither":10594,"tneighbors":10595,"curs":10596,"tincons":10597,"tBas":10598,"tBillefjorden":10599,"tBuilding":10600,"tBergh":10601,"nJol":10602,"nJam":10603,"nJones":10604,"nJuxtaposition":10605,"tsomehow":10606,"tintergranular":10607,"tinterlimb":10608,"tinteractions":10609,"iplanar":10610,"tName":10611,"tNappes":10612,"tNabarro":10613,"reemer":10614,"reeman":10615,"nwing":10616,"nways":10617,"nwindow":10618,"nwrapped":10619,"nalthough":10620,"naway":10621,"nmo":10622,"nmud":10623,"nmedium":10624,"nmylonitic":10625,"nIma":10626,"nIden":10627,"nIncre":10628,"ulates":10629,"tRhe":10630,"tRoy":10631,"tRibeira":10632,"tflower":10633,"termination":10634,"noper":10635,"toverturned":10636,"118":10637,"1123":10638,"nGranular":10639,"nGeneral":10640,"nGneissic":10641,"nGabrielsen":10642,"nGibbs":10643,"nGoldstein":10644,"nGodin":10645,"austed":10646,"tminds":10647,"ninte":10648,"ninverse":10649,"nindependent":10650,"paring":10651,"paration":10652,"1231":10653,"tregularly":10654,"nEur":10655,"nEdin":10656,"nEquations":10657,"tstations":10658,"tified":10659,"tlowest":10660,"tgeophysical":10661,"nreli":10662,"nread":10663,"nrest":10664,"nrefer":10665,"nrepro":10666,"nreactive":10667,"nreason":10668,"tcoast":10669,"tcoales":10670,"tcools":10671,"tlife":10672,"tbecame":10673,"ducation":10674,"tthereafter":10675,"ttransect":10676,"ttranslated":10677,"ttranstensional":10678,"nHanging":10679,"nHalf":10680,"nHoll":10681,"nHandin":10682,"nHobbs":10683,"nHarding":10684,"nHsÃ¼":10685,"nHanmer":10686,"nHarris":10687,"nHolt":10688,"akon":10689,"tElliott":10690,"tErosion":10691,"tEducation":10692,"ibr":10693,"ibs":10694,"ibasin":10695,"nLocal":10696,"nListric":10697,"nLoading":10698,"tspan":10699,"chn":10700,"chen":10701,"nWat":10702,"nWet":10703,"nWhether":10704,"nWojtal":10705,"tsoils":10706,"telliptic":10707,"189":10708,"tDisc":10709,"tDep":10710,"tData":10711,"tDraw":10712,"tDÃ©collement":10713,"tDEM":10714,"enster":10715,"angement":10716,"1565":10717,"itized":10718,"veloping":10719,"nÎ·":10720,"nhole":10721,"nharmonic":10722,"nhalokinetic":10723,"nhinges":10724,"nhackles":10725,"172":10726,"174":10727,"1769":10728,"1782":10729,"racted":10730,"ractals":10731,"tshortly":10732,"tundulose":10733,"tupthrown":10734,"136":10735,"138":10736,"ncontact":10737,"ncondition":10738,"tgeometrical":10739,"tsubpop":10740,"tsubclass":10741,"tsubsequent":10742,"tcontrary":10743,"tcontracts":10744,"tnotation":10745,"graphic":10746,"tapps":10747,"tappare":10748,"thealing":10749,"nlimb":10750,"nlistric":10751,"nlimestone":10752,"nlogarithmic":10753,"tcolleag":10754,"riched":10755,"tzer":10756,"ische":10757,"iscoelastic":10758,"texponent":10759,"texploitation":10760,"143":10761,"149":10762,"lectron":10763,"ndikes":10764,"ndiagra":10765,"ordinary":10766,"nnappe":10767,"nnarrow":10768,"nnecking":10769,"timmobile":10770,"tindication":10771,"tindications":10772,"tdomed":10773,"dense":10774,"tdiscovery":10775,"tdisciplines":10776,"ondheim":10777,"ensely":10778,"tcloud":10779,"tmicroseismic":10780,"uegu":10781,"tdiagenetic":10782,"cribed":10783,"tparticulate":10784,"local":10785,"tOu":10786,"tOur":10787,"tOpen":10788,"ircled":10789,"tassim":10790,"vides":10791,"tLS":10792,"tLater":10793,"tstatements":10794,"lict":10795,"licity":10796,"nkilome":10797,"nknowledge":10798,"304":10799,"tfacts":10800,"tunivers":10801,"nexpression":10802,"nexceed":10803,"nexternal":10804,"nexhumation":10805,"nexpressed":10806,"nextremely":10807,"nNW":10808,"nNappe":10809,"nNÃ¸":10810,"nNarr":10811,"tprocessed":10812,"resolution":10813,"restrial":10814,"overed":10815,"tUnlike":10816,"tgiving":10817,"tcrystall":10818,"nInformation":10819,"nInversion":10820,"nIntroduction":10821,"noften":10822,"tvaried":10823,"tJan":10824,"tJonny":10825,"northorhombic":10826,"issors":10827,"iest":10828,"lanet":10829,"ylonitization":10830,"teffectively":10831,"tweakest":10832,"areas":10833,"portional":10834,"ranes":10835,"ranite":10836,"tseismicity":10837,"267":10838,"tequant":10839,"tended":10840,"nringshear":10841,"nvan":10842,"nvectors":10843,"tviscosities":10844,"cotte":10845,"teasiest":10846,"tNorthern":10847,"nshort":10848,"nshaped":10849,"toutput":10850,"ttape":10851,"ttail":10852,"tdramatically":10853,"nDetachment":10854,"nDetachments":10855,"nDetermination":10856,"331":10857,"tcored":10858,"tinstability":10859,"tplateau":10860,"tAlto":10861,"tAlmograve":10862,"tAlternatively":10863,"tAlmeida":10864,"nKra":10865,"nKimb":10866,"nKnight":10867,"nKusznir":10868,"nunit":10869,"ndisaggregation":10870,"tmeasurement":10871,"versely":10872,"treacts":10873,"tconnectivity":10874,"tmarginal":10875,"expla":10876,"tinflection":10877,"tlikelihood":10878,"tstrands":10879,"tmylonitized":10880,"nisostatic":10881,"nisochoric":10882,"tflakes":10883,"tcorrec":10884,"tcorrug":10885,"rystallizing":10886,"274":10887,"tprescribed":10888,"nbend":10889,"ntell":10890,"ntechni":10891,"yday":10892,"nBoxes":10893,"ataclasites":10894,"iao":10895,"tsigna":10896,"250":10897,"tablet":10898,"npronounced":10899,"rofessor":10900,"tdecays":10901,"tdecade":10902,"tdeclination":10903,"tmeanings":10904,"nparts":10905,"tspecially":10906,"363":10907,"translation":10908,"nViking":10909,"nVienna":10910,"nViscoelastic":10911,"telementary":10912,"tscra":10913,"tscrew":10914,"tscanning":10915,"tscarps":10916,"tscissors":10917,"tunachie":10918,"tunusual":10919,"nwhat":10920,"burial":10921,"burgh":10922,"tVal":10923,"tViscous":10924,"Ã©m":10925,"tsandbox":10926,"tneedles":10927,"tReactivation":10928,"nconstruc":10929,"nconsists":10930,"tcrossed":10931,"tcalculation":10932,"tcalculating":10933,"tcalcareous":10934,"tcomplexity":10935,"tcomplexities":10936,"naspect":10937,"rounded":10938,"tAnti":10939,"450":10940,"451":10941,"458":10942,"nmain":10943,"tbelong":10944,"tproposed":10945,"nUp":10946,"nUpheaval":10947,"nactual":10948,"udmund":10949,"udgill":10950,"tvalid":10951,"nZagros":10952,"nZulauf":10953,"under":10954,"tseconds":10955,"tsecondarily":10956,"trifted":10957,"nmeter":10958,"nmetamorphism":10959,"nmetamorphosed":10960,"alancing":10961,"ngrad":10962,"ngrained":10963,"ngravitational":10964,"378":10965,"608":10966,"nxy":10967,"nsets":10968,"nseal":10969,"nsearch":10970,"nsegments":10971,"ncompens":10972,"ncomposition":10973,"ncomputer":10974,"ncompatibility":10975,"tsequentially":10976,"tsimplified":10977,"tsimplicity":10978,"ngeomechanically":10979,"tthrusted":10980,"nresistant":10981,"coaxiality":10982,"nants":10983,"othermal":10984,"tworking":10985,"ntransformation":10986,"ntransition":10987,"ntransposition":10988,"tKnowledge":10989,"teccentric":10990,"teconom":10991,"nerosion":10992,"nedge":10993,"ncompletely":10994,"tDead":10995,"tstarting":10996,"tfewer":10997,"tmanual":10998,"390":10999,"395":11000,"tnorthwest":11001,"nforces":11002,"nfortunately":11003,"tYou":11004,"tlinking":11005,"tlattices":11006,"vatures":11007,"vative":11008,"testimation":11009,"503":11010,"trealm":11011,"treality":11012,"nAntic":11013,"nRelative":11014,"nRemoval":11015,"tEarthqu":11016,"tindirectly":11017,"oftware":11018,"tincluded":11019,"igenvalues":11020,"interpre":11021,"intertectonic":11022,"tsegmentation":11023,"nSevier":11024,"tcertainly":11025,"treserved":11026,"nproduc":11027,"nprolate":11028,"nprotolith":11029,"eldspath":11030,"encils":11031,"tgetting":11032,"tserves":11033,"tserpen":11034,"nConven":11035,"nConcentric":11036,"tExtensional":11037,"ultiple":11038,"tasymmetrically":11039,"443":11040,"446":11041,"448":11042,"tprediction":11043,"tprofess":11044,"thydrofractures":11045,"tclean":11046,"trheim":11047,"trheologically":11048,"nradial":11049,"trestrictions":11050,"tantilistric":11051,"arthquake":11052,"nchosen":11053,"nchocolate":11054,"nForces":11055,"tSchematic":11056,"tmicrofolds":11057,"tsupply":11058,"tstrikes":11059,"nincorporated":11060,"assuming":11061,"ttrending":11062,"troles":11063,"troller":11064,"trollover":11065,"nsubsurface":11066,"tactivates":11067,"noverall":11068,"noverlying":11069,"noverprinting":11070,"nGeiser":11071,"nGeodynamics":11072,"tangularity":11073,"copy":11074,"nyoung":11075,"tZe":11076,"tZones":11077,"ttrap":11078,"ttravel":11079,"nquite":11080,"nquarter":11081,"nquestions":11082,"tracataclasite":11083,"tregarding":11084,"ttextbooks":11085,"arby":11086,"tpotentially":11087,"ninteraction":11088,"ninterval":11089,"ninterference":11090,"nintergranular":11091,"tcollecting":11092,"tidentifiable":11093,"tallowing":11094,"ndomainal":11095,"responds":11096,"nnear":11097,"nnever":11098,"nnegligible":11099,"ttrilob":11100,"tmigrate":11101,"1961":11102,"1963":11103,"1964":11104,"1966":11105,"1969":11106,"nDistribution":11107,"nDisaggregation":11108,"noblate":11109,"nobjects":11110,"nsteep":11111,"tContraction":11112,"tConcepts":11113,"tContouring":11114,"tConversely":11115,"nDiapirism":11116,"nDiapirs":11117,"tapproaching":11118,"tirregularity":11119,"oblate":11120,"tdecreased":11121,"shape":11122,"shallow":11123,"tterrestrial":11124,"tterranes":11125,"tvarying":11126,"tMaterial":11127,"tgneissic":11128,"ragments":11129,"tclosing":11130,"nparticulate":11131,"Quarrie":11132,"connected":11133,"tturning":11134,"nsynkinematic":11135,"nsyntaxial":11136,"nScandinav":11137,"tyounging":11138,"tyoungest":11139,"000":11140,"tgranulites":11141,"tglacial":11142,"tinstantaneously":11143,"undreds":11144,"nreconstruc":11145,"nrecumbent":11146,"nreciprocal":11147,"treddish":11148,"tredistribution":11149,"lithostatic":11150,"nthickening":11151,"tintersections":11152,"topenings":11153,"tapproximated":11154,"rousse":11155,"tslabs":11156,"tstiffer":11157,"tstiffest":11158,"truding":11159,"tmajority":11160,"nPhyllitic":11161,"nPhyllosilicate":11162,"nregardless":11163,"nregions":11164,"nregarded":11165,"tdescriptions":11166,"tstylolite":11167,"thorpe":11168,"nsomething":11169,"nsomewhat":11170,"tcompressing":11171,"narc":11172,"narrest":11173,"oyancy":11174,"tthermod":11175,"texhausted":11176,"nSchmidt":11177,"tabsence":11178,"tDirect":11179,"ttensional":11180,"tindicator":11181,"Related":11182,"tcountry":11183,"nporphyroblasts":11184,"nportrayed":11185,"tMechanically":11186,"nrepresents":11187,"tcurviplanar":11188,"nparallelism":11189,"tindependently":11190,"tencou":11191,"nAccording":11192,"tHeard":11193,"nelliptical":11194,"nellipticity":11195,"nadvantage":11196,"tslowest":11197,"nmicroscale":11198,"nmicrostructures":11199,"nphases":11200,"nphoto":11201,"overpressure":11202,"toperating":11203,"tfeel":11204,"tworldwide":11205,"treliability":11206,"nMcCaff":11207,"tanalytical":11208,"tanalyzing":11209,"mphasize":11210,"ognized":11211,"tcompetition":11212,"nSometimes":11213,"tchoose":11214,"tplunge":11215,"nAlways":11216,"nAlmost":11217,"nAlmograve":11218,"tGrains":11219,"tGraham":11220,"nMaterial":11221,"nMathematical":11222,"texplores":11223,"tdenotes":11224,"nShale":11225,"tArch":11226,"tArcs":11227,"tconstituent":11228,"tNewtonian":11229,"ttransformations":11230,"awthorpe":11231,"tconventions":11232,"neffects":11233,"nMarrett":11234,"nGraham":11235,"ncompactional":11236,"476":11237,"684":11238,"nlithification":11239,"Ã¸y":11240,"temphasize":11241,"temphasizes":11242,"temphasizing":11243,"tfamily":11244,"tcubic":11245,"nfields":11246,"nChilds":11247,"nChoukroune":11248,"nCompressive":11249,"nCompetency":11250,"nPlasticity":11251,"1549":11252,"bergen":11253,"nrotational":11254,"telectrodes":11255,"tfilling":11256,"tderi":11257,"nswers":11258,"nsystematic":11259,"textrusive":11260,"textruded":11261,"nResidual":11262,"nindicated":11263,"trecognition":11264,"trecognizable":11265,"lobally":11266,"tsuccession":11267,"tsuccessive":11268,"tprecipitated":11269,"treconstructed":11270,"tpasses":11271,"tchallenged":11272,"nterminology":11273,"rocks":11274,"tcapture":11275,"tcapacity":11276,"nscrew":11277,"ndefine":11278,"ndefinition":11279,"tPrincipal":11280,"tPrimary":11281,"tquicker":11282,"nhydraulic":11283,"nhydrofractures":11284,"ncharacteristics":11285,"tScandinavia":11286,"theterogeneity":11287,"tvisualize":11288,"tQuaternary":11289,"twriting":11290,"tpublications":11291,"tultimate":11292,"tanomaly":11293,"ncorresponding":11294,"ncorrugations":11295,"ncorresponds":11296,"nCohesive":11297,"nParallel":11298,"tsplitting":11299,"nWalker":11300,"nelongate":11301,"tslickensides":11302,"nenergy":11303,"nimpor":11304,"nimages":11305,"trigs":11306,"tTransform":11307,"tcontributes":11308,"tChina":11309,"nQuaternary":11310,"tsummari":11311,"tsummaries":11312,"tsqueeze":11313,"tsqueezing":11314,"ndecomp":11315,"tpulse":11316,"tpulling":11317,"tmountainous":11318,"treadj":11319,"activated":11320,"tentering":11321,"tMica":11322,"tProject":11323,"noffshore":11324,"noppositely":11325,"nHeard":11326,"nHeterogeneous":11327,"nHeilbronner":11328,"tOrogen":11329,"tRegardless":11330,"ndominant":11331,")/(":11332,"force":11333,"nirregular":11334,"nirrevers":11335,"tindeed":11336,"tsmartph":11337,"tbisected":11338,"lacement":11339,"imestones":11340,"tIndividual":11341,"tParadox":11342,"tperspective":11343,"nModels":11344,"ttransmit":11345,"ttransmission":11346,"ttransmitted":11347,"nLithology":11348,"nlocalization":11349,"nOverlap":11350,"nOverprinting":11351,"nOvercoring":11352,"tnumbered":11353,"nprogressively":11354,"nconsideration":11355,"nrespect":11356,"nrespectively":11357,"tpebble":11358,"ncausing":11359,"ncaused":11360,"ttectonites":11361,"tCreus":11362,"nMechanically":11363,"nMechanisms":11364,"nmeaning":11365,"nweakness":11366,"nweakening":11367,"naccumulation":11368,"959":11369,"beds":11370,"moved":11371,"nnature":11372,"Ã¶r":11373,"templaced":11374,"treversal":11375,"nsugges":11376,"texerted":11377,"rotational":11378,"tAccording":11379,"nPerfect":11380,"tversions":11381,"tcrystallized":11382,"nvariable":11383,"tstraightforward":11384,"tsynforms":11385,"tcoincid":11386,"ntwin":11387,"npresence":11388,"vasive":11389,"temerge":11390,"ndimensionless":11391,"tcoupling":11392,"tbreccias":11393,"nsheet":11394,"nsheared":11395,"nsheath":11396,"nspace":11397,"nspacing":11398,"nspaced":11399,"nslickensides":11400,"tguide":11401,"tguides":11402,"nFluids":11403,"tcommunity":11404,"tImplies":11405,"ncentrifuge":11406,"nfibers":11407,"nfibrous":11408,"nAxen":11409,"tconstriction":11410,"ngoing":11411,"nBalanced":11412,"nmapping":11413,"tminibasins":11414,"teliminate":11415,"tsolely":11416,"ncontrasts":11417,"tsuperposition":11418,"tinfinitely":11419,"tpossibilities":11420,"ttopographically":11421,"tbackscatter":11422,"nMicroscale":11423,"nMicrostructures":11424,"tintensely":11425,"tquantity":11426,"ndescribed":11427,"Conjugate":11428,"ntopics":11429,"similarity":11430,"tsorted":11431,"tsidewall":11432,"tevolving":11433,"ndoes":11434,"tfossil":11435,"troughness":11436,"texciting":11437,"texclus":11438,"nSoft":11439,"nCritical":11440,"tletters":11441,"targon":11442,"targue":11443,"tMember":11444,"nPorphyroclast":11445,"tPerhaps":11446,"tPerfect":11447,"tobscured":11448,"tNova":11449,"tslipping":11450,"tslipped":11451,"tslippage":11452,"nmarker":11453,"nmarkers":11454,"tRecall":11455,"tweaknesses":11456,"nmaterials":11457,"nunderlying":11458,"tmacroscopically":11459,"nidentical":11460,"nidentically":11461,"Deformation":11462,"Detachment":11463,"ntrue":11464,"ntreated":11465,"split":11466,"yrvang":11467,"ndownbuilding":11468,"tcells":11469,"tintrusive":11470,"tpacked":11471,"tpackage":11472,"tpillow":11473,"tmasses":11474,"tshrink":11475,"tshrinking":11476,"ncurved":11477,"tStatoil":11478,"tStatfjord":11479,"nfacing":11480,"nfactors":11481,"tRift":11482,"nrelease":11483,"nLayers":11484,"nWellman":11485,"nlocations":11486,"tUnderstanding":11487,"ngeometrical":11488,"teclogitization":11489,"ncompressional":11490,"tadjustments":11491,"nAndersonian":11492,"treproduced":11493,"treproduce":11494,"iggs":11495,"tTrishear":11496,"magnitude":11497,"nglaciotectonics":11498,"nbackground":11499,"timprove":11500,"timproved":11501,"nmargins":11502,"ttilting":11503,"tquarters":11504,"tObviously":11505,"nexplain":11506,"tlongitudes":11507,"tlongitudinal":11508,"tReviews":11509,"ncomparison":11510,"nRegardless":11511,"nProcesses":11512,"obarometric":11513,"tquantify":11514,"Diapirism":11515,"Science":11516,"migrated":11517,"ntaken":11518,"nappear":11519,"tippled":11520,"tstandard":11521,"ndriving":11522,"tdownthrown":11523,"trepose":11524,"talteration":11525,"nTurcotte":11526,"nSlickenlines":11527,"nfeel":11528,"nCurrent":11529,"tlearn":11530,"tlearned":11531,"tlecturers":11532,"tMorales":11533,"nReduction":11534,"direction":11535,"directed":11536,"nmultip":11537,"nIdealized":11538,"toverprinted":11539,"tphysically":11540,"tdestruction":11541,"tdestructive":11542,"nNorwegian":11543,"nVarious":11544,"nseems":11545,"nAntithetic":11546,"tagreement":11547,"nsynformal":11548,"tintroducing":11549,"tfeeder":11550,"Ã¸rnes":11551,"nantiformal":11552,"tEurasian":11553,"tEurasia":11554,"texercises":11555,"tEllipse":11556,"tretrieve":11557,"Displacement":11558,"Thrust":11559,"Verlag":11560,"commodation":11561,"filling":11562,"fÃ¼geku":11563,"nphyllosilicates":11564,"thrusts":11565,"treworked":11566,"trebounds":11567,"ischer":11568,"tunevenly":11569,"nsensu":11570,"nstylolitic":11571,"tTriassic":11572,"tTensors":11573,"nFurthermore":11574,"twebsite":11575,"tmeteor":11576,"tparabolic":11577,"tpartitioned":11578,"ilosophical":11579,"npolyphasal":11580,"nCretaceous":11581,"trelaxation":11582,"tCordillera":11583,"nPennsylvania":11584,"nbulk":11585,"nindividual":11586,"ninitial":11587,"nintrusions":11588,"tElasticity":11589,"nLeft":11590,"tsubgroup":11591,"taccentuated":11592,"norogens":11593,"nviscoplastic":11594,"tevaporite":11595,"nlaws":11596,"nconstrictional":11597,"nsequences":11598,"nReviews":11599,"tpolymictic":11600,"nincompressible":11601,"ninterpreted":11602,"ndecrease":11603,"ninfluenced":11604,"mutative":11605,"pillar":11606,"tembraces":11607,"tfluvial":11608,"tcratonic":11609,"tdyne":11610,"tborderline":11611,"tmolten":11612,"ttorn":11613,"nsurround":11614,"nsimultaneous":11615,"ochronology":11616,"tgaps":11617,"tnineteenth":11618,"nFletcher":11619,"tconduits":11620,"raÃ§uaÃŃ":11621,"twebpage":11622,"tmotivating":11623,"ncombination":11624,"tSystem":11625,"quisition":11626,"nSmearing":11627,"tacoustic":11628,"tdistinct":11629,"tdisappears":11630,"nfrequency":11631,"nfollowing":11632,"nCosgro":11633,"tpressur":11634,"tprecedes":11635,"tescape":11636,"adiometric":11637,"nBrun":11638,"tjuxtaposed":11639,"nhalite":11640,"tunderstood":11641,"nconcer":11642,"tLaboratory":11643,"tcircumstances":11644,"nvisible":11645,"tgreenish":11646,"ntectonometamorphic":11647,"athymetric":11648,"narranged":11649,"tPhotographic":11650,"troutinely":11651,"HNF":11652,"aturated":11653,"dinsen":11654,"efficients":11655,"ilipp":11656,"itney":11657,"kilometer":11658,"morican":11659,"nvertically":11660,"ntherm":11661,"naseismic":11662,"njuxtaposition":11663,"ovician":11664,"rysts":11665,"strom":11666,"sorted":11667,"ttaconic":11668,"ttvedt":11669,"ttarge":11670,"tvelocities":11671,"tapertures":11672,"tstirring":11673,"onkee":11674,"onnier":11675,"tearliest":11676,"alaeostress":11677,"tflinty":11678,"tcaterpillar":11679,"tcumbersome":11680,"enocrysts":11681,"tdeduced":11682,"tbodies":11683,"tbrought":11684,"tpecul":11685,"tpapers":11686,"tpiggy":11687,"tmushroom":11688,"omenclature":11689,"olansky":11690,"olyclinal":11691,"echstein":11692,"aultFoldForward":11693,"tglimpse":11694,"tonellini":11695,"imaginary":11696,"tedifice":11697,"tTidsskrift":11698,"tToday":11699,"measured":11700,"tlandslides":11701,"nTodd":11702,"nTapponnier":11703,"tSteffen":11704,"tSomerset":11705,"nSimpson":11706,"tenvisioned":11707,"npublished":11708,"nClegg":11709,"nAnnual":11710,"nAngelier":11711,"tprerequisite":11712,"twooden":11713,"adrants":11714,"tpercentage":11715,"tperipheral":11716,"timplicitly":11717,"nEdinburgh":11718,"tapparently":11719,"tcolleagues":11720,"ndiagrams":11721,"ueguen":11722,"nkilometers":11723,"nNÃ¸ttvedt":11724,"nKimball":11725,"ntechnique":11726,"tunachievable":11727,"udmundsson":11728,"teccentricity":11729,"eldspathic":11730,"nMcCaffrey":11731,"nirreversible":11732,"texclusively":11733,"fÃ¼gekunde":11734,"nCosgrove":11735,"%),\\":11736,"(>":11737,"((\\":11738,"(âĪĴ":11739,")',":11740,"*)\\":11741,"//":11742,"010":11743,"018":11744,"119":11745,"1196":11746,"1201":11747,"428":11748,"434":11749,"519":11750,"517":11751,"66":11752,"619":11753,"618":11754,"621":11755,"655":11756,"6341":11757,"711":11758,"700":11759,"755":11760,"753":11761,"769":11762,"84":11763,"831":11764,"890":11765,"843":11766,"848":11767,"925":11768,"937":11769,"939":11770,"://":11771,">,\\":11772,">.\\":11773,"?)\\":11774,"AL":11775,"AP":11776,"Ar":11777,"As":11778,"App":11779,"Appendix":11780,"AMS":11781,"Angola":11782,"Buch":11783,"Buckling":11784,"Co":11785,"Com":11786,"Col":11787,"Crystal":11788,"Cover":11789,"Constant":11790,"Crenulation":11791,"CSP":11792,"Dom":11793,"Ductile":11794,"DEM":11795,"EC":11796,"EO":11797,"EBSD":11798,"Flow":11799,"Flexural":11800,"Fit":11801,"Fossen":11802,"Fron":11803,"GC":11804,"GG":11805,"GL":11806,"GY":11807,"Graw":11808,"Hill":11809,"II":11810,"Illustration":11811,"Juxtaposition":11812,"Jurassic":11813,"LO":11814,"Low":11815,"Lab":11816,"Lines":11817,"Mo":11818,"Mechan":11819,"Mineral":11820,"Model":11821,"NE":11822,"NO":11823,"Nappe":11824,"North":11825,"Numerical":11826,"NHNF":11827,"Ob":11828,"Ph":11829,"PÃ":11830,"Por":11831,"Plastic":11832,"Pencil":11833,"PEC":11834,"RM":11835,"RU":11836,"Rb":11837,"Rock":11838,"Rigid":11839,"RAL":11840,"SB":11841,"SE":11842,"SG":11843,"ST":11844,"SW":11845,"Sh":11846,"So":11847,"Sr":11848,"Ste":11849,"Some":11850,"Sub":11851,"Strike":11852,"Structural":11853,"Sections":11854,"Simple":11855,"Stretching":11856,"Several":11857,"SGR":11858,"Slaty":11859,"Southern":11860,"Te":11861,"Tr":11862,"Tec":11863,"Typ":11864,"TEM":11865,"US":11866,"Utah":11867,"Uniaxial":11868,"URAL":11869,"Vein":11870,"With":11871,"Why":11872,"[(":11873,"[\\":11874,"].\\":11875,"af":11876,"aic":11877,"ais":11878,"aure":11879,"ama":11880,"aib":11881,"aments":11882,"ained":11883,"aque":11884,"aird":11885,"aerial":11886,"atite":11887,"amond":11888,"bly":11889,"band":11890,"bular":11891,"bands":11892,"bers":11893,"bach":11894,"both":11895,"book":11896,"bove":11897,"block":11898,"bia":11899,"basin":11900,"bbles":11901,"cor":11902,"cock":11903,"cap":11904,"cil":11905,"cross":11906,"cam":11907,"continu":11908,"creep":11909,"ccol":11910,"clay":11911,"clasts":11912,"cored":11913,"crack":11914,"clog":11915,"cataclastic":11916,"crenulation":11917,"cores":11918,"coded":11919,"cylindricity":11920,"dal":11921,"dge":11922,"dock":11923,"during":11924,"data":11925,"dry":11926,"dark":11927,"drag":11928,"damage":11929,"dah":11930,"dustry":11931,"dovician":11932,"ee":11933,"ek":11934,"ez":11935,"ear":11936,"ege":11937,"equ":11938,"elastic":11939,"eves":11940,"equi":11941,"endev":11942,"element":11943,"fj":11944,"fol":11945,"fly":11946,"found":11947,"fection":11948,"fers":11949,"flexural":11950,"fossen":11951,"fron":11952,"ferences":11953,"flection":11954,"faulting":11955,"faulted":11956,"gand":11957,"gard":11958,"gam":11959,"gone":11960,"glac":11961,"gson":11962,"great":11963,"hos":11964,"hard":11965,"hak":11966,"hind":11967,"hof":11968,"hoe":11969,"hinge":11970,"holes":11971,"harmonic":11972,"itas":11973,"iri":11974,"iven":11975,"iew":11976,"itable":11977,"ipher":11978,"iously":11979,"jb":11980,"jer":11981,"jave":11982,"jector":11983,"jack":11984,"jules":11985,"jella":11986,"jÃ¸r":11987,"kas":11988,"kill":11989,"kof":11990,"ktos":11991,"kmann":11992,"kjer":11993,"ln":11994,"lig":11995,"los":11996,"lined":11997,"listic":11998,"lightly":11999,"limestone":12000,"miss":12001,"mory":12002,"mylonites":12003,"mylonitic":12004,"manding":12005,"nic":12006,"nec":12007,"ntal":12008,"ntex":12009,"nion":12010,"nock":12011,"nine":12012,"nhere":12013,"nten":12014,"ntur":12015,"namp":12016,"nred":12017,"nleav":12018,"nold":12019,"ntou":12020,"nview":12021,"ntrac":12022,"nulated":12023,"nvalues":12024,"nleft":12025,"nlast":12026,"ntradi":12027,"naggreg":12028,"nectivity":12029,"nava":12030,"namplitude":12031,"nachie":12032,"nordinary":12033,"oyer":12034,"oot":12035,"oyd":12036,"olated":12037,"opposite":12038,"po":12039,"pt":12040,"pic":12041,"pos":12042,"ppe":12043,"plow":12044,"pite":12045,"pects":12046,"pfer":12047,"pie":12048,"pansion":12049,"plunge":12050,"rre":12051,"rise":12052,"rolith":12053,"rmekite":12054,"rury":12055,"sy":12056,"sen":12057,"sted":12058,"sand":12059,"stri":12060,"shan":12061,"sample":12062,"same":12063,"sense":12064,"symmetric":12065,"sliding":12066,"simp":12067,"stretching":12068,"symmetry":12069,"structure":12070,"sinistral":12071,"strength":12072,"stratigraphic":12073,"striations":12074,"solute":12075,"strata":12076,"shelf":12077,"saturated":12078,"tQ":12079,"ttp":12080,"tting":12081,"ttall":12082,"ttice":12083,"ui":12084,"uti":12085,"uing":12086,"uty":12087,"ung":12088,"ude":12089,"uval":12090,"undeformed":12091,"ufficient":12092,"utron":12093,"ugal":12094,"uuse":12095,"vence":12096,"vide":12097,"ville":12098,"world":12099,"window":12100,"wanz":12101,"westward":12102,"xy":12103,"yrene":12104,"zor":12105,"ztec":12106,"zner":12107,"}\\":12108,"¡du":12109,"¢\\":12110,"£o":12111,"¦\\":12112,"©\\":12113,"Â©\\":12114,"Ã£o":12115,"âĦ":12116,"tiation":12117,"titer":12118,"tites":12119,"tav":12120,"taer":12121,"tari":12122,"tates":12123,"tatop":12124,"tailed":12125,"ths":12126,"thme":12127,"thall":12128,"thyste":12129,"thind":12130,"thone":12131,"thit":12132,"tharmonic":12133,"thaz":12134,"thalokinesis":12135,"reed":12136,"relation":12137,"relevant":12138,"remphasize":12139,"together":12140,"tolog":12141,"toolitic":12142,"toolith":12143,"tsle":12144,"tsent":12145,"tstim":12146,"tsites":12147,"tscope":12148,"tsatelli":12149,"tslid":12150,"tsplay":12151,"tstock":12152,"tslumping":12153,"tstippled":12154,"ono":12155,"oned":12156,"only":12157,"onally":12158,"onna":12159,"onential":12160,"teases":12161,"tencomp":12162,"inf":12163,"inent":12164,"iness":12165,"inia":12166,"inversion":12167,"initions":12168,"infÃ¼":12169,"inpoint":12170,"ttheories":12171,"nden":12172,"ndig":12173,"ndue":12174,"ndynamically":12175,"ndistinguish":12176,"alan":12177,"aland":12178,"alars":12179,"aligned":12180,"tfan":12181,"tfed":12182,"tfur":12183,"tfea":12184,"tfarth":12185,"tflo":12186,"tfund":12187,"tfix":12188,"tfellow":12189,"tfash":12190,"tfjella":12191,"tfreed":12192,"tcere":12193,"tcess":12194,"tclu":12195,"tcleav":12196,"tcam":12197,"tclue":12198,"tcodes":12199,"tcusp":12200,"tcliff":12201,"tran":12202,"trid":12203,"tround":12204,"trusive":12205,"trudes":12206,"erc":12207,"erge":12208,"erves":12209,"ermal":12210,"erived":12211,"erha":12212,"orn":12213,"orated":12214,"orough":12215,"orange":12216,"orthern":12217,"orogenic":12218,"orhombic":12219,"enari":12220,"enant":12221,"enith":12222,"entative":12223,"enmark":12224,"ennines":12225,"enhof":12226,"enkmann":12227,"tdoc":12228,"tdock":12229,"tdated":12230,"tdynamics":12231,"tinhere":12232,"tinno":12233,"tintrig":12234,"tinvariants":12235,"tintruding":12236,"estor":12237,"ester":12238,"ested":12239,"esos":12240,"esite":12241,"estaway":12242,"esozoic":12243,"esizing":12244,"espie":12245,"arts":12246,"artre":12247,"artle":12248,"arles":12249,"arble":12250,"arner":12251,"arante":12252,"arrel":12253,"tble":12254,"tbig":12255,"tbus":12256,"tbad":12257,"tbif":12258,"tbaff":12259,"tbio":12260,"tbigger":12261,"tbirth":12262,"twra":12263,"twinned":12264,"twright":12265,"twrench":12266,"tpin":12267,"tpave":12268,"tpaus":12269,"tpinning":12270,"tpiles":12271,"tpiezome":12272,"tpiezometer":12273,"tpencils":12274,"tpalaeostress":12275,"tmental":12276,"tmorph":12277,"tmountains":12278,"ano":12279,"anta":12280,"aning":12281,"anas":12282,"anite":12283,"aneous":12284,"annel":12285,"anisotropic":12286,"anella":12287,"anosomes":12288,"lear":12289,"lements":12290,"leading":12291,"leep":12292,"lementary":12293,"leason":12294,"leppe":12295,"icted":12296,"icate":12297,"iched":12298,"icists":12299,"icist":12300,"trend":12301,"tretar":12302,"trecur":12303,"treappe":12304,"treuse":12305,"tretrograde":12306,"trelict":12307,"heologic":12308,"hemend":12309,"heck":12310,"isa":12311,"ision":12312,"iske":12313,"isotropy":12314,"isodes":12315,"lave":12316,"lays":12317,"lazner":12318,"tunn":12319,"tunfolding":12320,"tundeform":12321,"ingdom":12322,"ingham":12323,"edar":12324,"edian":12325,"edance":12326,"uler":12327,"ully":12328,"ulsion":12329,"ulging":12330,"ulio":12331,"oling":12332,"olub":12333,"olian":12334,"ollement":12335,"tistical":12336,"tisochoric":12337,"ttons":12338,"ttouched":12339,"ormed":12340,"ace":12341,"acros":12342,"actors":12343,"aconic":12344,"accommod":12345,"acific":12346,"torg":12347,"torthorhombic":12348,"outis":12349,"ounte":12350,"outcrop":12351,"oubly":12352,"tligh":12353,"igin":12354,"ignm":12355,"igration":12356,"tdeli":12357,"tdepar":12358,"tdelamination":12359,"nslow":12360,"nske":12361,"nsound":12362,"nstar":12363,"nsample":12364,"nsize":12365,"nsamples":12366,"nsole":12367,"nsecond":12368,"nsphere":12369,"nsymmetry":12370,"nswell":12371,"nsley":12372,"nsouth":12373,"nstrongly":12374,"nspread":12375,"nsplay":12376,"nstratigraphy":12377,"nstudi":12378,"nstrata":12379,"nslab":12380,"nseries":12381,"nsouthwest":12382,"nspreading":12383,"nslightly":12384,"atn":12385,"vex":12386,"vein":12387,"veal":12388,"trake":12389,"traplate":12390,"tramylonite":12391,"ucial":12392,"tbeta":12393,"tbeach":12394,"tbearing":12395,"tbelie":12396,"formal":12397,"occh":12398,"oceanic":12399,"oclinic":12400,"asti":12401,"asally":12402,"asian":12403,"tgot":12404,"tgave":12405,"tglo":12406,"tgun":12407,"tgroups":12408,"tglobally":12409,"urc":12410,"urton":12411,"urham":12412,"talbe":12413,"talignm":12414,"ticularly":12415,"ticulate":12416,"imed":12417,"imarily":12418,"imica":12419,"teduc":12420,"teditions":12421,"tnodes":12422,"tnomenclature":12423,"lits":12424,"lite":12425,"liono":12426,"tanhyd":12427,"tTim":12428,"tTib":12429,"tTry":12430,"tTwiss":12431,"tTemperature":12432,"tTiber":12433,"tTightness":12434,"tTSG":12435,"tTaconic":12436,"using":12437,"ustrated":12438,"usoidal":12439,"ustments":12440,"ustrheim":12441,"nFaulting":12442,"nFinding":12443,"nFiber":12444,"nFÃ¦r":12445,"nFractals":12446,"nFischer":12447,"nFormed":12448,"oskins":12449,"osaic":12450,"tdila":12451,"tdiver":12452,"tdilational":12453,"tdiamond":12454,"cel":12455,"cell":12456,"cement":12457,"ceful":12458,"ceanic":12459,"tfringes":12460,"tconver":12461,"tconcep":12462,"tconducted":12463,"tcontempor":12464,"tconsequences":12465,"tconvection":12466,"tconvex":12467,"elts":12468,"elgi":12469,"eltzer":12470,"textures":12471,"texert":12472,"texfoliation":12473,"texistence":12474,"textracting":12475,"texemp":12476,"texcell":12477,"tasph":12478,"taset":12479,"tasets":12480,"taseismic":12481,"tasleep":12482,"tstream":12483,"tmature":12484,"tmatch":12485,"tmassive":12486,"tmafic":12487,"geometry":12488,"ogn":12489,"ogan":12490,"ogue":12491,"ogliono":12492,"idden":12493,"idote":12494,"idimensional":12495,"idental":12496,"rays":12497,"rates":12498,"rox":12499,"roy":12500,"roof":12501,"roaching":12502,"rophones":12503,"roresistivity":12504,"rotating":12505,"tshield":12506,"tshared":12507,"tshru":12508,"mpir":12509,"mplacement":12510,"tructive":12511,"tructors":12512,"âĢ¦\\":12513,"sea":12514,"seth":12515,"seberg":12516,"semi":12517,"semin":12518,"seFit":12519,"tcancel":12520,"meta":12521,"meaning":12522,"tlab":12523,"tlamp":12524,"tlake":12525,"peat":12526,"petroleum":12527,"petence":12528,"nTra":12529,"nTri":12530,"nTub":12531,"nTibetan":12532,"tcomments":12533,"tcomings":12534,"inear":12535,"inema":12536,"tIa":12537,"tIb":12538,"tIns":12539,"tIma":12540,"tIdeal":12541,"ncy":12542,"ncoin":12543,"nclastic":12544,"ncause":12545,"ncalc":12546,"nclasts":12547,"nchthon":12548,"nclines":12549,"ncrus":12550,"ncleavages":12551,"ncataclasite":12552,"ncalculated":12553,"ncounter":12554,"nclosely":12555,"nclear":12556,"tSI":12557,"tSection":12558,"tSedimen":12559,"tSet":12560,"tStatic":12561,"tSolid":12562,"tStratigraphic":12563,"tSEM":12564,"tStylol":12565,"tStord":12566,"tSystematic":12567,"tSibson":12568,"tSweden":12569,"tSeries":12570,"tStudies":12571,"tSalina":12572,"tSlave":12573,"tseven":12574,"tsetups":12575,"tselective":12576,"tzonal":12577,"quir":12578,"quartz":12579,"nSw":12580,"nSections":12581,"nSea":12582,"nSingle":12583,"nSliding":12584,"nSecond":12585,"nSince":12586,"nStrac":12587,"nSandstone":12588,"nSpac":12589,"nStick":12590,"nSok":12591,"nStriations":12592,"nSediments":12593,"nSlaty":12594,"nStock":12595,"nStratigraphy":12596,"nSheet":12597,"nSoliva":12598,"nSaint":12599,"nSedimentation":12600,"nSAR":12601,"nSidd":12602,"nStarting":12603,"nSkjer":12604,"nSogn":12605,"lips":12606,"andom":12607,"andoned":12608,"anderha":12609,"apan":12610,"apais":12611,"aparts":12612,"ttent":12613,"ttearing":12614,"ttechn":12615,"ttested":12616,"tformulation":12617,"ritical":12618,"ritten":12619,"rientations":12620,"tacqui":12621,"tacademic":12622,"tacceptable":12623,"tacama":12624,"irk":12625,"irma":12626,"irmed":12627,"tAx":12628,"tAnde":12629,"tAng":12630,"tAmphib":12631,"tApen":12632,"tAngular":12633,"tAngola":12634,"tAbove":12635,"tAztec":12636,"tvon":12637,"tvent":12638,"tvess":12639,"tvalle":12640,"trib":12641,"trian":12642,"therlands":12643,"llis":12644,"tchie":12645,"tchain":12646,"tchannel":12647,"preferred":12648,"tdisreg":12649,"tdisrup":12650,"tdistances":12651,"tdissemin":12652,"umented":12653,"umference":12654,"umnar":12655,"tently":12656,"tenhance":12657,"tenriched":12658,"erential":12659,"tfractals":12660,"tattain":12661,"tattributed":12662,"ongate":12663,"phase":12664,"phers":12665,"phasally":12666,"tmetal":12667,"tmetamorphosed":12668,"tmemory":12669,"nfore":12670,"nfree":12671,"nfour":12672,"nfit":12673,"nfish":12674,"nfring":12675,"nfilled":12676,"nfits":12677,"nfocus":12678,"nfunc":12679,"nfissure":12680,"nfrontal":12681,"nfeeder":12682,"tpartial":12683,"tpartially":12684,"192":12685,"1924":12686,"1953":12687,"ppor":12688,"main":12689,"match":12690,"trestoring":12691,"trestorable":12692,"tense":12693,"tensure":12694,"tensile":12695,"trods":12696,"nthrus":12697,"nthesis":12698,"nthesizing":12699,"iltration":12700,"ilva":12701,"ilinear":12702,"npD":12703,"npk":12704,"npack":12705,"npaleostress":12706,"npinch":12707,"nplace":12708,"npatch":12709,"npseudotachylyte":12710,"nplates":12711,"npulverization":12712,"nplunge":12713,"npancake":12714,"nplanet":12715,"npolyclinal":12716,"tdiffers":12717,"tplumes":12718,"nCase":12719,"nCoo":12720,"nCirc":12721,"nCons":12722,"nClo":12723,"nCoe":12724,"nClimb":12725,"nClose":12726,"nCanyon":12727,"nCarter":12728,"nCentral":12729,"nChron":12730,"nChemical":12731,"nCouette":12732,"ienced":12733,"nAm":12734,"nAnal":12735,"nAround":12736,"nAbr":12737,"nAMS":12738,"nAfric":12739,"nAchen":12740,"nAnswers":12741,"nAraÃ§uaÃŃ":12742,"nAustrheim":12743,"new":12744,"nend":12745,"never":12746,"nequation":12747,"nevalu":12748,"nevolution":12749,"nevents":12750,"nearthquakes":12751,"nequivalent":12752,"nevent":12753,"neigenvalues":12754,"nearthquake":12755,"nelements":12756,"tprecurs":12757,"tpreparation":12758,"tletter":12759,"turning":12760,"ismogenic":12761,"trelays":12762,"utter":12763,"tmodes":12764,"tmodest":12765,"tmodify":12766,"tproven":12767,"tprotolith":12768,"tFoss":12769,"tFinal":12770,"tFreeman":12771,"tFaultFoldForward":12772,"tprogress":12773,"recrystallizing":12774,"tIntroduction":12775,"tInterestingly":12776,"hanges":12777,"aved":12778,"avco":12779,"avier":12780,"tsimulations":12781,"tsimulated":12782,"tThose":12783,"tThink":12784,"tThrus":12785,"nÏĦ":12786,"tarri":12787,"tarrested":12788,"tartific":12789,"tCC":12790,"tCO":12791,"tCore":12792,"tCard":12793,"tCare":12794,"tCons":12795,"tConstant":12796,"tChannel":12797,"tCalculated":12798,"tCouette":12799,"tCusp":12800,"tClosely":12801,"tCGG":12802,"odding":12803,"odgson":12804,"2016":12805,"2015":12806,"2014":12807,"2026":12808,"tWide":12809,"tWill":12810,"tWorld":12811,"tWulff":12812,"tabili":12813,"tablished":12814,"tabandoned":12815,"ads":12816,"adily":12817,"adows":12818,"tcrude":12819,"tcrucial":12820,"tMat":12821,"tMag":12822,"tMay":12823,"tMill":12824,"tMylonite":12825,"tMÃ¸":12826,"tMountain":12827,"tMylonitic":12828,"tMapping":12829,"tMediterranean":12830,"tMiddle":12831,"tMovement":12832,"tMarchini":12833,"tMacLeod":12834,"tMyrvang":12835,"nPS":12836,"nPore":12837,"nPale":12838,"nPlate":12839,"nPres":12840,"nPrior":12841,"nPinch":12842,"nPlanes":12843,"nProfile":12844,"nPolansky":12845,"nPeltzer":12846,"about":12847,"above":12848,"nDl":12849,"nDo":12850,"nDx":12851,"nDan":12852,"nDec":12853,"nDome":12854,"nDie":12855,"nDamage":12856,"nDÃ©collement":12857,"nDeath":12858,"nDomino":12859,"nDensely":12860,"nDrury":12861,"nDogliono":12862,"nRight":12863,"nRob":12864,"nRibeira":12865,"nRouby":12866,"nRowan":12867,"nRaleigh":12868,"nRandom":12869,"nRodding":12870,"gher":12871,"ghtness":12872,"tHa":12873,"tHor":12874,"tHol":12875,"tHard":12876,"tHinterland":12877,"tHalf":12878,"tHarding":12879,"aleide":12880,"agenetic":12881,"tkitch":12882,"tkarst":12883,"torienting":12884,"tconsens":12885,"tconspic":12886,"plands":12887,"tGes":12888,"tGord":12889,"tGreen":12890,"tGabrielsen":12891,"tGEO":12892,"pery":12893,"periment":12894,"permeable":12895,"tcomplication":12896,"tcompositional":12897,"tcompacting":12898,"tcompilation":12899,"tsurfaced":12900,"ttrough":12901,"textensions":12902,"ampling":12903,"ndeeper":12904,"ndeforms":12905,"ndeals":12906,"ndeviations":12907,"ndegree":12908,"ndetailed":12909,"ngliding":12910,"ngneiss":12911,"ngouge":12912,"ngarnet":12913,"lued":12914,"luded":12915,"nthetically":12916,"tPen":12917,"tPol":12918,"tPos":12919,"tPub":12920,"tPres":12921,"tPaleostress":12922,"tPlanar":12923,"tPinch":12924,"tPollard":12925,"tPlatt":12926,"tPicture":12927,"tPredic":12928,"tProfessor":12929,"tPyrene":12930,"tPacific":12931,"nBut":12932,"nBell":12933,"nBons":12934,"nBerg":12935,"nBuck":12936,"nBlack":12937,"nBreddin":12938,"nBai":12939,"nBiot":12940,"nBjÃ¸r":12941,"nBoyer":12942,"nBartle":12943,"ards":12944,"ardinia":12945,"tperm":12946,"tperson":12947,"tpervasive":12948,"trictly":12949,"1010":12950,"1025":12951,"1051":12952,"1048":12953,"asemann":12954,"deposition":12955,"nboth":12956,"nbook":12957,"nbody":12958,"nbalance":12959,"nbackstripping":12960,"nbasins":12961,"nbreccia":12962,"nbisecting":12963,"nbluntness":12964,"nbarrel":12965,"nMan":12966,"nMul":12967,"nMag":12968,"nMallow":12969,"nMars":12970,"nMain":12971,"nMorphology":12972,"nManz":12973,"nMarchini":12974,"nMacLeod":12975,"nMerle":12976,"nMesozoic":12977,"nMigration":12978,"nMurton":12979,"tday":12980,"timplication":12981,"ubian":12982,"ubility":12983,"dio":12984,"dikes":12985,"diagram":12986,"diffusion":12987,"tnearly":12988,"tneotectonic":12989,"tneutron":12990,"curved":12991,"tincorpor":12992,"tBur":12993,"tBad":12994,"tBest":12995,"tBru":12996,"tBiot":12997,"tBingen":12998,"tBalancing":12999,"tBaird":13000,"tBoyd":13001,"nJae":13002,"nJurassic":13003,"tsomeone":13004,"tintercept":13005,"tintermi":13006,"tinteracted":13007,"tinterplay":13008,"tinterchange":13009,"ipment":13010,"tNW":13011,"tNormally":13012,"tNaturally":13013,"tNestor":13014,"tNubian":13015,"ivet":13016,"nway":13017,"nwide":13018,"nword":13019,"nwant":13020,"nwidening":13021,"nals":13022,"nalmost":13023,"tjus":13024,"naa":13025,"naerial":13026,"natomic":13027,"angles":13028,"nmode":13029,"nmissing":13030,"nmylonites":13031,"nmoves":13032,"nmullion":13033,"nmiddle":13034,"nmyrmekite":13035,"nmylonitization":13036,"nmesos":13037,"nmarble":13038,"nmedian":13039,"nImp":13040,"nImper":13041,"nIran":13042,"nImber":13043,"nInSAR":13044,"tRob":13045,"tRits":13046,"tRubber":13047,"tReverse":13048,"tRubey":13049,"tRibs":13050,"tRÃ¸rnes":13051,"tRadiometric":13052,"tflowed":13053,"trefolding":13054,"trefracted":13055,"termedi":13056,"nobs":13057,"toverg":13058,"toversimp":13059,"1121":13060,"1139":13061,"1181":13062,"venient":13063,"nGill":13064,"nGliding":13065,"nGlass":13066,"nGneiss":13067,"nGreat":13068,"nGenerally":13069,"nGoogle":13070,"nGreenschist":13071,"nGawthorpe":13072,"nGueguen":13073,"nGudmundsson":13074,"nGhos":13075,"nGuti":13076,"nGlazner":13077,"nGapais":13078,"tmining":13079,"tminim":13080,"tminus":13081,"ninner":13082,"ninteresting":13083,"ninvestig":13084,"ninvariants":13085,"nindustry":13086,"nintrudes":13087,"tfieldwork":13088,"tthanks":13089,"parts":13090,"parison":13091,"121":13092,"122":13093,"1226":13094,"nEros":13095,"nEigenvectors":13096,"nEvans":13097,"nEquivalent":13098,"nEinfÃ¼":13099,"nEllis":13100,"tifying":13101,"tlowered":13102,"tgeodes":13103,"tgeochronology":13104,"ourg":13105,"nrelation":13106,"nreview":13107,"nreached":13108,"nreplaced":13109,"nretrograde":13110,"nrepeated":13111,"nretrodeform":13112,"nremains":13113,"nremoved":13114,"nreveal":13115,"nrequir":13116,"axially":13117,"162":13118,"1600":13119,"tcoal":13120,"tcoars":13121,"tcoefficients":13122,"tcoesite":13123,"tcoaxially":13124,"tlier":13125,"tbecoming":13126,"icks":13127,"thighs":13128,"ducting":13129,"ttherein":13130,"ttransformed":13131,"ttransects":13132,"ttransient":13133,"ttransecting":13134,"ttransgranular":13135,"ttransposition":13136,"ttranslations":13137,"ttranslates":13138,"ttransfers":13139,"nHer":13140,"nHans":13141,"nHard":13142,"nHorizontal":13143,"nHimalay":13144,"nHomologous":13145,"nHooke":13146,"nHouse":13147,"nHorsetail":13148,"ttide":13149,"ttiling":13150,"tquarter":13151,"tquadr":13152,"tEdition":13153,"tEigenvectors":13154,"tEocene":13155,"tEvans":13156,"ibly":13157,"ibber":13158,"nLi":13159,"nLan":13160,"nLif":13161,"nLink":13162,"nLlo":13163,"nLater":13164,"nLars":13165,"nLower":13166,"nLinks":13167,"nLaure":13168,"tshowed":13169,"tspin":13170,"tsporad":13171,"tspalling":13172,"tsplits":13173,"chapter":13174,"nWhere":13175,"nWall":13176,"nWales":13177,"nWestern":13178,"nWheel":13179,"nWestaway":13180,"nWibber":13181,"tDec":13182,"tDid":13183,"tDark":13184,"tDynamics":13185,"tDrill":13186,"tDomino":13187,"tDonna":13188,"enses":13189,"ensive":13190,"156":13191,"1520":13192,"1512":13193,"1535":13194,"1564":13195,"itial":13196,"itivity":13197,"tterminates":13198,"ooley":13199,"tmineralized":13200,"ayward":13201,"nhand":13202,"nhence":13203,"nhorizon":13204,"nhalf":13205,"nhomologous":13206,"nhalokinesis":13207,"nhorsetail":13208,"nhorst":13209,"nhundreds":13210,"nhttp":13211,"173":13212,"177":13213,"1741":13214,"tundulations":13215,"tupwell":13216,"tupdated":13217,"130":13218,"ncontribu":13219,"ncontrol":13220,"inces":13221,"tsubset":13222,"tsubsequently":13223,"tsubdisc":13224,"tsubsets":13225,"tsubareas":13226,"tsubaerial":13227,"tsubducting":13228,"tdeflect":13229,"tcontract":13230,"tcontracting":13231,"tdots":13232,"tdoing":13233,"tphilosoph":13234,"tphenocrysts":13235,"tnotes":13236,"gradient":13237,"gradu":13238,"thead":13239,"themati":13240,"theavy":13241,"theavily":13242,"nlinked":13243,"nlocked":13244,"nlimestones":13245,"vik":13246,"viole":13247,"tWhitney":13248,"foreland":13249,"tze":13250,"tzenith":13251,"texpense":13252,"texponential":13253,"texpulsion":13254,"twhenever":13255,"1497":13256,"1468":13257,"1483":13258,"taining":13259,"lects":13260,"trecall":13261,"trectangle":13262,"trectangles":13263,"ndia":13264,"ndivided":13265,"ndilational":13266,"orded":13267,"nnow":13268,"nnorth":13269,"nnucleation":13270,"timates":13271,"ledgments":13272,"ocesses":13273,"tthicken":13274,"nandez":13275,"tpainted":13276,"tporphyroblast":13277,"ackle":13278,"tdiscon":13279,"tdiscover":13280,"tclaimed":13281,"tdeserve":13282,"tdespite":13283,"tdeserves":13284,"volved":13285,"tmicrolith":13286,"tanyway":13287,"critical":13288,"221":13289,"228":13290,"otecton":13291,"ifically":13292,"ifying":13293,"ifested":13294,"ambro":13295,"tOtto":13296,"tOil":13297,"tOuter":13298,"tOrientation":13299,"tassess":13300,"tassoci":13301,"tassistance":13302,"tassociation":13303,"tassisted":13304,"vident":13305,"tLess":13306,"tLaw":13307,"tLike":13308,"tLister":13309,"tstatement":13310,"licable":13311,"nklippe":13312,"nkinema":13313,"tface":13314,"tfounded":13315,"tunities":13316,"nextra":13317,"nexam":13318,"nexperimental":13319,"nexfoliation":13320,"nexhib":13321,"nexerc":13322,"tunderlain":13323,"tundergone":13324,"tundergradu":13325,"ilibia":13326,"nNE":13327,"nNow":13328,"nNur":13329,"nNecking":13330,"nNucleation":13331,"nNeck":13332,"tprocessing":13333,"resis":13334,"resolved":13335,"berately":13336,"tUse":13337,"tUnstable":13338,"tUnited":13339,"tUnion":13340,"tUplands":13341,"tcentrif":13342,"tcentered":13343,"tcenturi":13344,"tFortunately":13345,"nInverse":13346,"nInterestingly":13347,"nIntraplate":13348,"Â°).\\":13349,"tJu":13350,"tJim":13351,"tJean":13352,"tJura":13353,"tJapan":13354,"tlocalities":13355,"tgenerously":13356,"ississ":13357,"issling":13358,"tweakly":13359,"tlowermost":13360,"arer":13361,"nOu":13362,"nOff":13363,"nOut":13364,"nOuter":13365,"nOslo":13366,"nOrientation":13367,"nOlson":13368,"nOliver":13369,"nOdinsen":13370,"nOceanic":13371,"nOrientations":13372,"ranites":13373,"tcurl":13374,"tcurre":13375,"tcurvatures":13376,"tseparations":13377,"ophoto":13378,"ophones":13379,"ophisticated":13380,"aracterized":13381,"tequidimensional":13382,"tequipment":13383,"tendpoints":13384,"tWeb":13385,"tWeil":13386,"249":13387,"tapatite":13388,"trespective":13389,"tstrengths":13390,"tstrengthening":13391,"tralia":13392,"hrung":13393,"nru":13394,"nrange":13395,"nrise":13396,"nrup":13397,"nroll":13398,"nridges":13399,"nrolling":13400,"nrounded":13401,"tsup":13402,"tsuitable":13403,"nstrains":13404,"nstraining":13405,"lineations":13406,"nvon":13407,"nvary":13408,"tributions":13409,"nshears":13410,"tviscoplastic":13411,"ussels":13412,"tcrenulations":13413,"abrics":13414,"nshadows":13415,"tgeneralized":13416,"toutputs":13417,"twaste":13418,"ttaking":13419,"tstepping":13420,"tsteadily":13421,"tdramatic":13422,"nDeep":13423,"nDeeper":13424,"nDeforming":13425,"nDetail":13426,"nDelamination":13427,"nDevonian":13428,"334":13429,"tinsight":13430,"tinsolub":13431,"tinstructors":13432,"torigins":13433,"tspaces":13434,"tAlÃ©m":13435,"299":13436,"351":13437,"353":13438,"354":13439,"355":13440,"pressured":13441,"nKim":13442,"nKara":13443,"nKelvin":13444,"nKvale":13445,"nKnowing":13446,"nKreemer":13447,"nKarner":13448,"nunknown":13449,"nunits":13450,"nunconform":13451,"nuntil":13452,"nunmetamorphosed":13453,"ndistance":13454,"ndistortion":13455,"231":13456,"232":13457,"nXiao":13458,"isely":13459,"exposed":13460,"tinfill":13461,"tinflating":13462,"tinfinitesimal":13463,"tinfirma":13464,"tinfiltration":13465,"tlooks":13466,"tstrand":13467,"tmylonitization":13468,"treductions":13469,"hapes":13470,"nisotropy":13471,"nisoclinal":13472,"tflats":13473,"tflaps":13474,"tcorrugations":13475,"rystallized":13476,"tusefulness":13477,"tconfidence":13478,"tpresents":13479,"tpresenting":13480,"tMoores":13481,"tMojave":13482,"nbeh":13483,"nbeing":13484,"nbeach":13485,"nbends":13486,"tpathways":13487,"ntear":13488,"ntempor":13489,"nteeth":13490,"ntektos":13491,"nTherm":13492,"nThermal":13493,"tseeks":13494,"nstressed":13495,"treflections":13496,"lots":13497,"lovers":13498,"lobs":13499,"tsubstantial":13500,"340":13501,"349":13502,"tsheeting":13503,"tsigmoidal":13504,"nExhumation":13505,"nExtracting":13506,"nExperiment":13507,"252":13508,"mica":13509,"micro":13510,"nprograde":13511,"400":13512,"sectional":13513,"rofiles":13514,"tdeck":13515,"nparasitic":13516,"nparautochthonous":13517,"369":13518,"tidentically":13519,"tstratigraphers":13520,"transformation":13521,"transected":13522,"tplagi":13523,"tprojecting":13524,"nVol":13525,"nVerg":13526,"nVariation":13527,"nViscosity":13528,"nVollmer":13529,"nVissers":13530,"nVelocity":13531,"nVendev":13532,"ontinuities":13533,"tdensest":13534,"tsche":13535,"tschematic":13536,"tscanline":13537,"tscenari":13538,"tunmetamorphosed":13539,"tuntwinned":13540,"tunroof":13541,"nwhite":13542,"nwhole":13543,"burg":13544,"tViscosity":13545,"tVeins":13546,"tVissers":13547,"tView":13548,"tVenant":13549,"ombia":13550,"Ã©rre":13551,"tsynkinematic":13552,"tsynsedimentary":13553,"tsynorogenic":13554,"tsynrift":13555,"tsynclines":13556,"tsynthetically":13557,"tsignificance":13558,"nlaboratory":13559,"nlatter":13560,"nlattice":13561,"tsandy":13562,"tRelated":13563,"tReleasing":13564,"tRealistic":13565,"tRemoval":13566,"tReturning":13567,"1975":13568,"nconsist":13569,"nconstrained":13570,"tcomplexly":13571,"central":13572,"centrations":13573,"centered":13574,"nYZ":13575,"nYork":13576,"naspects":13577,"tremnants":13578,"tAntarctica":13579,"tperforated":13580,"456":13581,"color":13582,"colored":13583,"nmass":13584,"nmade":13585,"nmakes":13586,"nmaking":13587,"nmatrices":13588,"ositions":13589,"ositive":13590,"ositories":13591,"trecrystallizing":13592,"nUse":13593,"nUpper":13594,"nUnsw":13595,"nUneven":13596,"nUnfortunately":13597,"nactually":13598,"nacademic":13599,"nacceleration":13600,"tknowing":13601,
[...]
